{
  "version": "1.0",
  "truncation": null,
  "padding": {
    "strategy": "BatchLongest",
    "direction": "Right",
    "pad_to_multiple_of": null,
    "pad_id": 2,
    "pad_type_id": 0,
    "pad_token": "[pad]"
  },
  "added_tokens": [
    {
      "id": 0,
      "content": "[start]",
      "single_word": false,
      "lstrip": false,
      "rstrip": false,
      "normalized": false,
      "special": true
    },
    {
      "id": 1,
      "content": "[end]",
      "single_word": false,
      "lstrip": false,
      "rstrip": false,
      "normalized": false,
      "special": true
    },
    {
      "id": 2,
      "content": "[pad]",
      "single_word": false,
      "lstrip": false,
      "rstrip": false,
      "normalized": false,
      "special": true
    }
  ],
  "normalizer": null,
  "pre_tokenizer": {
    "type": "ByteLevel",
    "add_prefix_space": true,
    "trim_offsets": true,
    "use_regex": true
  },
  "post_processor": null,
  "decoder": {
    "type": "ByteLevel",
    "add_prefix_space": true,
    "trim_offsets": true,
    "use_regex": true
  },
  "model": {
    "type": "BPE",
    "dropout": null,
    "unk_token": null,
    "continuing_subword_prefix": null,
    "end_of_word_suffix": null,
    "fuse_unk": false,
    "byte_fallback": false,
    "ignore_merges": false,
    "vocab": {
      "[start]": 0,
      "[end]": 1,
      "[pad]": 2,
      "!": 3,
      "\"": 4,
      "$": 5,
      "%": 6,
      "'": 7,
      "+": 8,
      ",": 9,
      "-": 10,
      ".": 11,
      "/": 12,
      "0": 13,
      "1": 14,
      "2": 15,
      "3": 16,
      "4": 17,
      "5": 18,
      "6": 19,
      "7": 20,
      "8": 21,
      "9": 22,
      ":": 23,
      ";": 24,
      "?": 25,
      "a": 26,
      "b": 27,
      "c": 28,
      "d": 29,
      "e": 30,
      "f": 31,
      "g": 32,
      "h": 33,
      "i": 34,
      "j": 35,
      "k": 36,
      "l": 37,
      "m": 38,
      "n": 39,
      "o": 40,
      "p": 41,
      "q": 42,
      "r": 43,
      "s": 44,
      "t": 45,
      "u": 46,
      "v": 47,
      "w": 48,
      "x": 49,
      "y": 50,
      "z": 51,
      "§": 52,
      "©": 53,
      "¬": 54,
      "°": 55,
      "¶": 56,
      "º": 57,
      "Â": 58,
      "Ã": 59,
      "Ð": 60,
      "â": 61,
      "Ġ": 62,
      "Ģ": 63,
      "Ĥ": 64,
      "ĵ": 65,
      "Ķ": 66,
      "ĺ": 67,
      "Ļ": 68,
      "Ń": 69,
      "Ġt": 70,
      "Ġi": 71,
      "he": 72,
      "ou": 73,
      "Ġa": 74,
      "Ġw": 75,
      "re": 76,
      "Ġs": 77,
      "Ġy": 78,
      "Ġto": 79,
      "Ġyou": 80,
      "ha": 81,
      "in": 82,
      "Ġd": 83,
      "Ġm": 84,
      "Ġthe": 85,
      "on": 86,
      "Ġb": 87,
      "ve": 88,
      "Ġc": 89,
      "Ġf": 90,
      "Ġl": 91,
      "ing": 92,
      "an": 93,
      "ed": 94,
      "is": 95,
      "ll": 96,
      "Ġhe": 97,
      "or": 98,
      "hat": 99,
      "Ġn": 100,
      "Ġg": 101,
      "en": 102,
      "Ġp": 103,
      "'t": 104,
      "er": 105,
      "Ġha": 106,
      "Ġh": 107,
      "Ġth": 108,
      "Ġo": 109,
      "as": 110,
      "ow": 111,
      "Ġis": 112,
      "ar": 113,
      "Ġdo": 114,
      "Ġbe": 115,
      "me": 116,
      "it": 117,
      "ot": 118,
      "Ġwe": 119,
      "at": 120,
      "Ġtom": 121,
      "Ġit": 122,
      "st": 123,
      "Ġthat": 124,
      "Ġin": 125,
      "le": 126,
      "ke": 127,
      "ay": 128,
      "id": 129,
      "Ġof": 130,
      "Ġe": 131,
      "ld": 132,
      "Ġme": 133,
      "'s": 134,
      "Ġan": 135,
      "ver": 136,
      "oo": 137,
      "Ġdon": 138,
      "Ġthis": 139,
      "et": 140,
      "Ġhave": 141,
      "Ġwas": 142,
      "Ġon": 143,
      "Ġre": 144,
      "gh": 145,
      "Ġu": 146,
      "Ġli": 147,
      "Ġst": 148,
      "es": 149,
      "Ġfor": 150,
      "ic": 151,
      "Ġk": 152,
      "ant": 153,
      "Ġwhat": 154,
      "Ġmy": 155,
      "ome": 156,
      "Ġcan": 157,
      "Ġare": 158,
      "Ġyour": 159,
      "ould": 160,
      "se": 161,
      "Ġwant": 162,
      "ri": 163,
      "ght": 164,
      "Ġne": 165,
      "'m": 166,
      "Ġdid": 167,
      "Ġnot": 168,
      "out": 169,
      "ch": 170,
      "Ġgo": 171,
      "al": 172,
      "Ġkn": 173,
      "ro": 174,
      "ad": 175,
      "Ġshe": 176,
      "'re": 177,
      "Ġwh": 178,
      "Ġknow": 179,
      "ly": 180,
      "ent": 181,
      "very": 182,
      "Ġlike": 183,
      "ith": 184,
      "th": 185,
      "Ġwith": 186,
      "her": 187,
      "im": 188,
      "pp": 189,
      "Ġj": 190,
      "all": 191,
      "one": 192,
      "ee": 193,
      "Ġas": 194,
      "Ġsu": 195,
      "Ġat": 196,
      "ion": 197,
      "ill": 198,
      "ink": 199,
      "ac": 200,
      "Ġsh": 201,
      "ake": 202,
      "Ġthey": 203,
      "ut": 204,
      "Ġr": 205,
      "ust": 206,
      "Ġall": 207,
      "Ġhis": 208,
      "ook": 209,
      "ir": 210,
      "Ġti": 211,
      "ter": 212,
      "Ġte": 213,
      "Ġab": 214,
      "Ġwhe": 215,
      "ain": 216,
      "Ġhow": 217,
      "nd": 218,
      "Ġsome": 219,
      "Ġthink": 220,
      "Ġhim": 221,
      "Ġany": 222,
      "Ġco": 223,
      "Ġtr": 224,
      "ore": 225,
      "Ġwor": 226,
      "thing": 227,
      "ce": 228,
      "Ġso": 229,
      "Ġthere": 230,
      "end": 231,
      "Ġget": 232,
      "'ll": 233,
      "Ġtime": 234,
      "Ġal": 235,
      "Ġno": 236,
      "Ġand": 237,
      "ood": 238,
      "Ġabout": 239,
      "pe": 240,
      "ur": 241,
      "'ve": 242,
      "Ġhere": 243,
      "ct": 244,
      "Ġle": 245,
      "Ġvery": 246,
      "Ġwere": 247,
      "Ġsa": 248,
      "Ġsee": 249,
      "Ġher": 250,
      "us": 251,
      "han": 252,
      "Ġout": 253,
      "Ġdidn": 254,
      "un": 255,
      "Ġwill": 256,
      "ive": 257,
      "ong": 258,
      "ind": 259,
      "mp": 260,
      "ally": 261,
      "red": 262,
      "Ġmar": 263,
      "ge": 264,
      "Ġup": 265,
      "Ġus": 266,
      "Ġhad": 267,
      "ble": 268,
      "Ġwould": 269,
      "Ġevery": 270,
      "Ġhapp": 271,
      "Ġex": 272,
      "Ġif": 273,
      "Ġpl": 274,
      "ight": 275,
      "Ġwhy": 276,
      "Ġlo": 277,
      "Ġhas": 278,
      "Ġone": 279,
      "Ġneed": 280,
      "Ġjust": 281,
      "ry": 282,
      "ren": 283,
      "Ġca": 284,
      "Ġlook": 285,
      "ul": 286,
      "ss": 287,
      "rom": 288,
      "ak": 289,
      "Ġlet": 290,
      "Ġwho": 291,
      "Ġcould": 292,
      "op": 293,
      "alk": 294,
      "Ġshould": 295,
      "ast": 296,
      "Ġgoing": 297,
      "ase": 298,
      "il": 299,
      "Ġde": 300,
      "ate": 301,
      "'d": 302,
      "day": 303,
      "Ġgood": 304,
      "qu": 305,
      "Ġhel": 306,
      "Ġtell": 307,
      "Ġhelp": 308,
      "Ġcome": 309,
      "ist": 310,
      "and": 311,
      "ie": 312,
      "our": 313,
      "Ġdoes": 314,
      "Ġtoo": 315,
      "Ġen": 316,
      "Ġmary": 317,
      "Ġwork": 318,
      "art": 319,
      "Ġple": 320,
      "fe": 321,
      "Ġse": 322,
      "ice": 323,
      "Ġman": 324,
      "Ġwhen": 325,
      "Ġch": 326,
      "Ġfrom": 327,
      "ought": 328,
      "Ġthan": 329,
      "ave": 330,
      "Ġwhere": 331,
      "Ġby": 332,
      "est": 333,
      "Ġam": 334,
      "Ġplease": 335,
      "Ġreally": 336,
      "Ġtake": 337,
      "Ġcon": 338,
      "lf": 339,
      "dy": 340,
      "ays": 341,
      "Ġag": 342,
      "Ġbo": 343,
      "am": 344,
      "ation": 345,
      "Ġpro": 346,
      "Ġtalk": 347,
      "Ġnow": 348,
      "ish": 349,
      "ack": 350,
      "ep": 351,
      "riend": 352,
      "Ġqu": 353,
      "Ġmake": 354,
      "Ġbeen": 355,
      "Ġnever": 356,
      "other": 357,
      "Ġmore": 358,
      "ers": 359,
      "ous": 360,
      "Ġaf": 361,
      "Ġgot": 362,
      "Ġri": 363,
      "Ġmo": 364,
      "Ġmu": 365,
      "Ġcar": 366,
      "Ġpo": 367,
      "if": 368,
      "ck": 369,
      "row": 370,
      "ree": 371,
      "Ġask": 372,
      "Ġar": 373,
      "Ġsomething": 374,
      "Ġwr": 375,
      "ig": 376,
      "Ġint": 377,
      "Ġhappen": 378,
      "Ġcl": 379,
      "Ġhome": 380,
      "Ġeat": 381,
      "ound": 382,
      "Ġv": 383,
      "Ġsp": 384,
      "Ġbut": 385,
      "Ġstu": 386,
      "ort": 387,
      "ine": 388,
      "Ġmuch": 389,
      "Ġread": 390,
      "Ġfriend": 391,
      "ap": 392,
      "Ġsay": 393,
      "Ġright": 394,
      "ather": 395,
      "ess": 396,
      "Ġun": 397,
      "Ġoff": 398,
      "Ġjo": 399,
      "mb": 400,
      "Ġwon": 401,
      "Ġpre": 402,
      "ite": 403,
      "eel": 404,
      "Ġfe": 405,
      "ard": 406,
      "Ġspe": 407,
      "Ġke": 408,
      "oney": 409,
      "Ġfeel": 410,
      "Ġlong": 411,
      "Ġlove": 412,
      "Ġgive": 413,
      "self": 414,
      "Ġho": 415,
      "Ġmoney": 416,
      "Ġnew": 417,
      "itt": 418,
      "Ġbook": 419,
      "Ġlast": 420,
      "bo": 421,
      "Ġbr": 422,
      "Ġbus": 423,
      "Ġpe": 424,
      "Ġad": 425,
      "Ġmad": 426,
      "Ġthought": 427,
      "ning": 428,
      "Ġbet": 429,
      "Ġsure": 430,
      "Ġback": 431,
      "Ġanything": 432,
      "Ġdr": 433,
      "Ġwat": 434,
      "ure": 435,
      "ame": 436,
      "Ġthing": 437,
      "ough": 438,
      "ried": 439,
      "body": 440,
      "ear": 441,
      "ool": 442,
      "Ġday": 443,
      "Ġbel": 444,
      "ild": 445,
      "Ġor": 446,
      "Ġour": 447,
      "nder": 448,
      "Ġdoesn": 449,
      "Ġlot": 450,
      "Ġbu": 451,
      "ass": 452,
      "ag": 453,
      "oom": 454,
      "ople": 455,
      "Ġpeople": 456,
      "hed": 457,
      "Ġagain": 458,
      "Ġtold": 459,
      "Ġmade": 460,
      "ick": 461,
      "Ġspeak": 462,
      "Ġmust": 463,
      "Ġunder": 464,
      "Ġway": 465,
      "Ġac": 466,
      "Ġstay": 467,
      "ieve": 468,
      "Ġlive": 469,
      "ide": 470,
      "au": 471,
      "de": 472,
      "nt": 473,
      "Ġmay": 474,
      "Ġcomp": 475,
      "Ġold": 476,
      "Ġcall": 477,
      "Ġmany": 478,
      "ts": 479,
      "ouse": 480,
      "Ġcare": 481,
      "Ġtry": 482,
      "Ġsaid": 483,
      "Ġtw": 484,
      "Ġsm": 485,
      "ving": 486,
      "Ġdoing": 487,
      "Ġleave": 488,
      "Ġyear": 489,
      "ther": 490,
      "Ġbelieve": 491,
      "Ġtoday": 492,
      "Ġhar": 493,
      "Ġwent": 494,
      "Ġhouse": 495,
      "Ġwa": 496,
      "Ġstill": 497,
      "ra": 498,
      "ol": 499,
      "ways": 500,
      "Ġonly": 501,
      "Ġhappy": 502,
      "Ġalways": 503,
      "Ġbetter": 504,
      "Ġover": 505,
      "urn": 506,
      "orrow": 507,
      "ach": 508,
      "Ġgu": 509,
      "own": 510,
      "Ġroom": 511,
      "rench": 512,
      "Ġpr": 513,
      "Ġfrench": 514,
      "Ġthem": 515,
      "Ġwait": 516,
      "Ġafter": 517,
      "Ġjob": 518,
      "Ġchild": 519,
      "Ġdis": 520,
      "Ġapp": 521,
      "Ġplay": 522,
      "ft": 523,
      "Ġaw": 524,
      "fore": 525,
      "able": 526,
      "ue": 527,
      "ress": 528,
      "Ġisn": 529,
      "ose": 530,
      "Ġsch": 531,
      "Ġbefore": 532,
      "Ġnight": 533,
      "os": 534,
      "mber": 535,
      "Ġschool": 536,
      "Ġhand": 537,
      "age": 538,
      "ty": 539,
      "ace": 540,
      "pt": 541,
      "ment": 542,
      "Ġexp": 543,
      "om": 544,
      "Ġhard": 545,
      "Ġdown": 546,
      "ittle": 547,
      "Ġlittle": 548,
      "Ġfather": 549,
      "Ġwell": 550,
      "Ġpart": 551,
      "iss": 552,
      "hing": 553,
      "Ġbl": 554,
      "Ġeverything": 555,
      "Ġunderst": 556,
      "Ġear": 557,
      "get": 558,
      "Ġchan": 559,
      "ful": 560,
      "ting": 561,
      "blem": 562,
      "ity": 563,
      "Ġproblem": 564,
      "leep": 565,
      "Ġplan": 566,
      "Ġput": 567,
      "Ġbec": 568,
      "Ġwanted": 569,
      "ff": 570,
      "iz": 571,
      "Ġdog": 572,
      "Ġyest": 573,
      "erday": 574,
      "Ġyesterday": 575,
      "Ġpa": 576,
      "Ġtomorrow": 577,
      "Ġkeep": 578,
      "ek": 579,
      "Ġsw": 580,
      "Ġfind": 581,
      "Ġfin": 582,
      "Ġother": 583,
      "reat": 584,
      "Ġalone": 585,
      "Ġhappened": 586,
      "ise": 587,
      "Ġop": 588,
      "ang": 589,
      "Ġhur": 590,
      "Ġleft": 591,
      "Ġunderstand": 592,
      "Ġsc": 593,
      "Ġthree": 594,
      "Ġweek": 595,
      "ved": 596,
      "ict": 597,
      "Ġfa": 598,
      "Ġseem": 599,
      "Ġimp": 600,
      "Ġmeet": 601,
      "Ġcom": 602,
      "xt": 603,
      "Ġtwo": 604,
      "Ġenough": 605,
      "Ġstop": 606,
      "ile": 607,
      "Ġdrink": 608,
      "ied": 609,
      "Ġgl": 610,
      "ven": 611,
      "Ġfriends": 612,
      "ies": 613,
      "Ġthese": 614,
      "ount": 615,
      "Ġasked": 616,
      "act": 617,
      "rest": 618,
      "Ġfl": 619,
      "ised": 620,
      "Ġacc": 621,
      "Ġbuy": 622,
      "Ġdif": 623,
      "Ġshow": 624,
      "ious": 625,
      "Ġdone": 626,
      "Ġinto": 627,
      "Ġever": 628,
      "Ġnothing": 629,
      "read": 630,
      "Ġstart": 631,
      "estion": 632,
      "Ġquestion": 633,
      "Ġide": 634,
      "ire": 635,
      "Ġsaw": 636,
      "Ġnext": 637,
      "der": 638,
      "Ġlate": 639,
      "Ġturn": 640,
      "Ġhear": 641,
      "Ġdoor": 642,
      "wn": 643,
      "ary": 644,
      "Ġcat": 645,
      "irst": 646,
      "Ġsor": 647,
      "Ġhope": 648,
      "Ġsorry": 649,
      "ated": 650,
      "ab": 651,
      "Ġres": 652,
      "Ġeng": 653,
      "Ġbusy": 654,
      "Ġsur": 655,
      "Ġhat": 656,
      "Ġgir": 657,
      "ten": 658,
      "Ġwalk": 659,
      "Ġsleep": 660,
      "Ġadv": 661,
      "Ġaway": 662,
      "Ġreme": 663,
      "Ġdec": 664,
      "ng": 665,
      "Ġwrong": 666,
      "Ġlife": 667,
      "pect": 668,
      "Ġmat": 669,
      "Ġmother": 670,
      "ich": 671,
      "Ġfirst": 672,
      "sw": 673,
      "Ġansw": 674,
      "Ġeveryone": 675,
      "Ġwatch": 676,
      "Ġthings": 677,
      "Ġanyone": 678,
      "Ġkind": 679,
      "Ġremember": 680,
      "Ġgr": 681,
      "Ġteac": 682,
      "Ġopen": 683,
      "ence": 684,
      "Ġbeing": 685,
      "Ġname": 686,
      "ark": 687,
      "ult": 688,
      "Ġidea": 689,
      "arn": 690,
      "ston": 691,
      "Ġmind": 692,
      "Ġsoon": 693,
      "Ġfun": 694,
      "ance": 695,
      "Ġbad": 696,
      "Ġsupp": 697,
      "ew": 698,
      "Ġwithout": 699,
      "Ġcouldn": 700,
      "Ġinte": 701,
      "Ġtheir": 702,
      "Ġwasn": 703,
      "Ġchildren": 704,
      "Ġlist": 705,
      "Ġyears": 706,
      "Ġstr": 707,
      "ted": 708,
      "Ġgave": 709,
      "Ġboston": 710,
      "Ġteacher": 711,
      "Ġmor": 712,
      "ory": 713,
      "Ġbed": 714,
      "Ġbot": 715,
      "Ġche": 716,
      "Ġdri": 717,
      "Ġuse": 718,
      "Ġrain": 719,
      "Ġengl": 720,
      "Ġfam": 721,
      "Ġstud": 722,
      "te": 723,
      "Ġpers": 724,
      "Ġalread": 725,
      "Ġalready": 726,
      "Ġtook": 727,
      "Ġyet": 728,
      "Ġcame": 729,
      "Ġused": 730,
      "Ġfo": 731,
      "Ġknew": 732,
      "Ġseen": 733,
      "ci": 734,
      "oy": 735,
      "Ġmorning": 736,
      "Ġinterest": 737,
      "mer": 738,
      "Ġcle": 739,
      "ote": 740,
      "Ġlooking": 741,
      "Ġbig": 742,
      "Ġfound": 743,
      "Ġlost": 744,
      "Ġheard": 745,
      "Ġtired": 746,
      "ily": 747,
      "Ġwater": 748,
      "Ġph": 749,
      "Ġbest": 750,
      "Ġmist": 751,
      "Ġboy": 752,
      "Ġsame": 753,
      "Ġenglish": 754,
      "ident": 755,
      "Ġaren": 756,
      "Ġanswer": 757,
      "Ġmon": 758,
      "Ġeven": 759,
      "are": 760,
      "ner": 761,
      "apan": 762,
      "les": 763,
      "Ġjapan": 764,
      "Ġatt": 765,
      "Ġsho": 766,
      "Ġbeg": 767,
      "Ġword": 768,
      "Ġpol": 769,
      "Ġten": 770,
      "Ġafra": 771,
      "Ġafraid": 772,
      "Ġper": 773,
      "Ġready": 774,
      "ull": 775,
      "Ġeas": 776,
      "Ġact": 777,
      "Ġro": 778,
      "Ġhaven": 779,
      "Ġoften": 780,
      "Ġstudy": 781,
      "mo": 782,
      "Ġmean": 783,
      "ible": 784,
      "og": 785,
      "Ġel": 786,
      "Ġwish": 787,
      "Ġtrain": 788,
      "osed": 789,
      "Ġyourself": 790,
      "igh": 791,
      "Ġcold": 792,
      "pr": 793,
      "um": 794,
      "Ġ\"": 795,
      "Ġparty": 796,
      "Ġperson": 797,
      "Ġmiss": 798,
      "ister": 799,
      "rents": 800,
      "aking": 801,
      "Ġsing": 802,
      "Ġbrother": 803,
      "Ġmin": 804,
      "Ġrun": 805,
      "Ġcount": 806,
      "orm": 807,
      "Ġtru": 808,
      "gry": 809,
      "Ġpret": 810,
      "ail": 811,
      "Ġcont": 812,
      "Ġwhile": 813,
      "Ġfew": 814,
      "lain": 815,
      "Ġthank": 816,
      "Ġparents": 817,
      "Ġyoung": 818,
      "Ġpain": 819,
      "ished": 820,
      "Ġmyself": 821,
      "Ġlearn": 822,
      "Ġdes": 823,
      "Ġelse": 824,
      "ared": 825,
      "ince": 826,
      "Ġsomeone": 827,
      "cle": 828,
      "Ġtalking": 829,
      "Ġgirl": 830,
      "Ġpay": 831,
      "sp": 832,
      "Ġswim": 833,
      "ian": 834,
      "ually": 835,
      "Ġmight": 836,
      "Ġsec": 837,
      "Ġmatter": 838,
      "be": 839,
      "side": 840,
      "Ġgreat": 841,
      "Ġlisten": 842,
      "Ġstudent": 843,
      "Ġsha": 844,
      "Ġfr": 845,
      "Ġnice": 846,
      "Ġprom": 847,
      "ited": 848,
      "Ġglad": 849,
      "aut": 850,
      "Ġbre": 851,
      "Ġbought": 852,
      "Ġaround": 853,
      "ause": 854,
      "Ġmistake": 855,
      "Ġhour": 856,
      "Ġbeaut": 857,
      "Ġsister": 858,
      "Ġrest": 859,
      "Ġletter": 860,
      "Ġwants": 861,
      "Ġfood": 862,
      "Ġmarried": 863,
      "Ġearly": 864,
      "hes": 865,
      "Ġbro": 866,
      "Ġsurpr": 867,
      "Ġboth": 868,
      "inner": 869,
      "Ġrec": 870,
      "ctor": 871,
      "Ġanother": 872,
      "Ġgetting": 873,
      "Ġplace": 874,
      "aw": 875,
      "Ġlooks": 876,
      "Ġcha": 877,
      "Ġbecause": 878,
      "uck": 879,
      "Ġwind": 880,
      "Ġsit": 881,
      "Ġrep": 882,
      "Ġinv": 883,
      "iful": 884,
      "ream": 885,
      "vor": 886,
      "fic": 887,
      "Ġwhich": 888,
      "Ġknows": 889,
      "most": 890,
      "Ġonce": 891,
      "Ġtrue": 892,
      "Ġhurt": 893,
      "Ġown": 894,
      "ket": 895,
      "Ġminut": 896,
      "Ġwrite": 897,
      "ip": 898,
      "Ġdoctor": 899,
      "Ġwouldn": 900,
      "Ġbeautiful": 901,
      "ced": 902,
      "Ġexpect": 903,
      "Ġbreak": 904,
      "Ġser": 905,
      "ond": 906,
      "Ġsuch": 907,
      "Ġalmost": 908,
      "Ġfar": 909,
      "ize": 910,
      "Ġmov": 911,
      "Ġeverybody": 912,
      "Ġvis": 913,
      "Ġpict": 914,
      "Ġpicture": 915,
      "joy": 916,
      "ife": 917,
      "ork": 918,
      "Ġarri": 919,
      "Ġenjoy": 920,
      "Ġtried": 921,
      "Ġwonder": 922,
      "Ġthose": 923,
      "Ġmeeting": 924,
      "Ġsince": 925,
      "Ġdinner": 926,
      "ert": 927,
      "pped": 928,
      "Ġable": 929,
      "no": 930,
      "ix": 931,
      "Ġforg": 932,
      "Ġmost": 933,
      "med": 934,
      "night": 935,
      "Ġcoff": 936,
      "Ġdays": 937,
      "Ġcoming": 938,
      "Ġcoffee": 939,
      "ock": 940,
      "Ġmet": 941,
      "Ġtruth": 942,
      "ect": 943,
      "Ġwar": 944,
      "ign": 945,
      "Ġsmo": 946,
      "ese": 947,
      "feren": 948,
      "Ġru": 949,
      "Ġwin": 950,
      "ret": 951,
      "Ġmine": 952,
      "Ġforget": 953,
      "Ġpass": 954,
      "more": 955,
      "llow": 956,
      "ti": 957,
      "ens": 958,
      "Ġanymore": 959,
      "ath": 960,
      "Ġey": 961,
      "Ġsn": 962,
      "Ġdiffic": 963,
      "Ġsl": 964,
      "ars": 965,
      "Ġsat": 966,
      "Ġcareful": 967,
      "Ġhate": 968,
      "Ġsk": 969,
      "used": 970,
      "Ġbooks": 971,
      "lt": 972,
      "Ġtrust": 973,
      "unch": 974,
      "gether": 975,
      "ons": 976,
      "Ġspend": 977,
      "Ġseems": 978,
      "ged": 979,
      "Ġkid": 980,
      "Ġshouldn": 981,
      "oud": 982,
      "Ġtogether": 983,
      "Ġeach": 984,
      "here": 985,
      "Ġchange": 986,
      "Ġwaiting": 987,
      "Ġimport": 988,
      "cess": 989,
      "Ġlight": 990,
      "Ġworld": 991,
      "Ġnobody": 992,
      "Ġfamily": 993,
      "we": 994,
      "aught": 995,
      "Ġkill": 996,
      "Ġbir": 997,
      "Ġreal": 998,
      "Ġaccident": 999,
      "Ġdisc": 1000,
      "Ġtonight": 1001,
      "Ġlikes": 1002,
      "anger": 1003,
      "Ġcut": 1004,
      "Ġeasy": 1005,
      "Ġdifferen": 1006,
      "Ġpretty": 1007,
      "Ġ1": 1008,
      "int": 1009,
      "Ġap": 1010,
      "ater": 1011,
      "Ġfelt": 1012,
      "Ġim": 1013,
      "Ġgone": 1014,
      "Ġdrive": 1015,
      "ured": 1016,
      "Ġsick": 1017,
      "ys": 1018,
      "Ġstand": 1019,
      "Ġphone": 1020,
      "Ġrel": 1021,
      "Ġtrying": 1022,
      "Ġend": 1023,
      "ank": 1024,
      "Ġbit": 1025,
      "Ġcook": 1026,
      "Ġwom": 1027,
      "Ġsmall": 1028,
      "ressed": 1029,
      "Ġpres": 1030,
      "Ġdied": 1031,
      "Ġdifficult": 1032,
      "Ġquite": 1033,
      "Ġwindow": 1034,
      "Ġdi": 1035,
      "ssible": 1036,
      "Ġlunch": 1037,
      "Ġstation": 1038,
      "Ġcau": 1039,
      "Ġsound": 1040,
      "Ġluck": 1041,
      "ided": 1042,
      "Ġworking": 1043,
      "Ġfinished": 1044,
      "Ġexc": 1045,
      "Ġclass": 1046,
      "Ġwife": 1047,
      "Ġbor": 1048,
      "Ġhun": 1049,
      "Ġpolice": 1050,
      "Ġwear": 1051,
      "led": 1052,
      "Ġmus": 1053,
      "Ġclose": 1054,
      "Ġlonger": 1055,
      "ors": 1056,
      "less": 1057,
      "icy": 1058,
      "Ġstarted": 1059,
      "fect": 1060,
      "ient": 1061,
      "Ġgame": 1062,
      "Ġimportant": 1063,
      "Ġlooked": 1064,
      "aper": 1065,
      "Ġsupposed": 1066,
      "Ġfollow": 1067,
      "man": 1068,
      "ason": 1069,
      "Ġcho": 1070,
      "Ġnu": 1071,
      "Ġfire": 1072,
      "ision": 1073,
      "ia": 1074,
      "Ġlau": 1075,
      "Ġmovie": 1076,
      "where": 1077,
      "Ġair": 1078,
      "Ġstory": 1079,
      "Ġreading": 1080,
      "Ġfavor": 1081,
      "Ġpark": 1082,
      "ition": 1083,
      "Ġanybody": 1084,
      "Ġmakes": 1085,
      "Ġunt": 1086,
      "Ġsurprised": 1087,
      "Ġdanger": 1088,
      "Ġyours": 1089,
      "Ġvisit": 1090,
      "zy": 1091,
      "Ġquestions": 1092,
      "work": 1093,
      "Ġguess": 1094,
      "Ġson": 1095,
      "iness": 1096,
      "Ġfast": 1097,
      "Ġsuc": 1098,
      "Ġconc": 1099,
      "Ġweather": 1100,
      "Ġexact": 1101,
      "Ġoffice": 1102,
      "time": 1103,
      "Ġcr": 1104,
      "Ġadd": 1105,
      "Ġnear": 1106,
      "Ġsug": 1107,
      "ouble": 1108,
      "Ġfeeling": 1109,
      "lve": 1110,
      "Ġhimself": 1111,
      "Ġmonth": 1112,
      "Ġforgot": 1113,
      "Ġmusic": 1114,
      "Ġfish": 1115,
      "Ġsto": 1116,
      "gest": 1117,
      "ever": 1118,
      "Ġfig": 1119,
      "Ġhigh": 1120,
      "cept": 1121,
      "Ġhurry": 1122,
      "Ġtri": 1123,
      "ken": 1124,
      "ward": 1125,
      "ably": 1126,
      "Ġfree": 1127,
      "ans": 1128,
      "Ġrem": 1129,
      "Ġtimes": 1130,
      "Ġuntil": 1131,
      "lic": 1132,
      "Ġtv": 1133,
      "Ġref": 1134,
      "Ġserious": 1135,
      "king": 1136,
      "Ġent": 1137,
      "Ġbring": 1138,
      "Ġplaying": 1139,
      "ub": 1140,
      "Ġdream": 1141,
      "Ġbicy": 1142,
      "Ġhead": 1143,
      "ord": 1144,
      "Ġsong": 1145,
      "Ġhaving": 1146,
      "Ġangry": 1147,
      "Ġcons": 1148,
      "app": 1149,
      "eric": 1150,
      "ating": 1151,
      "Ġclean": 1152,
      "Ġeyes": 1153,
      "Ġcalled": 1154,
      "ired": 1155,
      "Ġhair": 1156,
      "Ġprob": 1157,
      "Ġexplain": 1158,
      "Ġadvice": 1159,
      "pid": 1160,
      "Ġstupid": 1161,
      "Ġafterno": 1162,
      "Ġturned": 1163,
      "Ġexactly": 1164,
      "Ġinc": 1165,
      "Ġfell": 1166,
      "sh": 1167,
      "ense": 1168,
      "Ġameric": 1169,
      "Ġagree": 1170,
      "Ġhands": 1171,
      "Ġafternoon": 1172,
      "Ġhours": 1173,
      "Ġbicycle": 1174,
      "Ġtall": 1175,
      "Ġhot": 1176,
      "Ġlives": 1177,
      "olog": 1178,
      "Ġsays": 1179,
      "Ġcu": 1180,
      "Ġcry": 1181,
      "Ġtrouble": 1182,
      "Ġdep": 1183,
      "uss": 1184,
      "Ġago": 1185,
      "ib": 1186,
      "ier": 1187,
      "Ġappre": 1188,
      "Ġdecided": 1189,
      "Ġreg": 1190,
      "als": 1191,
      "alth": 1192,
      "Ġsafe": 1193,
      "Ġcountry": 1194,
      "Ġminutes": 1195,
      "Ġprobably": 1196,
      "Ġappreci": 1197,
      ".\"": 1198,
      "ud": 1199,
      "Ġsent": 1200,
      "Ġkiss": 1201,
      "Ġeating": 1202,
      "Ġbroke": 1203,
      "Ġreason": 1204,
      "mmer": 1205,
      "Ġlang": 1206,
      "Ġworry": 1207,
      "Ġlangu": 1208,
      "ph": 1209,
      "Ġconf": 1210,
      "Ġdisapp": 1211,
      "Ġinterested": 1212,
      "Ġstudents": 1213,
      "Ġcaught": 1214,
      "ax": 1215,
      "Ġob": 1216,
      "Ġthinking": 1217,
      "Ġusually": 1218,
      "Ġinteresting": 1219,
      "Ġtable": 1220,
      "Ġjapanese": 1221,
      "ny": 1222,
      "Ġallow": 1223,
      "Ġspo": 1224,
      "00": 1225,
      "ital": 1226,
      "Ġred": 1227,
      "Ġbox": 1228,
      "air": 1229,
      "ered": 1230,
      "Ġtown": 1231,
      "Ġthr": 1232,
      "Ġdead": 1233,
      "Ġgrow": 1234,
      "Ġok": 1235,
      "Ġcomm": 1236,
      "ger": 1237,
      "reet": 1238,
      "Ġran": 1239,
      "Ġquit": 1240,
      "Ġagainst": 1241,
      "ject": 1242,
      "vel": 1243,
      "Ġadvised": 1244,
      "Ġarrived": 1245,
      "Ġtele": 1246,
      "Ġweren": 1247,
      "Ġglass": 1248,
      "Ġsnow": 1249,
      "ouch": 1250,
      "Ġfore": 1251,
      "ized": 1252,
      "Ġfinish": 1253,
      "Ġnumber": 1254,
      "Ġlar": 1255,
      "Ġhomework": 1256,
      "Ġthrough": 1257,
      "ention": 1258,
      "Ġpromise": 1259,
      "em": 1260,
      "Ġlaw": 1261,
      "Ġdaught": 1262,
      "Ġnews": 1263,
      "Ġdifferent": 1264,
      "Ġappreciate": 1265,
      "Ġcost": 1266,
      "per": 1267,
      "Ġproud": 1268,
      "oup": 1269,
      "any": 1270,
      "Ġbegin": 1271,
      "Ġliving": 1272,
      "Ġabs": 1273,
      "Ġmoment": 1274,
      "Ġbusiness": 1275,
      "Ġage": 1276,
      "Ġinf": 1277,
      "Ġcra": 1278,
      "Ġoutside": 1279,
      "Ġquick": 1280,
      "Ġsecret": 1281,
      "ked": 1282,
      "Ġter": 1283,
      "Ġbab": 1284,
      "vent": 1285,
      "Ġthir": 1286,
      "ither": 1287,
      "Ġtrave": 1288,
      "Ġpossible": 1289,
      "br": 1290,
      "ug": 1291,
      "Ġthen": 1292,
      "Ġfive": 1293,
      "enc": 1294,
      "Ġclot": 1295,
      "Ġcatch": 1296,
      "Ġ2": 1297,
      "Ġlater": 1298,
      "Ġpri": 1299,
      "Ġlie": 1300,
      "Ġsummer": 1301,
      "Ġkept": 1302,
      "Ġstrong": 1303,
      "Ġtrip": 1304,
      "ched": 1305,
      "Ġfull": 1306,
      "ross": 1307,
      "ions": 1308,
      "Ġhold": 1309,
      "Ġbecome": 1310,
      "Ġwine": 1311,
      "Ġmaybe": 1312,
      "Ġhealth": 1313,
      "Ġele": 1314,
      "Ġsaying": 1315,
      "az": 1316,
      "Ġface": 1317,
      "ange": 1318,
      "ison": 1319,
      "Ġneeds": 1320,
      "Ġborn": 1321,
      "ience": 1322,
      "not": 1323,
      "Ġtaking": 1324,
      "Ġcomple": 1325,
      "Ġdie": 1326,
      "Ġdoll": 1327,
      "ical": 1328,
      "unk": 1329,
      "ately": 1330,
      "Ġchance": 1331,
      "Ġdress": 1332,
      "Ġmaking": 1333,
      "Ġshoes": 1334,
      "Ġshort": 1335,
      "lfriend": 1336,
      "hind": 1337,
      "Ġtree": 1338,
      "Ġbehind": 1339,
      "ative": 1340,
      "Ġret": 1341,
      "Ġcoll": 1342,
      "Ġwrit": 1343,
      "Ġhungry": 1344,
      "Ġmess": 1345,
      "Ġteam": 1346,
      "Ġsometime": 1347,
      "Ġcompany": 1348,
      "Ġgirlfriend": 1349,
      "Ġperfect": 1350,
      "Ġdaughter": 1351,
      "Ġinter": 1352,
      "ustr": 1353,
      "Ġcomput": 1354,
      "Ġolder": 1355,
      "ned": 1356,
      "Ġmed": 1357,
      "sc": 1358,
      "Ġeaten": 1359,
      "Ġkey": 1360,
      "Ġcomplain": 1361,
      "Ġcheck": 1362,
      "Ġdiscuss": 1363,
      "Ġstayed": 1364,
      "Ġbirth": 1365,
      "Ġfavorite": 1366,
      "Ġdark": 1367,
      "Ġarm": 1368,
      "Ġart": 1369,
      "ertain": 1370,
      "Ġapolog": 1371,
      "use": 1372,
      "Ġsuit": 1373,
      "du": 1374,
      "fer": 1375,
      "Ġset": 1376,
      "ower": 1377,
      "Ġpresent": 1378,
      "bb": 1379,
      "fast": 1380,
      "iet": 1381,
      "Ġtea": 1382,
      "aken": 1383,
      "Ġpoint": 1384,
      "Ġsuggest": 1385,
      "Ġpick": 1386,
      "ended": 1387,
      "Ġneeded": 1388,
      "Ġcity": 1389,
      "Ġgre": 1390,
      "erv": 1391,
      "Ġhosp": 1392,
      "Ġlaugh": 1393,
      "Ġbaby": 1394,
      "ming": 1395,
      "Ġpat": 1396,
      "vers": 1397,
      "Ġworks": 1398,
      "Ġguy": 1399,
      "Ġpaid": 1400,
      "Ġbreakfast": 1401,
      "ensive": 1402,
      "Ġdisappo": 1403,
      "dd": 1404,
      "ying": 1405,
      "Ġmil": 1406,
      "Ġstreet": 1407,
      "Ġaccept": 1408,
      "Ġfail": 1409,
      "Ġdeal": 1410,
      "Ġbuild": 1411,
      "Ġfunny": 1412,
      "otel": 1413,
      "Ġhor": 1414,
      "Ġcannot": 1415,
      "Ġlose": 1416,
      "Ġdecision": 1417,
      "aur": 1418,
      "Ġill": 1419,
      "Ġsign": 1420,
      "Ġgun": 1421,
      "Ġleg": 1422,
      "Ġcrazy": 1423,
      "inted": 1424,
      "Ġce": 1425,
      "Ġcor": 1426,
      "Ġhotel": 1427,
      "Ġwoman": 1428,
      "Ġhospital": 1429,
      "Ġtouch": 1430,
      "Ġclear": 1431,
      "Ġfall": 1432,
      "Ġpie": 1433,
      "Ġworried": 1434,
      "Ġhandle": 1435,
      "ps": 1436,
      "Ġcake": 1437,
      "Ġsomebody": 1438,
      "Ġcomes": 1439,
      "Ġseat": 1440,
      "Ġadm": 1441,
      "Ġinvited": 1442,
      "Ġwearing": 1443,
      "cl": 1444,
      "set": 1445,
      "ual": 1446,
      "Ġaustr": 1447,
      "Ġhit": 1448,
      "ates": 1449,
      "Ġsun": 1450,
      "Ġrich": 1451,
      "Ġwhole": 1452,
      "Ġwatching": 1453,
      "Ġgrand": 1454,
      "Ġchar": 1455,
      "Ġlarge": 1456,
      "Ġcomplete": 1457,
      "Ġaustral": 1458,
      "ike": 1459,
      "uation": 1460,
      "Ġtic": 1461,
      "Ġfix": 1462,
      "Ġpaper": 1463,
      "Ġstore": 1464,
      "Ġquickly": 1465,
      "Ġclothes": 1466,
      "Ġbag": 1467,
      "Ġass": 1468,
      "Ġate": 1469,
      "Ġquiet": 1470,
      "Ġprep": 1471,
      "Ġchanged": 1472,
      "nis": 1473,
      "ness": 1474,
      "Ġdro": 1475,
      "Ġbeer": 1476,
      "Ġemp": 1477,
      "Ġasleep": 1478,
      "Ġlived": 1479,
      "Ġswe": 1480,
      "Ġweekend": 1481,
      "Ġtennis": 1482,
      "Ġrestaur": 1483,
      "Ġtravel": 1484,
      "Ġrestaurant": 1485,
      "ru": 1486,
      "Ġsix": 1487,
      "Ġdist": 1488,
      "Ġexper": 1489,
      "Ġexpensive": 1490,
      "Ġaustralia": 1491,
      "ump": 1492,
      "Ġheart": 1493,
      "Ġdeath": 1494,
      "iction": 1495,
      "Ġchoice": 1496,
      "Ġsometimes": 1497,
      "?\"": 1498,
      "Ġcertain": 1499,
      "Ġhalf": 1500,
      "Ġgoes": 1501,
      "Ġothers": 1502,
      "Ġmonday": 1503,
      "Ġmen": 1504,
      "Ġfight": 1505,
      "Ġneigh": 1506,
      "Ġsituation": 1507,
      "Ġkilled": 1508,
      "Ġcomputer": 1509,
      "Ġneighb": 1510,
      "Ġins": 1511,
      "Ġlock": 1512,
      "ular": 1513,
      "Ġtakes": 1514,
      "Ġmove": 1515,
      "Ġspent": 1516,
      "Ġstudying": 1517,
      "Ġsmoking": 1518,
      "Ġmilk": 1519,
      "cc": 1520,
      "ont": 1521,
      "ash": 1522,
      "Ġwrote": 1523,
      "Ġwords": 1524,
      "room": 1525,
      "Ġborrow": 1526,
      "ider": 1527,
      "pping": 1528,
      "ceed": 1529,
      "Ġhappening": 1530,
      "ased": 1531,
      "Ġsund": 1532,
      "ush": 1533,
      "Ġresp": 1534,
      "Ġbegan": 1535,
      "Ġthanks": 1536,
      "Ġlanguage": 1537,
      "Ġworth": 1538,
      "Ġboss": 1539,
      "itten": 1540,
      "Ġblack": 1541,
      "ully": 1542,
      "Ġreport": 1543,
      "Ġstopped": 1544,
      "Ġris": 1545,
      "Ġupset": 1546,
      "Ġdrunk": 1547,
      "Ġfinally": 1548,
      "Ġstrange": 1549,
      "Ġkids": 1550,
      "Ġcup": 1551,
      "Ġhu": 1552,
      "Ġrather": 1553,
      "Ġteach": 1554,
      "Ġext": 1555,
      "Ġworked": 1556,
      "Ġspeaking": 1557,
      "Ġscared": 1558,
      "Ġsmoke": 1559,
      "fully": 1560,
      "erve": 1561,
      "Ġexam": 1562,
      "Ġdel": 1563,
      "Ġlucky": 1564,
      "Ġinform": 1565,
      "Ġbirthday": 1566,
      "Ġbuilding": 1567,
      "30": 1568,
      "Ġdet": 1569,
      "Ġhid": 1570,
      "irt": 1571,
      "Ġriver": 1572,
      "Ġvac": 1573,
      "Ġwall": 1574,
      "Ġless": 1575,
      "Ġliked": 1576,
      "Ġshut": 1577,
      "Ġgets": 1578,
      "Ġconv": 1579,
      "aged": 1580,
      "Ġbecame": 1581,
      "Ġfigured": 1582,
      "Ġsim": 1583,
      "Ġdiction": 1584,
      "Ġmistakes": 1585,
      "oose": 1586,
      "Ġjoke": 1587,
      "Ġdangerous": 1588,
      "fort": 1589,
      "fied": 1590,
      "port": 1591,
      "Ġgard": 1592,
      "Ġinst": 1593,
      "Ġcoat": 1594,
      "Ġtelling": 1595,
      "Ġsecond": 1596,
      "Ġterri": 1597,
      "Ġforward": 1598,
      "Ġhappens": 1599,
      "Ġclosed": 1600,
      "Ġprison": 1601,
      "Ġdogs": 1602,
      "Ġflow": 1603,
      "ween": 1604,
      "Ġits": 1605,
      "Ġhelped": 1606,
      "Ġprefer": 1607,
      "Ġbrought": 1608,
      "Ġbetween": 1609,
      "Ġorder": 1610,
      "Ġspeaks": 1611,
      "Ġreturn": 1612,
      "Ġgarden": 1613,
      "eal": 1614,
      "tle": 1615,
      "Ġcour": 1616,
      "Ġwhatever": 1617,
      "ations": 1618,
      "Ġearth": 1619,
      "Ġminute": 1620,
      "airs": 1621,
      "Ġdictionary": 1622,
      "Ġsme": 1623,
      "Ġrunning": 1624,
      "Ġimag": 1625,
      "ces": 1626,
      "ky": 1627,
      "Ġcase": 1628,
      "Ġproblems": 1629,
      "Ġdisappointed": 1630,
      "Ġsmell": 1631,
      "Ġpian": 1632,
      "Ġnecess": 1633,
      "Ġalong": 1634,
      "Ġplane": 1635,
      "Ġbroken": 1636,
      "Ġexpected": 1637,
      "Ġslow": 1638,
      "gg": 1639,
      "rist": 1640,
      "ract": 1641,
      "Ġgen": 1642,
      "Ġbeach": 1643,
      "Ġeve": 1644,
      "ics": 1645,
      "onest": 1646,
      "Ġnovel": 1647,
      "Ġlea": 1648,
      "Ġleast": 1649,
      "Ġsell": 1650,
      "Ġchin": 1651,
      "Ġwalked": 1652,
      "cial": 1653,
      "Ġmissed": 1654,
      "bit": 1655,
      "Ġsal": 1656,
      "Ġla": 1657,
      "aster": 1658,
      "Ġlibr": 1659,
      "enty": 1660,
      "Ġwhether": 1661,
      "Ġseeing": 1662,
      "Ġchrist": 1663,
      "Ġjoin": 1664,
      "Ġloves": 1665,
      "ages": 1666,
      "Ġroad": 1667,
      "io": 1668,
      "ries": 1669,
      "Ġtrans": 1670,
      "Ġoffer": 1671,
      "Ġfamous": 1672,
      "Ġcrying": 1673,
      "clock": 1674,
      "ball": 1675,
      "ding": 1676,
      "Ġknown": 1677,
      "Ġflo": 1678,
      "Ġswimming": 1679,
      "Ġsuccess": 1680,
      "av": 1681,
      "Ġsense": 1682,
      "Ġeither": 1683,
      "Ġrid": 1684,
      "Ġsave": 1685,
      "ility": 1686,
      "Ġactually": 1687,
      "Ġfront": 1688,
      "Ġsucceed": 1689,
      "phone": 1690,
      "Ġallowed": 1691,
      "Ġtreat": 1692,
      "Ġcol": 1693,
      "Ġsold": 1694,
      "Ġtalked": 1695,
      "Ġconsider": 1696,
      "Ġleaving": 1697,
      "Ġlibrary": 1698,
      "band": 1699,
      "ination": 1700,
      "Ġhonest": 1701,
      "Ġtest": 1702,
      "ored": 1703,
      "Ġcamer": 1704,
      "Ġexpl": 1705,
      "Ġaddress": 1706,
      "Ġmedic": 1707,
      "Ġapologize": 1708,
      "gn": 1709,
      "Ġfut": 1710,
      "Ġtra": 1711,
      "usband": 1712,
      "itting": 1713,
      "ffic": 1714,
      "Ġbird": 1715,
      "Ġcompletely": 1716,
      "Ġflowers": 1717,
      "Ġevening": 1718,
      "gu": 1719,
      "mas": 1720,
      "Ġdance": 1721,
      "Ġbill": 1722,
      "Ġfool": 1723,
      "Ġsol": 1724,
      "uring": 1725,
      "Ġdollars": 1726,
      "Ġfine": 1727,
      "Ġpar": 1728,
      "Ġhusband": 1729,
      "right": 1730,
      "ction": 1731,
      "Ġdrinking": 1732,
      "Ġrules": 1733,
      "Ġwomen": 1734,
      "Ġsad": 1735,
      "Ġcal": 1736,
      "Ġpun": 1737,
      "Ġesc": 1738,
      "Ġsomewhere": 1739,
      "Ġhasn": 1740,
      "Ġpoor": 1741,
      "Ġopin": 1742,
      "ountain": 1743,
      "Ġfoot": 1744,
      "Ġattention": 1745,
      "Ġsatis": 1746,
      "Ġthirty": 1747,
      "Ġchristmas": 1748,
      "Ġav": 1749,
      "Ġtemp": 1750,
      "Ġwritten": 1751,
      "Ġopened": 1752,
      "Ġfuture": 1753,
      "Ġtax": 1754,
      "Ġwarn": 1755,
      "Ġsil": 1756,
      "Ġside": 1757,
      "Ġhum": 1758,
      "Ġopp": 1759,
      "Ġweight": 1760,
      "Ġsub": 1761,
      "Ġchoose": 1762,
      "Ġarrive": 1763,
      "oub": 1764,
      "reed": 1765,
      "Ġaff": 1766,
      "Ġguit": 1767,
      "Ġpainting": 1768,
      "Ġwriting": 1769,
      "Ġcamera": 1770,
      "ne": 1771,
      "rect": 1772,
      "Ġpop": 1773,
      "Ġsunday": 1774,
      "Ġvacation": 1775,
      "Ġpiano": 1776,
      "Ġnecessary": 1777,
      "Ġtast": 1778,
      "Ġind": 1779,
      "Ġshot": 1780,
      "olved": 1781,
      "Ġblame": 1782,
      "Ġlearned": 1783,
      "Ġgirls": 1784,
      "Ġlistening": 1785,
      "Ġchair": 1786,
      "ton": 1787,
      "Ġduring": 1788,
      "Ġheav": 1789,
      "Ġnerv": 1790,
      "Ġwhite": 1791,
      "Ġrad": 1792,
      "Ġnoise": 1793,
      "Ġsleeping": 1794,
      "lves": 1795,
      "Ġnervous": 1796,
      "ber": 1797,
      "ined": 1798,
      "Ġbother": 1799,
      "Ġfat": 1800,
      "Ġphot": 1801,
      "Ġguitar": 1802,
      "Ġtaken": 1803,
      "rees": 1804,
      "Ġmountain": 1805,
      "Ġbath": 1806,
      "Ġanim": 1807,
      "veral": 1808,
      "Ġship": 1809,
      "Ġtie": 1810,
      "Ġsolve": 1811,
      "Ġseveral": 1812,
      "Ġlawy": 1813,
      "Ġinformation": 1814,
      "che": 1815,
      "Ġbank": 1816,
      "Ġcri": 1817,
      "Ġsudd": 1818,
      "Ġuncle": 1819,
      "Ġnewsp": 1820,
      "Ġsuppose": 1821,
      "medi": 1822,
      "Ġimmedi": 1823,
      "Ġsudden": 1824,
      "Ġign": 1825,
      "head": 1826,
      "Ġsend": 1827,
      "Ġbeha": 1828,
      "ute": 1829,
      "Ġclim": 1830,
      "Ġspee": 1831,
      "Ġdesk": 1832,
      "iv": 1833,
      "Ġty": 1834,
      "kets": 1835,
      "road": 1836,
      "Ġalive": 1837,
      "Ġmedicine": 1838,
      "rell": 1839,
      "Ġtoky": 1840,
      "Ġdate": 1841,
      "Ġpub": 1842,
      "Ġinj": 1843,
      "Ġumb": 1844,
      "selves": 1845,
      "Ġkeys": 1846,
      "Ġshowed": 1847,
      "Ġcats": 1848,
      "Ġpromised": 1849,
      "Ġrespons": 1850,
      "Ġfloor": 1851,
      "Ġtokyo": 1852,
      "Ġumbrell": 1853,
      "ling": 1854,
      "ove": 1855,
      "ened": 1856,
      "Ġwaste": 1857,
      "ently": 1858,
      "Ġcarry": 1859,
      "Ġguys": 1860,
      "Ġcolle": 1861,
      "Ġtransl": 1862,
      "Ġopinion": 1863,
      "Ġspeech": 1864,
      "amp": 1865,
      "ices": 1866,
      "dered": 1867,
      "Ġappro": 1868,
      "Ġwarm": 1869,
      "Ġremain": 1870,
      "Ġbreat": 1871,
      "Ġrece": 1872,
      "ustom": 1873,
      "Ġwhose": 1874,
      "ogn": 1875,
      "Ġrecogn": 1876,
      "Ġglasses": 1877,
      "Ġradio": 1878,
      "friend": 1879,
      "Ġdoub": 1880,
      "Ġmach": 1881,
      "Ġpen": 1882,
      "outh": 1883,
      "Ġwilling": 1884,
      "ived": 1885,
      "Ġvo": 1886,
      "ager": 1887,
      "Ġcarefully": 1888,
      "Ġfigure": 1889,
      "Ġspoke": 1890,
      "Ġcorrect": 1891,
      "Ġticket": 1892,
      "Ġsy": 1893,
      "Ġstar": 1894,
      "eep": 1895,
      "ution": 1896,
      "ird": 1897,
      "Ġprop": 1898,
      "Ġcard": 1899,
      "Ġloved": 1900,
      "Ġfair": 1901,
      "Ġrespect": 1902,
      "Ġshopping": 1903,
      "Ġinvolved": 1904,
      "Ġpictures": 1905,
      "Ġregret": 1906,
      "Ġumbrella": 1907,
      "bed": 1908,
      "come": 1909,
      "ric": 1910,
      "Ġz": 1911,
      "Ġice": 1912,
      "rew": 1913,
      "Ġmis": 1914,
      "Ġhang": 1915,
      "Ġdriving": 1916,
      "Ġcontin": 1917,
      "Ġsounds": 1918,
      "Ġexcuse": 1919,
      "Ġpatient": 1920,
      "Ġhorse": 1921,
      "Ġpiece": 1922,
      "Ġimmediately": 1923,
      "so": 1924,
      "way": 1925,
      "Ġcoup": 1926,
      "Ġlying": 1927,
      "Ġger": 1928,
      "ature": 1929,
      "Ġplans": 1930,
      "Ġraining": 1931,
      "Ġmeans": 1932,
      "Ġapart": 1933,
      "Ġwake": 1934,
      "Ġdressed": 1935,
      "Ġgif": 1936,
      "Ġowe": 1937,
      "Ġpost": 1938,
      "Ġasking": 1939,
      "Ġgiven": 1940,
      "Ġsmart": 1941,
      "Ġharder": 1942,
      "Ġearl": 1943,
      "Ġboys": 1944,
      "ial": 1945,
      "Ġbar": 1946,
      "Ġcross": 1947,
      "Ġfre": 1948,
      "Ġfour": 1949,
      "Ġpull": 1950,
      "Ġpower": 1951,
      "Ġthrow": 1952,
      "Ġmeat": 1953,
      "Ġra": 1954,
      "Ġabroad": 1955,
      "Ġthinks": 1956,
      "Ġshower": 1957,
      "Ġtelephone": 1958,
      "Ġgerman": 1959,
      "Ġnone": 1960,
      "Ġpur": 1961,
      "Ġweird": 1962,
      "Ġunl": 1963,
      "Ġstaying": 1964,
      "Ġmessage": 1965,
      "Ġprepared": 1966,
      "Ġtraffic": 1967,
      "Ġsatisfied": 1968,
      "Ġlawyer": 1969,
      "Ġcollege": 1970,
      "gan": 1971,
      "land": 1972,
      "vision": 1973,
      "Ġve": 1974,
      "iday": 1975,
      "Ġstorm": 1976,
      "Ġjump": 1977,
      "Ġring": 1978,
      "ndred": 1979,
      "Ġarrest": 1980,
      "Ġapple": 1981,
      "Ġsurv": 1982,
      "Ġboyfriend": 1983,
      "Ġamerica": 1984,
      "by": 1985,
      "Ġdan": 1986,
      "Ġemb": 1987,
      "Ġcanad": 1988,
      "Ġshop": 1989,
      "Ġride": 1990,
      "Ġworse": 1991,
      "Ġagreed": 1992,
      "Ġbelong": 1993,
      "Ġperm": 1994,
      "Ġwinter": 1995,
      "Ġhundred": 1996,
      "Ġsimp": 1997,
      "oned": 1998,
      "Ġfact": 1999,
      "Ġwel": 2000,
      "Ġtwice": 2001,
      "Ġprice": 2002,
      "Ġtelevision": 2003,
      "Ġforeign": 2004,
      "Ġmachine": 2005,
      "Ġmail": 2006,
      "Ġcrow": 2007,
      "erc": 2008,
      "Ġrent": 2009,
      "ilt": 2010,
      "Ġval": 2011,
      "Ġblue": 2012,
      "Ġconcer": 2013,
      "Ġamerican": 2014,
      "Ġcouple": 2015,
      "Ġmag": 2016,
      "Ġlake": 2017,
      "Ġlend": 2018,
      "erg": 2019,
      "Ġann": 2020,
      "Ġrequ": 2021,
      "Ġur": 2022,
      "Ġcap": 2023,
      "orts": 2024,
      "Ġspecial": 2025,
      "Ġorgan": 2026,
      "Ġimpo": 2027,
      "Ġeasily": 2028,
      "Ġmovies": 2029,
      "Ġafford": 2030,
      "Ġid": 2031,
      "Ġfill": 2032,
      "Ġline": 2033,
      "lept": 2034,
      "Ġlied": 2035,
      "Ġshirt": 2036,
      "Ġfault": 2037,
      "Ġgrad": 2038,
      "Ġdeserve": 2039,
      "Ġski": 2040,
      "Ġcute": 2041,
      "Ġempty": 2042,
      "Ġcolor": 2043,
      "Ġheavy": 2044,
      "cent": 2045,
      "vious": 2046,
      "Ġahead": 2047,
      "Ġheld": 2048,
      "Ġpast": 2049,
      "Ġhop": 2050,
      "Ġinside": 2051,
      "Ġegg": 2052,
      "rol": 2053,
      "Ġlikely": 2054,
      "ists": 2055,
      "Ġacross": 2056,
      "Ġimpressed": 2057,
      "Ġwonderful": 2058,
      "Ġrefused": 2059,
      "Ġpriv": 2060,
      "Ġrisk": 2061,
      "Ġearlier": 2062,
      "ges": 2063,
      "ghed": 2064,
      "ze": 2065,
      "oof": 2066,
      "Ġstra": 2067,
      "Ġintro": 2068,
      "Ġvol": 2069,
      "Ġuni": 2070,
      "co": 2071,
      "ring": 2072,
      "Ġdeep": 2073,
      "Ġma": 2074,
      "Ġfit": 2075,
      "ator": 2076,
      "stairs": 2077,
      "ief": 2078,
      "Ġsooner": 2079,
      "Ġshare": 2080,
      "Ġpassed": 2081,
      "Ġ19": 2082,
      "Ġdepend": 2083,
      "Ġneighbor": 2084,
      "Ġterrible": 2085,
      "cer": 2086,
      "oun": 2087,
      "Ġtop": 2088,
      "Ġmid": 2089,
      "ane": 2090,
      "idence": 2091,
      "ults": 2092,
      "iling": 2093,
      "Ġdecide": 2094,
      "Ġattend": 2095,
      "Ġyounger": 2096,
      "Ġeye": 2097,
      "Ġrelax": 2098,
      "Ġimpossible": 2099,
      "Ġwed": 2100,
      "Ġbur": 2101,
      "Ġenem": 2102,
      "Ġmom": 2103,
      "Ġprote": 2104,
      "Ġdifference": 2105,
      "Ġfeelings": 2106,
      "Ġabsent": 2107,
      "Ġnewspaper": 2108,
      "Ġinjured": 2109,
      "uit": 2110,
      "Ġed": 2111,
      "Ġfired": 2112,
      "arr": 2113,
      "Ġmem": 2114,
      "Ġjud": 2115,
      "Ġcop": 2116,
      "Ġboat": 2117,
      "Ġvi": 2118,
      "Ġwaited": 2119,
      "Ġenjoyed": 2120,
      "ibility": 2121,
      "Ġelect": 2122,
      "Ġexperience": 2123,
      "Ġconvin": 2124,
      "Ġintrodu": 2125,
      "Ġwood": 2126,
      "Ġfly": 2127,
      "ants": 2128,
      "iled": 2129,
      "Ġstuff": 2130,
      "Ġleaves": 2131,
      "Ġwalking": 2132,
      "Ġpainted": 2133,
      "Ġconcert": 2134,
      "Ġpublic": 2135,
      "dle": 2136,
      "Ġsight": 2137,
      "Ġanywhere": 2138,
      "Ġmarry": 2139,
      "Ġbody": 2140,
      "Ġapples": 2141,
      "Ġdriver": 2142,
      "Ġsurprise": 2143,
      "Ġlaughed": 2144,
      "fortable": 2145,
      "Ġwelcome": 2146,
      "ead": 2147,
      "hood": 2148,
      "iving": 2149,
      "Ġir": 2150,
      "ins": 2151,
      "Ġden": 2152,
      "Ġcur": 2153,
      "Ġocc": 2154,
      "ities": 2155,
      "Ġmeant": 2156,
      "vern": 2157,
      "Ġhist": 2158,
      "Ġalso": 2159,
      "Ġmoved": 2160,
      "Ġposs": 2161,
      "itted": 2162,
      "Ġplayed": 2163,
      "Ġhardly": 2164,
      "Ġpartic": 2165,
      "Ġcooking": 2166,
      "Ġanimals": 2167,
      "Ġembarr": 2168,
      "Ġconvinced": 2169,
      "Ġembarrass": 2170,
      "Ġslept": 2171,
      "Ġdut": 2172,
      "idge": 2173,
      "Ġgovern": 2174,
      "ade": 2175,
      "Ġlead": 2176,
      "Ġsaved": 2177,
      "Ġargu": 2178,
      "Ġfeed": 2179,
      "Ġbuilt": 2180,
      "Ġideas": 2181,
      "Ġfishing": 2182,
      "Ġkissed": 2183,
      "Ġsuddenly": 2184,
      "Ġcrowd": 2185,
      "ls": 2186,
      "Ġeight": 2187,
      "Ġherself": 2188,
      "Ġplenty": 2189,
      "Ġcond": 2190,
      "Ġhol": 2191,
      "Ġdrank": 2192,
      "Ġappear": 2193,
      "Ġsinging": 2194,
      "Ġairport": 2195,
      "Ġlaughing": 2196,
      "ises": 2197,
      "arning": 2198,
      "ster": 2199,
      "aded": 2200,
      "Ġhadn": 2201,
      "Ġlos": 2202,
      "aked": 2203,
      "Ġdem": 2204,
      "Ġpolit": 2205,
      "Ġforgive": 2206,
      "Ġsugar": 2207,
      "Ġremind": 2208,
      "Ġbeginning": 2209,
      "Ġsuitc": 2210,
      "Ġgener": 2211,
      "Ġwo": 2212,
      "Ġsitting": 2213,
      "Ġev": 2214,
      "Ġliar": 2215,
      "iced": 2216,
      "ached": 2217,
      "Ġlearning": 2218,
      "ission": 2219,
      "Ġweeks": 2220,
      "Ġsupport": 2221,
      "Ġbottle": 2222,
      "Ġstudied": 2223,
      "Ġcontrol": 2224,
      "Ġhistory": 2225,
      "oid": 2226,
      "uro": 2227,
      "Ġtaught": 2228,
      "Ġyork": 2229,
      "hamed": 2230,
      "Ġbase": 2231,
      "Ġfaster": 2232,
      "Ġem": 2233,
      "Ġashamed": 2234,
      "Ġsuper": 2235,
      "Ġgotten": 2236,
      "Ġdraw": 2237,
      "Ġsky": 2238,
      "Ġrealize": 2239,
      "Ġpresident": 2240,
      "Ġfollowed": 2241,
      "Ġseriously": 2242,
      "Ġdrop": 2243,
      "Ġgift": 2244,
      "father": 2245,
      "pl": 2246,
      "Ġtrees": 2247,
      "Ġye": 2248,
      "Ġloud": 2249,
      "asure": 2250,
      "seum": 2251,
      "Ġprodu": 2252,
      "Ġmuseum": 2253,
      "Ġbutton": 2254,
      "Ġpress": 2255,
      "Ġblood": 2256,
      "Ġpair": 2257,
      "Ġseemed": 2258,
      "Ġpaint": 2259,
      "Ġfailed": 2260,
      "rupt": 2261,
      "Ġcrime": 2262,
      "Ġcanadian": 2263,
      "loy": 2264,
      "omp": 2265,
      "reme": 2266,
      "Ġbas": 2267,
      "Ġfur": 2268,
      "Ġfif": 2269,
      "Ġland": 2270,
      "Ġnorm": 2271,
      "Ġpenc": 2272,
      "ering": 2273,
      "Ġthough": 2274,
      "ayed": 2275,
      "Ġeuro": 2276,
      "Ġwash": 2277,
      "Ġkit": 2278,
      "ushed": 2279,
      "istic": 2280,
      "Ġsmile": 2281,
      "Ġaccused": 2282,
      "Ġsleepy": 2283,
      "Ġpersonal": 2284,
      "Ġrecognize": 2285,
      "Ġwedding": 2286,
      "Ġprotect": 2287,
      "Ġviol": 2288,
      "Ġduty": 2289,
      "Ġgovernment": 2290,
      "Ġpencil": 2291,
      "book": 2292,
      "sit": 2293,
      "Ġought": 2294,
      "Ġsand": 2295,
      "Ġdad": 2296,
      "Ġdire": 2297,
      "Ġball": 2298,
      "Ġfing": 2299,
      "Ġthous": 2300,
      "osal": 2301,
      "Ġbuying": 2302,
      "Ġmonths": 2303,
      "Ġgrandfather": 2304,
      "Ġextreme": 2305,
      "Ġwarned": 2306,
      "Ġarrested": 2307,
      "Ġthousand": 2308,
      "ape": 2309,
      "hn": 2310,
      "oint": 2311,
      "Ġtot": 2312,
      "Ġmur": 2313,
      "Ġcool": 2314,
      "Ġlond": 2315,
      "eth": 2316,
      "Ġstol": 2317,
      "irty": 2318,
      "Ġdest": 2319,
      "Ġpleased": 2320,
      "Ġproject": 2321,
      "acked": 2322,
      "Ġjohn": 2323,
      "Ġawake": 2324,
      "Ġblind": 2325,
      "Ġfamil": 2326,
      "Ġlanguages": 2327,
      "Ġtaxi": 2328,
      "chen": 2329,
      "Ġdoubt": 2330,
      "Ġenemy": 2331,
      "Ġkitchen": 2332,
      "Ġlondon": 2333,
      "Ġstolen": 2334,
      "cu": 2335,
      "Ġlad": 2336,
      "Ġstood": 2337,
      "Ġstep": 2338,
      "Ġplays": 2339,
      "Ġdeb": 2340,
      "iew": 2341,
      "Ġamaz": 2342,
      "Ġaware": 2343,
      "Ġpersu": 2344,
      "Ġshock": 2345,
      "Ġstole": 2346,
      "Ġtaller": 2347,
      "Ġobvious": 2348,
      "Ġsweet": 2349,
      "Ġinstead": 2350,
      "Ġchinese": 2351,
      "Ġcondition": 2352,
      "cing": 2353,
      "Ġbat": 2354,
      "Ġcow": 2355,
      "Ġwashing": 2356,
      "Ġgod": 2357,
      "Ġknife": 2358,
      "unity": 2359,
      "Ġvill": 2360,
      "Ġfeels": 2361,
      "ments": 2362,
      "Ġaccount": 2363,
      "Ġacting": 2364,
      "Ġfruit": 2365,
      "Ġdivor": 2366,
      "Ġboring": 2367,
      "Ġcharge": 2368,
      "Ġdetail": 2369,
      "ror": 2370,
      "Ġmouth": 2371,
      "Ġlone": 2372,
      "Ġgar": 2373,
      "Ġbeat": 2374,
      "ots": 2375,
      "Ġinno": 2376,
      "Ġdef": 2377,
      "Ġseven": 2378,
      "Ġchur": 2379,
      "Ġclos": 2380,
      "Ġunc": 2381,
      "Ġordered": 2382,
      "Ġdrinks": 2383,
      "Ġpolite": 2384,
      "sidered": 2385,
      "Ġcalm": 2386,
      "Ġopport": 2387,
      "Ġeggs": 2388,
      "col": 2389,
      "ging": 2390,
      "Ġcustom": 2391,
      "Ġnative": 2392,
      "Ġhide": 2393,
      "Ġweb": 2394,
      "Ġmeal": 2395,
      "rious": 2396,
      "Ġneither": 2397,
      "alent": 2398,
      "Ġclub": 2399,
      "Ġplanning": 2400,
      "Ġsched": 2401,
      "Ġmissing": 2402,
      "ency": 2403,
      "Ġveget": 2404,
      "Ġstraight": 2405,
      "Ġextremely": 2406,
      "ior": 2407,
      "iar": 2408,
      "Ġ5": 2409,
      "ines": 2410,
      "Ġmill": 2411,
      "Ġbread": 2412,
      "Ġbike": 2413,
      "vest": 2414,
      "Ġopt": 2415,
      "Ġstick": 2416,
      "Ġfort": 2417,
      "Ġtight": 2418,
      "Ġtalks": 2419,
      "acks": 2420,
      "Ġfeet": 2421,
      "Ġcalling": 2422,
      "Ġkeeps": 2423,
      "Ġflu": 2424,
      "Ġartic": 2425,
      "Ġparis": 2426,
      "Ġpopular": 2427,
      "Ġbreath": 2428,
      "Ġvoice": 2429,
      "Ġsimple": 2430,
      "Ġlonely": 2431,
      "Ġchurch": 2432,
      "rap": 2433,
      "spect": 2434,
      "ume": 2435,
      "Ġgas": 2436,
      "arter": 2437,
      "Ġeff": 2438,
      "Ġjeal": 2439,
      "Ġtears": 2440,
      "une": 2441,
      "Ġconsidered": 2442,
      "Ġprog": 2443,
      "ounded": 2444,
      "Ġspring": 2445,
      "Ġprevent": 2446,
      "Ġfear": 2447,
      "Ġbridge": 2448,
      "olute": 2449,
      "Ġpract": 2450,
      "Ġattract": 2451,
      "Ġfrance": 2452,
      "Ġsentence": 2453,
      "Ġabsolute": 2454,
      "Ġadmit": 2455,
      "Ġproposal": 2456,
      "Ġbaseball": 2457,
      "Ġjealous": 2458,
      "ches": 2459,
      "cket": 2460,
      "ef": 2461,
      "ms": 2462,
      "umb": 2463,
      "Ġsort": 2464,
      "Ġmap": 2465,
      "Ġburn": 2466,
      "Ġcried": 2467,
      "Ġgiving": 2468,
      "Ġoct": 2469,
      "usted": 2470,
      "Ġcars": 2471,
      "Ġstuck": 2472,
      "Ġpeace": 2473,
      "Ġimpro": 2474,
      "arely": 2475,
      "Ġ10": 2476,
      "Ġcomplaining": 2477,
      "Ġgrew": 2478,
      "Ġcertainly": 2479,
      "Ġhiding": 2480,
      "Ġslowly": 2481,
      "Ġcontinue": 2482,
      "ober": 2483,
      "Ġer": 2484,
      "Ġgra": 2485,
      "Ġsocc": 2486,
      "Ġhelping": 2487,
      "Ġsea": 2488,
      "Ġflight": 2489,
      "Ġresult": 2490,
      "Ġcommon": 2491,
      "Ġgreen": 2492,
      "Ġexplan": 2493,
      "Ġtype": 2494,
      "Ġvolun": 2495,
      "Ġunivers": 2496,
      "Ġdemand": 2497,
      "Ġoctober": 2498,
      "Ġsoccer": 2499,
      "sy": 2500,
      "ule": 2501,
      "Ġbored": 2502,
      "Ġcent": 2503,
      "Ġfright": 2504,
      "Ġpot": 2505,
      "Ġcance": 2506,
      "ppy": 2507,
      "Ġteeth": 2508,
      "astic": 2509,
      "ilty": 2510,
      "Ġeats": 2511,
      "Ġguilty": 2512,
      "Ġappoint": 2513,
      "Ġhates": 2514,
      "Ġrains": 2515,
      "Ġbrothers": 2516,
      "Ġentire": 2517,
      "Ġexplained": 2518,
      "Ġneighbors": 2519,
      "Ġreceived": 2520,
      "Ġapartment": 2521,
      "Ġfresh": 2522,
      "Ġeurope": 2523,
      "ho": 2524,
      "Ġtalent": 2525,
      "Ġsqu": 2526,
      "Ġforced": 2527,
      "acket": 2528,
      "uts": 2529,
      "ained": 2530,
      "ilar": 2531,
      "Ġmanager": 2532,
      "Ġscream": 2533,
      "Ġcomfortable": 2534,
      "teen": 2535,
      "Ġmeaning": 2536,
      "Ġlistened": 2537,
      "Ġcause": 2538,
      "Ġnearly": 2539,
      "Ġsubject": 2540,
      "Ġvillage": 2541,
      "min": 2542,
      "Ġdirty": 2543,
      "Ġmood": 2544,
      "Ġfac": 2545,
      "Ġnor": 2546,
      "arch": 2547,
      "oted": 2548,
      "Ġevent": 2549,
      "Ġreach": 2550,
      "Ġlic": 2551,
      "ific": 2552,
      "mbers": 2553,
      "Ġvisited": 2554,
      "Ġexcited": 2555,
      "Ġspoken": 2556,
      "Ġcourse": 2557,
      "Ġsolution": 2558,
      "Ġpurp": 2559,
      "Ġurg": 2560,
      "Ġarticle": 2561,
      "con": 2562,
      "mar": 2563,
      "ns": 2564,
      "Ġmot": 2565,
      "Ġbri": 2566,
      "ories": 2567,
      "Ġneg": 2568,
      "Ġnotice": 2569,
      "Ġrum": 2570,
      "rent": 2571,
      "Ġprof": 2572,
      "uel": 2573,
      "Ġrope": 2574,
      "Ġsinger": 2575,
      "bey": 2576,
      "Ġlights": 2577,
      "Ġfollowing": 2578,
      "Ġgunsh": 2579,
      "Ġlocked": 2580,
      "Ġreturned": 2581,
      "Ġavoid": 2582,
      "Ġmagaz": 2583,
      "Ġprivate": 2584,
      "Ġparticular": 2585,
      "Ġfurther": 2586,
      "na": 2587,
      "rat": 2588,
      "Ġnap": 2589,
      "Ġpush": 2590,
      "Ġlift": 2591,
      "Ġworst": 2592,
      "Ġcaused": 2593,
      "amed": 2594,
      "Ġprove": 2595,
      "Ġune": 2596,
      "Ġunited": 2597,
      "Ġwatched": 2598,
      "Ġaccomp": 2599,
      "Ġcountries": 2600,
      "Ġstanding": 2601,
      "Ġcrit": 2602,
      "Ġescape": 2603,
      "Ġtemper": 2604,
      "Ġschedule": 2605,
      "eared": 2606,
      "Ġyen": 2607,
      "lled": 2608,
      "Ġnine": 2609,
      "ety": 2610,
      "ural": 2611,
      "Ġexha": 2612,
      "Ġamong": 2613,
      "Ġunderstood": 2614,
      "Ġmatch": 2615,
      "Ġmistaken": 2616,
      "Ġexpecting": 2617,
      "Ġrule": 2618,
      "Ġwindows": 2619,
      "000": 2620,
      "bbed": 2621,
      "Ġtickets": 2622,
      "Ġchina": 2623,
      "Ġresponsible": 2624,
      "ergy": 2625,
      "Ġannoy": 2626,
      "Ġidi": 2627,
      "Ġsuitcase": 2628,
      "Ġnormal": 2629,
      "Ġexplanation": 2630,
      "Ġlicense": 2631,
      "hol": 2632,
      "line": 2633,
      "nect": 2634,
      "Ġtill": 2635,
      "Ġdrow": 2636,
      "Ġbark": 2637,
      "Ġfed": 2638,
      "Ġhey": 2639,
      "oth": 2640,
      "Ġform": 2641,
      "Ġgold": 2642,
      "Ġrice": 2643,
      "Ġexerc": 2644,
      "quake": 2645,
      "Ġenergy": 2646,
      "Ġchick": 2647,
      "Ġprices": 2648,
      "ables": 2649,
      "Ġresults": 2650,
      "Ġbedroom": 2651,
      "temp": 2652,
      "Ġshoot": 2653,
      "Ġpretend": 2654,
      "Ġrecently": 2655,
      "Ġrealized": 2656,
      "Ġentered": 2657,
      "Ġdepart": 2658,
      "Ġgrowing": 2659,
      "Ġcell": 2660,
      "Ġearthquake": 2661,
      "Ġimagine": 2662,
      "Ġpermission": 2663,
      "Ġgradu": 2664,
      "Ġopportunity": 2665,
      "Ġuniversity": 2666,
      "Ġpurpose": 2667,
      "cation": 2668,
      "el": 2669,
      "mon": 2670,
      "mother": 2671,
      "Ġdam": 2672,
      "Ġbright": 2673,
      "Ġfu": 2674,
      "Ġheat": 2675,
      "Ġinvest": 2676,
      "Ġreached": 2677,
      "Ġstone": 2678,
      "Ġstates": 2679,
      "Ġking": 2680,
      "Ġknock": 2681,
      "ters": 2682,
      "Ġnose": 2683,
      "Ġexcept": 2684,
      "Ġdelic": 2685,
      "Ġfriendly": 2686,
      "apers": 2687,
      "ards": 2688,
      "Ġcalls": 2689,
      "Ġscen": 2690,
      "Ġimpress": 2691,
      "Ġstarting": 2692,
      "Ġhearing": 2693,
      "Ġchess": 2694,
      "Ġsingle": 2695,
      "Ġcontact": 2696,
      "Ġrude": 2697,
      "Ġchocol": 2698,
      "Ġconfused": 2699,
      "Ġobject": 2700,
      "Ġhealthy": 2701,
      "Ġlazy": 2702,
      "ney": 2703,
      "Ġjudge": 2704,
      "Ġfamiliar": 2705,
      "Ġappointment": 2706,
      "cy": 2707,
      "cri": 2708,
      "rit": 2709,
      "ram": 2710,
      "Ġau": 2711,
      "res": 2712,
      "Ġsoup": 2713,
      "Ġlow": 2714,
      "Ġpu": 2715,
      "ases": 2716,
      "Ġstamp": 2717,
      "Ġnoticed": 2718,
      "Ġsuspect": 2719,
      "ury": 2720,
      "ighted": 2721,
      "Ġmoon": 2722,
      "ify": 2723,
      "Ġclever": 2724,
      "Ġpassport": 2725,
      "Ġsatur": 2726,
      "Ġincred": 2727,
      "Ġcurious": 2728,
      "Ġdepressed": 2729,
      "ibly": 2730,
      "Ġ20": 2731,
      "Ġpicked": 2732,
      "Ġescap": 2733,
      "Ġtaste": 2734,
      "Ġconcerned": 2735,
      "Ġmiddle": 2736,
      "Ġmemory": 2737,
      "Ġproduct": 2738,
      "Ġmillion": 2739,
      "aive": 2740,
      "een": 2741,
      "iers": 2742,
      "under": 2743,
      "yot": 2744,
      "Ġcred": 2745,
      "Ġnat": 2746,
      "Ġnaive": 2747,
      "Ġhabit": 2748,
      "Ġisland": 2749,
      "ides": 2750,
      "Ġste": 2751,
      "Ġnote": 2752,
      "Ġsusp": 2753,
      "ache": 2754,
      "Ġshy": 2755,
      "Ġrang": 2756,
      "Ġaband": 2757,
      "Ġdev": 2758,
      "Ġself": 2759,
      "Ġamb": 2760,
      "ified": 2761,
      "cks": 2762,
      "Ġclock": 2763,
      "icked": 2764,
      "Ġtwenty": 2765,
      "Ġguest": 2766,
      "Ġletters": 2767,
      "Ġgames": 2768,
      "Ġenter": 2769,
      "Ġdreams": 2770,
      "Ġsongs": 2771,
      "Ġinterrupt": 2772,
      "Ġsweater": 2773,
      "Ġwallet": 2774,
      "Ġsilent": 2775,
      "Ġhuman": 2776,
      "Ġtranslate": 2777,
      "Ġholiday": 2778,
      "Ġtotally": 2779,
      "Ġinnocent": 2780,
      "Ġurgent": 2781,
      "Ġsaturday": 2782,
      "cious": 2783,
      "oes": 2784,
      "ery": 2785,
      "Ġsteal": 2786,
      "anted": 2787,
      "Ġcancer": 2788,
      "Ġsuff": 2789,
      "ulation": 2790,
      "Ġgoodby": 2791,
      "Ġspot": 2792,
      "Ġunha": 2793,
      "Ġdrug": 2794,
      "Ġflat": 2795,
      "Ġanswered": 2796,
      "Ġpretended": 2797,
      "Ġkidding": 2798,
      "Ġforgotten": 2799,
      "ugg": 2800,
      "Ġclearly": 2801,
      "Ġfighting": 2802,
      "Ġhuge": 2803,
      "Ġdelighted": 2804,
      "Ġbirds": 2805,
      "Ġphoto": 2806,
      "Ġskiing": 2807,
      "Ġmaj": 2808,
      "Ġwoke": 2809,
      "Ġattractive": 2810,
      "Ġidiot": 2811,
      "den": 2812,
      "hip": 2813,
      "od": 2814,
      "ude": 2815,
      "Ġaut": 2816,
      "Ġwise": 2817,
      "Ġtoward": 2818,
      "Ġdue": 2819,
      "Ġmir": 2820,
      "Ġble": 2821,
      "vered": 2822,
      "Ġcream": 2823,
      "lded": 2824,
      "esome": 2825,
      "iment": 2826,
      "Ġwhenever": 2827,
      "Ġproper": 2828,
      "Ġengine": 2829,
      "Ġbigger": 2830,
      "Ġdesp": 2831,
      "Ġconvince": 2832,
      "Ġavail": 2833,
      "Ġoccur": 2834,
      "Ġabsolutely": 2835,
      "Ġauth": 2836,
      "underst": 2837,
      "Ġcredit": 2838,
      "haps": 2839,
      "Ġcash": 2840,
      "ising": 2841,
      "Ġhero": 2842,
      "Ġbear": 2843,
      "Ġweak": 2844,
      "Ġequ": 2845,
      "Ġrepe": 2846,
      "Ġattemp": 2847,
      "aint": 2848,
      "Ġcovered": 2849,
      "Ġusual": 2850,
      "Ġmanaged": 2851,
      "Ġpoem": 2852,
      "Ġplayer": 2853,
      "omm": 2854,
      "iles": 2855,
      "Ġperhaps": 2856,
      "Ġsisters": 2857,
      "Ġskin": 2858,
      "ording": 2859,
      "Ġincre": 2860,
      "ences": 2861,
      "Ġlegs": 2862,
      "Ġgrandmother": 2863,
      "Ġdistur": 2864,
      "Ġsoldiers": 2865,
      "Ġtastes": 2866,
      "Ġzoo": 2867,
      "Ġlady": 2868,
      "Ġescaped": 2869,
      "Ġgoodbye": 2870,
      "tic": 2871,
      "Ġtour": 2872,
      "Ġach": 2873,
      "Ġdying": 2874,
      "Ġban": 2875,
      "Ġlit": 2876,
      "Ġpic": 2877,
      "Ġpack": 2878,
      "Ġhug": 2879,
      "Ġthreat": 2880,
      "Ġobey": 2881,
      "stem": 2882,
      "ldom": 2883,
      "Ġkyot": 2884,
      "Ġgolf": 2885,
      "Ġjacket": 2886,
      "Ġeverywhere": 2887,
      "Ġexamp": 2888,
      "Ġshoulder": 2889,
      "Ġseldom": 2890,
      "Ġvict": 2891,
      "Ġvote": 2892,
      "Ġunf": 2893,
      "Ġbetr": 2894,
      "Ġlots": 2895,
      "ieved": 2896,
      "Ġawesome": 2897,
      "Ġchanges": 2898,
      "irsty": 2899,
      "Ġshar": 2900,
      "Ġended": 2901,
      "Ġdiet": 2902,
      "Ġcollect": 2903,
      "bby": 2904,
      "Ġsalt": 2905,
      "Ġbehav": 2906,
      "Ġraise": 2907,
      "Ġlosing": 2908,
      "Ġshocked": 2909,
      "Ġexhausted": 2910,
      "Ġchocolate": 2911,
      "Ġkyoto": 2912,
      "hered": 2913,
      "Ġmention": 2914,
      "Ġtheory": 2915,
      "Ġlay": 2916,
      "orn": 2917,
      "Ġpred": 2918,
      "Ġthief": 2919,
      "Ġemer": 2920,
      "Ġund": 2921,
      "ional": 2922,
      "tern": 2923,
      "unately": 2924,
      "Ġcamp": 2925,
      "Ġmanage": 2926,
      "Ġconnect": 2927,
      "Ġcarried": 2928,
      "Ġunless": 2929,
      "Ġbelieved": 2930,
      "Ġoper": 2931,
      "ires": 2932,
      "Ġrecomm": 2933,
      "Ġreply": 2934,
      "ship": 2935,
      "Ġdropped": 2936,
      "Ġemploy": 2937,
      "Ġdistance": 2938,
      "Ġclimb": 2939,
      "Ġembarrassed": 2940,
      "Ġfinger": 2941,
      "Ġamazing": 2942,
      "Ġvegetables": 2943,
      "Ġexercise": 2944,
      "Ġauthor": 2945,
      "Ġbehavior": 2946,
      "eg": 2947,
      "mat": 2948,
      "nic": 2949,
      "Ġtough": 2950,
      "Ġben": 2951,
      "Ġcir": 2952,
      "Ġcous": 2953,
      "Ġpool": 2954,
      "Ġwet": 2955,
      "Ġital": 2956,
      "Ġwashed": 2957,
      "Ġremo": 2958,
      "Ġjour": 2959,
      "Ġsomed": 2960,
      "fered": 2961,
      "Ġsports": 2962,
      "Ġbutter": 2963,
      "Ġbrave": 2964,
      "Ġspeaker": 2965,
      "Ġdise": 2966,
      "Ġdisg": 2967,
      "Ġexpress": 2968,
      "izz": 2969,
      "Ġgroup": 2970,
      "Ġtruck": 2971,
      "Ġmatters": 2972,
      "Ġserv": 2973,
      "Ġtrusted": 2974,
      "Ġdiary": 2975,
      "Ġcruel": 2976,
      "Ġconfident": 2977,
      "Ġintern": 2978,
      "Ġassist": 2979,
      "Ġtraveling": 2980,
      "Ġdeter": 2981,
      "Ġsimilar": 2982,
      "Ġpunct": 2983,
      "Ġpunished": 2984,
      "overed": 2985,
      "Ġsystem": 2986,
      "Ġmisunderst": 2987,
      "Ġorganized": 2988,
      "Ġfilled": 2989,
      "Ġemail": 2990,
      "Ġmurder": 2991,
      "Ġfrightened": 2992,
      "Ġchicken": 2993,
      "Ġunhappy": 2994,
      "Ġavailable": 2995,
      "Ġsomeday": 2996,
      "gth": 2997,
      "ler": 2998,
      "Ġdent": 2999,
      "Ġcig": 3000,
      "lling": 3001,
      "Ġnuts": 3002,
      "its": 3003,
      "Ġweap": 3004,
      "Ġtext": 3005,
      "Ġtells": 3006,
      "iest": 3007,
      "Ġmoving": 3008,
      "Ġintend": 3009,
      "Ġcla": 3010,
      "Ġview": 3011,
      "Ġacqu": 3012,
      "Ġharm": 3013,
      "Ġprin": 3014,
      "Ġdownstairs": 3015,
      "Ġaccording": 3016,
      "Ġstranger": 3017,
      "Ġcheer": 3018,
      "Ġengland": 3019,
      "Ġpaying": 3020,
      "Ġcookies": 3021,
      "Ġprize": 3022,
      "Ġaccepted": 3023,
      "Ġexamination": 3024,
      "Ġignore": 3025,
      "Ġdancing": 3026,
      "Ġpossibility": 3027,
      "Ġdirect": 3028,
      "ckets": 3029,
      "form": 3030,
      "lies": 3031,
      "ses": 3032,
      "Ġfurn": 3033,
      "Ġnur": 3034,
      "Ġpizz": 3035,
      "Ġhy": 3036,
      "Ġhire": 3037,
      "Ġbell": 3038,
      "Ġecon": 3039,
      "antage": 3040,
      "acy": 3041,
      "ung": 3042,
      "Ġupstairs": 3043,
      "Ġcapt": 3044,
      "Ġconst": 3045,
      "Ġord": 3046,
      "Ġcomplic": 3047,
      "Ġoldest": 3048,
      "Ġdishes": 3049,
      "Ġadvantage": 3050,
      "Ġshall": 3051,
      "Ġfriday": 3052,
      "Ġpoliceman": 3053,
      "Ġamericans": 3054,
      "Ġborrowed": 3055,
      "Ġcards": 3056,
      "Ġunlike": 3057,
      "Ġcopy": 3058,
      "Ġelectric": 3059,
      "Ġsharp": 3060,
      "Ġemerg": 3061,
      "Ġpunctual": 3062,
      "Ġeconom": 3063,
      "ks": 3064,
      "Ġaud": 3065,
      "ining": 3066,
      "Ġcre": 3067,
      "Ġfle": 3068,
      "Ġgho": 3069,
      "Ġhired": 3070,
      "ashed": 3071,
      "iting": 3072,
      "Ġef": 3073,
      "Ġmeals": 3074,
      "rib": 3075,
      "aces": 3076,
      "Ġroof": 3077,
      "ainted": 3078,
      "Ġhappiness": 3079,
      "Ġloc": 3080,
      "Ġcab": 3081,
      "Ġconvers": 3082,
      "ational": 3083,
      "Ġpos": 3084,
      "Ġvide": 3085,
      "Ġunfort": 3086,
      "Ġcompet": 3087,
      "Ġsmarter": 3088,
      "Ġthemselves": 3089,
      "Ġnames": 3090,
      "Ġcheap": 3091,
      "ograp": 3092,
      "Ġdescri": 3093,
      "Ġconcent": 3094,
      "Ġforever": 3095,
      "Ġperfectly": 3096,
      "Ġartist": 3097,
      "Ġfixed": 3098,
      "Ġimagination": 3099,
      "Ġobviously": 3100,
      "Ġmagazine": 3101,
      "Ġdeterm": 3102,
      "Ġunlikely": 3103,
      "Ġghost": 3104,
      "do": 3105,
      "gers": 3106,
      "ker": 3107,
      "light": 3108,
      "Ġ4": 3109,
      "Ġyes": 3110,
      "Ġfil": 3111,
      "llen": 3112,
      "Ġthirsty": 3113,
      "Ġoil": 3114,
      "asant": 3115,
      "itch": 3116,
      "Ġlies": 3117,
      "Ġstri": 3118,
      "Ġjail": 3119,
      "urance": 3120,
      "ives": 3121,
      "Ġloss": 3122,
      "Ġmode": 3123,
      "Ġhobby": 3124,
      "Ġears": 3125,
      "Ġhurried": 3126,
      "Ġscient": 3127,
      "Ġanswers": 3128,
      "Ġbott": 3129,
      "Ġrained": 3130,
      "aret": 3131,
      "Ġeasier": 3132,
      "Ġexchan": 3133,
      "Ġthird": 3134,
      "Ġhorri": 3135,
      "ashion": 3136,
      "Ġrequest": 3137,
      "Ġcapital": 3138,
      "cohol": 3139,
      "Ġedu": 3140,
      "Ġintroduce": 3141,
      "Ġdenied": 3142,
      "Ġpractice": 3143,
      "Ġrumor": 3144,
      "Ġdelicious": 3145,
      "Ġnatural": 3146,
      "Ġdentist": 3147,
      "Ġemergency": 3148,
      "Ġeffect": 3149,
      "Ġconcentr": 3150,
      "arest": 3151,
      "cut": 3152,
      "up": 3153,
      "âĢ": 3154,
      "Ġsize": 3155,
      "Ġfro": 3156,
      "ings": 3157,
      "Ġgent": 3158,
      "Ġpage": 3159,
      "iture": 3160,
      "Ġwears": 3161,
      "Ġarea": 3162,
      "Ġnearest": 3163,
      "Ġgoal": 3164,
      "Ġwithin": 3165,
      "Ġabove": 3166,
      "ains": 3167,
      "using": 3168,
      "uses": 3169,
      "Ġmarket": 3170,
      "Ġusing": 3171,
      "Ġexce": 3172,
      "ulty": 3173,
      "Ġpleasure": 3174,
      "Ġoffended": 3175,
      "Ġbelieves": 3176,
      "Ġdisag": 3177,
      "Ġshape": 3178,
      "Ġfoods": 3179,
      "Ġenjoying": 3180,
      "Ġhung": 3181,
      "Ġcleaned": 3182,
      "Ġdiscussion": 3183,
      "Ġarms": 3184,
      "Ġfailure": 3185,
      "Ġinsurance": 3186,
      "Ġteaching": 3187,
      "Ġjokes": 3188,
      "Ġsmells": 3189,
      "Ġresponsibility": 3190,
      "Ġjumped": 3191,
      "Ġhoping": 3192,
      "Ġsandw": 3193,
      "Ġgarage": 3194,
      "Ġeventually": 3195,
      "Ġprofess": 3196,
      "Ġgunshot": 3197,
      "Ġcritic": 3198,
      "Ġtemperature": 3199,
      "Ġexample": 3200,
      "Ġfurniture": 3201,
      "Ġcomplicated": 3202,
      "Ġconversation": 3203,
      "fety": 3204,
      "hy": 3205,
      "over": 3206,
      "yed": 3207,
      "Ġ3": 3208,
      "Ġtend": 3209,
      "ones": 3210,
      "Ġhesit": 3211,
      "Ġug": 3212,
      "tery": 3213,
      "Ġanyway": 3214,
      "Ġalcohol": 3215,
      "Ġnoon": 3216,
      "Ġsafety": 3217,
      "ateful": 3218,
      "Ġsearch": 3219,
      "Ġprov": 3220,
      "Ġspeed": 3221,
      "Ġourselves": 3222,
      "Ġscar": 3223,
      "Ġgrateful": 3224,
      "Ġintell": 3225,
      "Ġrecord": 3226,
      "Ġdifficulty": 3227,
      "Ġslight": 3228,
      "Ġspending": 3229,
      "perate": 3230,
      "Ġsuggested": 3231,
      "Ġinstru": 3232,
      "Ġsucceeded": 3233,
      "Ġexplos": 3234,
      "Ġpopulation": 3235,
      "Ġbathroom": 3236,
      "Ġneighborhood": 3237,
      "Ġdivorced": 3238,
      "Ġvolunte": 3239,
      "Ġguests": 3240,
      "Ġcigaret": 3241,
      "Ġpizza": 3242,
      "Ġposition": 3243,
      "Ġgentle": 3244,
      "Ġexcell": 3245,
      "fa": 3246,
      "ued": 3247,
      "ues": 3248,
      "xious": 3249,
      "zen": 3250,
      "Ġ8": 3251,
      "Ġtou": 3252,
      "Ġtur": 3253,
      "Ġaim": 3254,
      "Ġwis": 3255,
      "Ġsens": 3256,
      "Ġband": 3257,
      "Ġbrow": 3258,
      "ves": 3259,
      "Ġcong": 3260,
      "Ġcast": 3261,
      "Ġhi": 3262,
      "Ġhill": 3263,
      "Ġhig": 3264,
      "itive": 3265,
      "lebr": 3266,
      "key": 3267,
      "Ġstren": 3268,
      "Ġstate": 3269,
      "Ġstom": 3270,
      "Ġstock": 3271,
      "Ġsuic": 3272,
      "Ġrace": 3273,
      "Ġsoft": 3274,
      "Ġsofa": 3275,
      "Ġalar": 3276,
      "unt": 3277,
      "Ġpocket": 3278,
      "Ġintention": 3279,
      "Ġfever": 3280,
      "Ġcareless": 3281,
      "Ġchildhood": 3282,
      "Ġapply": 3283,
      "oming": 3284,
      "Ġaccustom": 3285,
      "Ġteachers": 3286,
      "Ġuseful": 3287,
      "ians": 3288,
      "Ġwinning": 3289,
      "Ġspends": 3290,
      "Ġairpl": 3291,
      "Ġilleg": 3292,
      "Ġcelebr": 3293,
      "Ġcourage": 3294,
      "Ġtreated": 3295,
      "Ġremained": 3296,
      "Ġstaring": 3297,
      "Ġfairly": 3298,
      "Ġdepends": 3299,
      "Ġintroduced": 3300,
      "Ġwoods": 3301,
      "Ġarguing": 3302,
      "Ġsupermar": 3303,
      "Ġburned": 3304,
      "Ġsuspic": 3305,
      "Ġabandoned": 3306,
      "Ġpicnic": 3307,
      "Ġnurse": 3308,
      "Ġmodel": 3309,
      "Ġintellig": 3310,
      "Ġexcellent": 3311,
      "Ġsupermarket": 3312,
      "aired": 3313,
      "iable": 3314,
      "po": 3315,
      "zz": 3316,
      "Ġver": 3317,
      "Ġdish": 3318,
      "Ġdating": 3319,
      "Ġfashion": 3320,
      "llo": 3321,
      "Ġnar": 3322,
      "Ġpity": 3323,
      "Ġpsy": 3324,
      "itation": 3325,
      "atoes": 3326,
      "Ġreti": 3327,
      "Ġlim": 3328,
      "icer": 3329,
      "Ġrab": 3330,
      "irm": 3331,
      "Ġcoin": 3332,
      "Ġtrick": 3333,
      "cted": 3334,
      "ulous": 3335,
      "Ġadop": 3336,
      "Ġmayor": 3337,
      "icted": 3338,
      "Ġlately": 3339,
      "Ġdoors": 3340,
      "Ġgrass": 3341,
      "Ġpercent": 3342,
      "Ġacted": 3343,
      "Ġrepl": 3344,
      "Ġfarm": 3345,
      "Ġdrives": 3346,
      "Ġhighly": 3347,
      "Ġremark": 3348,
      "Ġrefuse": 3349,
      "Ġcosts": 3350,
      "Ġtraveled": 3351,
      "Ġcomplained": 3352,
      "bitious": 3353,
      "Ġsolved": 3354,
      "Ġpostp": 3355,
      "Ġbasket": 3356,
      "Ġdestro": 3357,
      "Ġpersuaded": 3358,
      "Ġnegot": 3359,
      "Ġmajor": 3360,
      "Ġoccurred": 3361,
      "Ġbetrayed": 3362,
      "Ġrecommend": 3363,
      "Ġcousin": 3364,
      "Ġdisease": 3365,
      "Ġvideo": 3366,
      "âĢĻ": 3367,
      "Ġretired": 3368,
      "ees": 3369,
      "oon": 3370,
      "ta": 3371,
      "tes": 3372,
      "Ġdry": 3373,
      "Ġmaster": 3374,
      "Ġbite": 3375,
      "Ġcouch": 3376,
      "orter": 3377,
      "Ġnature": 3378,
      "Ġnaked": 3379,
      "Ġhous": 3380,
      "Ġiss": 3381,
      "Ġdocu": 3382,
      "Ġanxious": 3383,
      "iche": 3384,
      "ically": 3385,
      "Ġability": 3386,
      "Ġcops": 3387,
      "Ġexist": 3388,
      "Ġworkers": 3389,
      "Ġcloud": 3390,
      "Ġspace": 3391,
      "Ġspread": 3392,
      "Ġjoking": 3393,
      "Ġsmiled": 3394,
      "Ġpron": 3395,
      "Ġsco": 3396,
      "Ġhated": 3397,
      "Ġattack": 3398,
      "Ġrepaired": 3399,
      "Ġdoctors": 3400,
      "Ġheadache": 3401,
      "Ġwriter": 3402,
      "Ġseats": 3403,
      "Ġsalary": 3404,
      "Ġfoolish": 3405,
      "Ġcrimin": 3406,
      "Ġgermany": 3407,
      "Ġyellow": 3408,
      "Ġdetails": 3409,
      "Ġprevented": 3410,
      "Ġtalented": 3411,
      "Ġscene": 3412,
      "Ġugly": 3413,
      "Ġaccustomed": 3414,
      "af": 3415,
      "ipped": 3416,
      "par": 3417,
      "Ġtim": 3418,
      "Ġwore": 3419,
      "Ġsouth": 3420,
      "Ġtowe": 3421,
      "Ġmain": 3422,
      "Ġmerc": 3423,
      "Ġbarely": 3424,
      "Ġpet": 3425,
      "Ġmel": 3426,
      "Ġmembers": 3427,
      "Ġrese": 3428,
      "Ġrely": 3429,
      "Ġround": 3430,
      "Ġsale": 3431,
      "Ġlog": 3432,
      "Ġdece": 3433,
      "Ġseason": 3434,
      "Ġwherever": 3435,
      "Ġnowhere": 3436,
      "Ġpoison": 3437,
      "Ġgives": 3438,
      "Ġbrush": 3439,
      "osen": 3440,
      "Ġfinding": 3441,
      "Ġhurts": 3442,
      "Ġadvance": 3443,
      "Ġkinds": 3444,
      "Ġbadly": 3445,
      "Ġstrict": 3446,
      "Ġstudies": 3447,
      "cient": 3448,
      "Ġperform": 3449,
      "Ġruns": 3450,
      "Ġrelig": 3451,
      "Ġsmaller": 3452,
      "Ġdiv": 3453,
      "Ġclassroom": 3454,
      "Ġobs": 3455,
      "Ġillness": 3456,
      "Ġprisoners": 3457,
      "Ġfootball": 3458,
      "Ġclimbed": 3459,
      "Ġsurvive": 3460,
      "Ġrelaxed": 3461,
      "Ġleader": 3462,
      "Ġcloser": 3463,
      "Ġgrab": 3464,
      "Ġfacts": 3465,
      "Ġdrowned": 3466,
      "Ġdamage": 3467,
      "Ġexplosion": 3468,
      "Ġsuicide": 3469,
      "lish": 3470,
      "Ġ6": 3471,
      "rets": 3472,
      "Ġtooth": 3473,
      "Ġfile": 3474,
      "ances": 3475,
      "Ġgate": 3476,
      "ening": 3477,
      "Ġthrew": 3478,
      "Ġmember": 3479,
      "Ġrev": 3480,
      "Ġstars": 3481,
      "Ġcand": 3482,
      "Ġwhis": 3483,
      "Ġteen": 3484,
      "Ġaltern": 3485,
      "aka": 3486,
      "Ġenv": 3487,
      "Ġchosen": 3488,
      "Ġqual": 3489,
      "Ġvase": 3490,
      "Ġlovely": 3491,
      "board": 3492,
      "Ġcompared": 3493,
      "Ġawful": 3494,
      "Ġblock": 3495,
      "Ġflower": 3496,
      "Ġadvise": 3497,
      "Ġrock": 3498,
      "Ġpromises": 3499,
      "Ġpassen": 3500,
      "Ġfalling": 3501,
      "Ġexperi": 3502,
      "Ġselling": 3503,
      "Ġcrossed": 3504,
      "Ġpulled": 3505,
      "Ġraised": 3506,
      "Ġprogram": 3507,
      "Ġstamps": 3508,
      "Ġeducation": 3509,
      "Ġillegal": 3510,
      "Ġnegoti": 3511,
      "ius": 3512,
      "saka": 3513,
      "to": 3514,
      "hemat": 3515,
      "Ġast": 3516,
      "Ġwit": 3517,
      "Ġsang": 3518,
      "Ġtong": 3519,
      "Ġdiz": 3520,
      "Ġcoo": 3521,
      "Ġfence": 3522,
      "ism": 3523,
      "Ġhello": 3524,
      "Ġgreet": 3525,
      "Ġpill": 3526,
      "Ġodd": 3527,
      "Ġosaka": 3528,
      "otest": 3529,
      "Ġwealth": 3530,
      "Ġinvent": 3531,
      "Ġwasting": 3532,
      "Ġstairs": 3533,
      "Ġkil": 3534,
      "Ġjacks": 3535,
      "illy": 3536,
      "Ġwhoever": 3537,
      "Ġenc": 3538,
      "Ġpleasant": 3539,
      "Ġsepar": 3540,
      "Ġaffect": 3541,
      "Ġunable": 3542,
      "Ġproof": 3543,
      "Ġprotest": 3544,
      "Ġapplic": 3545,
      "Ġparties": 3546,
      "Ġimpat": 3547,
      "Ġresign": 3548,
      "Ġsurf": 3549,
      "Ġmathemat": 3550,
      "Ġcheese": 3551,
      "Ġchallen": 3552,
      "Ġinvite": 3553,
      "Ġserved": 3554,
      "Ġwondering": 3555,
      "Ġexciting": 3556,
      "velop": 3557,
      "Ġholding": 3558,
      "Ġarmy": 3559,
      "Ġextra": 3560,
      "Ġindust": 3561,
      "Ġapproach": 3562,
      "Ġsymp": 3563,
      "Ġburst": 3564,
      "Ġappears": 3565,
      "Ġpersuade": 3566,
      "Ġeffort": 3567,
      "Ġefforts": 3568,
      "Ġentirely": 3569,
      "Ġinvestig": 3570,
      "Ġpuzz": 3571,
      "Ġunfortunately": 3572,
      "Ġstrength": 3573,
      "Ġairplane": 3574,
      "Ġalternative": 3575,
      "Ġtongue": 3576,
      "Ġdizzy": 3577,
      "ners": 3578,
      "phan": 3579,
      "Ġ30": 3580,
      "Ġaunt": 3581,
      "hand": 3582,
      "inite": 3583,
      "Ġtheater": 3584,
      "Ġbow": 3585,
      "Ġcreat": 3586,
      "Ġpushed": 3587,
      "Ġinse": 3588,
      "Ġrough": 3589,
      "irts": 3590,
      "cture": 3591,
      "Ġsaving": 3592,
      "Ġdevelop": 3593,
      "Ġamount": 3594,
      "amb": 3595,
      "Ġmoder": 3596,
      "Ġspare": 3597,
      "Ġguard": 3598,
      "Ġplanned": 3599,
      "Ġbecoming": 3600,
      "Ġunderstanding": 3601,
      "Ġscare": 3602,
      "Ġreserv": 3603,
      "Ġmath": 3604,
      "Ġstruck": 3605,
      "Ġconcl": 3606,
      "Ġcleaning": 3607,
      "Ġboxes": 3608,
      "Ġforest": 3609,
      "Ġprepare": 3610,
      "Ġsundays": 3611,
      "Ġhonesty": 3612,
      "Ġsilence": 3613,
      "Ġphotograp": 3614,
      "Ġanimal": 3615,
      "Ġignor": 3616,
      "Ġdeeply": 3617,
      "Ġevidence": 3618,
      "Ġviolin": 3619,
      "Ġprogress": 3620,
      "Ġcancel": 3621,
      "Ġgraduated": 3622,
      "Ġrepeat": 3623,
      "Ġbanan": 3624,
      "Ġsandwich": 3625,
      "Ġrabbit": 3626,
      "Ġcoinc": 3627,
      "Ġimpatient": 3628,
      "ron": 3629,
      "Ġ$": 3630,
      "Ġsour": 3631,
      "Ġda": 3632,
      "Ġdumb": 3633,
      "Ġmiles": 3634,
      "Ġbass": 3635,
      "Ġfond": 3636,
      "Ġpan": 3637,
      "Ġhors": 3638,
      "Ġoce": 3639,
      "itude": 3640,
      "Ġmyster": 3641,
      "Ġknowing": 3642,
      "ential": 3643,
      "Ġju": 3644,
      "akes": 3645,
      "Ġallerg": 3646,
      "Ġsales": 3647,
      "Ġloan": 3648,
      "anding": 3649,
      "Ġorig": 3650,
      "Ġhanded": 3651,
      "Ġpale": 3652,
      "Ġfriendship": 3653,
      "Ġground": 3654,
      "Ġteaches": 3655,
      "Ġcheated": 3656,
      "Ġfoc": 3657,
      "Ġactor": 3658,
      "Ġroses": 3659,
      "ails": 3660,
      "Ġfrank": 3661,
      "Ġrepair": 3662,
      "ledge": 3663,
      "Ġworrying": 3664,
      "Ġinfl": 3665,
      "Ġstronger": 3666,
      "Ġfallen": 3667,
      "Ġpieces": 3668,
      "Ġassum": 3669,
      "Ġexperiment": 3670,
      "Ġrespond": 3671,
      "ounce": 3672,
      "Ġiron": 3673,
      "Ġcrowded": 3674,
      "Ġpolitics": 3675,
      "Ġfifty": 3676,
      "Ġfifteen": 3677,
      "Ġdebt": 3678,
      "Ġfortune": 3679,
      "Ġvictim": 3680,
      "Ġorders": 3681,
      "Ġdisagree": 3682,
      "Ġtouched": 3683,
      "Ġbrown": 3684,
      "Ġpsych": 3685,
      "Ġhouses": 3686,
      "Ġmathematics": 3687,
      "go": 3688,
      "lished": 3689,
      "men": 3690,
      "ope": 3691,
      "Ġbound": 3692,
      "Ġcult": 3693,
      "Ġfan": 3694,
      "eds": 3695,
      "Ġnerve": 3696,
      "Ġnamed": 3697,
      "Ġpond": 3698,
      "Ġthin": 3699,
      "asons": 3700,
      "idays": 3701,
      "Ġess": 3702,
      "Ġstun": 3703,
      "icated": 3704,
      "Ġneck": 3705,
      "Ġrarely": 3706,
      "Ġcover": 3707,
      "Ġhappier": 3708,
      "Ġplain": 3709,
      "ield": 3710,
      "Ġambitious": 3711,
      "Ġconven": 3712,
      "Ġgotta": 3713,
      "apt": 3714,
      "Ġspell": 3715,
      "Ġlasted": 3716,
      "Ġours": 3717,
      "Ġjobs": 3718,
      "Ġblow": 3719,
      "Ġscience": 3720,
      "Ġphys": 3721,
      "Ġrobbed": 3722,
      "Ġcontent": 3723,
      "Ġcontract": 3724,
      "Ġdesperate": 3725,
      "Ġshake": 3726,
      "Ġinvitation": 3727,
      "Ġreliable": 3728,
      "Ġvisiting": 3729,
      "wards": 3730,
      "Ġwrites": 3731,
      "Ġpatience": 3732,
      "Ġlesson": 3733,
      "Ġgenius": 3734,
      "Ġignored": 3735,
      "Ġbelongs": 3736,
      "Ġimprove": 3737,
      "Ġbrief": 3738,
      "Ġstealing": 3739,
      "Ġaudience": 3740,
      "Ġconcentrate": 3741,
      "Ġgentleman": 3742,
      "Ġsuspicious": 3743,
      "Ġhorses": 3744,
      "cul": 3745,
      "gue": 3746,
      "writ": 3747,
      "ym": 3748,
      "Ġ9": 3749,
      "oured": 3750,
      "Ġways": 3751,
      "Ġsink": 3752,
      "Ġsilly": 3753,
      "Ġtoile": 3754,
      "Ġdare": 3755,
      "Ġdump": 3756,
      "Ġfal": 3757,
      "Ġfake": 3758,
      "Ġlou": 3759,
      "Ġpapers": 3760,
      "erved": 3761,
      "Ġow": 3762,
      "Ġweigh": 3763,
      "ata": 3764,
      "Ġmeth": 3765,
      "Ġcandy": 3766,
      "Ġshelf": 3767,
      "Ġjam": 3768,
      "Ġrate": 3769,
      "iring": 3770,
      "Ġsocks": 3771,
      "Ġmarri": 3772,
      "Ġupon": 3773,
      "Ġdeaf": 3774,
      "Ġafric": 3775,
      "iff": 3776,
      "Ġsport": 3777,
      "Ġunus": 3778,
      "Ġhost": 3779,
      "ittee": 3780,
      "Ġsmiling": 3781,
      "Ġdisl": 3782,
      "Ġdecl": 3783,
      "pected": 3784,
      "Ġkindness": 3785,
      "Ġfog": 3786,
      "Ġshoe": 3787,
      "Ġshame": 3788,
      "ucky": 3789,
      "Ġskill": 3790,
      "Ġrelation": 3791,
      "Ġincome": 3792,
      "Ġkissing": 3793,
      "Ġcommun": 3794,
      "Ġcommittee": 3795,
      "Ġbegins": 3796,
      "Ġthirteen": 3797,
      "Ġelev": 3798,
      "Ġchecked": 3799,
      "Ġdiscussed": 3800,
      "Ġcorner": 3801,
      "Ġinsane": 3802,
      "Ġnovels": 3803,
      "Ġbehave": 3804,
      "Ġbarg": 3805,
      "Ġpowerful": 3806,
      "Ġdanced": 3807,
      "Ġhopes": 3808,
      "Ġargument": 3809,
      "Ġpressure": 3810,
      "Ġdivorce": 3811,
      "rently": 3812,
      "Ġbarking": 3813,
      "Ġimpression": 3814,
      "Ġincredible": 3815,
      "Ġproperly": 3816,
      "Ġservice": 3817,
      "Ġclaim": 3818,
      "Ġcaptain": 3819,
      "Ġcastle": 3820,
      "Ġstomach": 3821,
      "Ġalarm": 3822,
      "Ġintelligent": 3823,
      "Ġadopted": 3824,
      "Ġscolded": 3825,
      "Ġcriminal": 3826,
      "Ġjackson": 3827,
      "Ġmodern": 3828,
      "Ġcoincidence": 3829,
      "Ġorigin": 3830,
      "Ġfalse": 3831,
      "13": 3832,
      "how": 3833,
      "mates": 3834,
      "nal": 3835,
      "site": 3836,
      "what": 3837,
      "will": 3838,
      "ware": 3839,
      "xpected": 3840,
      "Ġ7": 3841,
      "Ġwha": 3842,
      "Ġded": 3843,
      "Ġcd": 3844,
      "Ġcro": 3845,
      "Ġfate": 3846,
      "Ġlower": 3847,
      "enced": 3848,
      "Ġpants": 3849,
      "Ġpoured": 3850,
      "Ġoh": 3851,
      "Ġest": 3852,
      "Ġones": 3853,
      "Ġsty": 3854,
      "Ġstared": 3855,
      "Ġforce": 3856,
      "Ġyourselves": 3857,
      "rog": 3858,
      "imate": 3859,
      "Ġje": 3860,
      "Ġshook": 3861,
      "Ġrac": 3862,
      "Ġtire": 3863,
      "Ġplants": 3864,
      "Ġgoods": 3865,
      "Ġhelps": 3866,
      "iev": 3867,
      "ouraged": 3868,
      "Ġargue": 3869,
      "Ġhole": 3870,
      "Ġrooms": 3871,
      "Ġappeared": 3872,
      "Ġhandled": 3873,
      "Ġfinan": 3874,
      "Ġfinal": 3875,
      "Ġfaith": 3876,
      "Ġsupper": 3877,
      "Ġattacked": 3878,
      "Ġroll": 3879,
      "umn": 3880,
      "Ġcontest": 3881,
      "Ġaccidents": 3882,
      "Ġrelieved": 3883,
      "Ġbitter": 3884,
      "Ġparked": 3885,
      "Ġdreaming": 3886,
      "Ġincl": 3887,
      "Ġhandsome": 3888,
      "Ġeleven": 3889,
      "Ġdarker": 3890,
      "Ġdrove": 3891,
      "Ġlaid": 3892,
      "Ġhanging": 3893,
      "Ġcontinued": 3894,
      "Ġunlucky": 3895,
      "Ġvalu": 3896,
      "Ġmidnight": 3897,
      "Ġholidays": 3898,
      "Ġgenerally": 3899,
      "Ġcustomers": 3900,
      "Ġcanceled": 3901,
      "Ġunexpected": 3902,
      "Ġnotebook": 3903,
      "Ġbench": 3904,
      "Ġitaly": 3905,
      "Ġjournal": 3906,
      "Ġinternet": 3907,
      "Ġhorrible": 3908,
      "Ġnarrow": 3909,
      "Ġclouds": 3910,
      "Ġtowel": 3911,
      "Ġstunned": 3912,
      "Ġlouder": 3913,
      "Ġrelationship": 3914,
      "apped": 3915,
      "cin": 3916,
      "fers": 3917,
      "hib": 3918,
      "ma": 3919,
      "pri": 3920,
      "Ġtre": 3921,
      "rel": 3922,
      "iny": 3923,
      "Ġcit": 3924,
      "Ġcot": 3925,
      "Ġfirm": 3926,
      "Ġlab": 3927,
      "Ġgain": 3928,
      "erk": 3929,
      "eral": 3930,
      "Ġhall": 3931,
      "Ġhammer": 3932,
      "Ġthick": 3933,
      "aring": 3934,
      "ats": 3935,
      "Ġoffered": 3936,
      "Ġanger": 3937,
      "Ġstories": 3938,
      "Ġknowledge": 3939,
      "Ġruss": 3940,
      "Ġtech": 3941,
      "ores": 3942,
      "Ġsoph": 3943,
      "Ġplant": 3944,
      "Ġplaces": 3945,
      "Ġbomb": 3946,
      "Ġspl": 3947,
      "Ġdrag": 3948,
      "ures": 3949,
      "Ġorange": 3950,
      "Ġbull": 3951,
      "osition": 3952,
      "Ġearns": 3953,
      "angers": 3954,
      "Ġscrew": 3955,
      "Ġsurr": 3956,
      "Ġrainy": 3957,
      "Ġtruly": 3958,
      "Ġbeauty": 3959,
      "Ġsurprising": 3960,
      "ference": 3961,
      "Ġchoices": 3962,
      "ology": 3963,
      "Ġdisappeared": 3964,
      "Ġokay": 3965,
      "Ġcommitted": 3966,
      "Ġterms": 3967,
      "Ġfully": 3968,
      "Ġelection": 3969,
      "Ġcomputers": 3970,
      "Ġcere": 3971,
      "Ġadmire": 3972,
      "Ġdistract": 3973,
      "Ġpaintings": 3974,
      "Ġnewspapers": 3975,
      "Ġdoubts": 3976,
      "Ġsurvived": 3977,
      "Ġconcern": 3978,
      "Ġelected": 3979,
      "Ġreminds": 3980,
      "Ġwebsite": 3981,
      "Ġoptions": 3982,
      "Ġsquare": 3983,
      "Ġnorth": 3984,
      "Ġmotor": 3985,
      "ratul": 3986,
      "Ġskinny": 3987,
      "Ġdisturb": 3988,
      "Ġdisgust": 3989,
      "ribut": 3990,
      "Ġbottom": 3991,
      "Ġcongratul": 3992,
      "Ġdestroyed": 3993,
      "Ġwitness": 3994,
      "initely": 3995,
      "Ġocean": 3996,
      "Ġfrankly": 3997,
      "Ġtoilet": 3998,
      "Ġmethod": 3999,
      "Ġmarriage": 4000,
      "fact": 4001,
      "look": 4002,
      "mail": 4003,
      "spe": 4004,
      "uce": 4005,
      "word": 4006,
      "yes": 4007,
      "Ġrom": 4008,
      "Ġtat": 4009,
      "Ġsons": 4010,
      "Ġtor": 4011,
      "Ġdess": 4012,
      "Ġmic": 4013,
      "Ġlack": 4014,
      "Ġlines": 4015,
      "Ġlugg": 4016,
      "Ġnons": 4017,
      "Ġdozen": 4018,
      "itor": 4019,
      "Ġreasons": 4020,
      "ician": 4021,
      "eered": 4022,
      "Ġsum": 4023,
      "Ġsung": 4024,
      "acle": 4025,
      "Ġshorter": 4026,
      "cts": 4027,
      "Ġhers": 4028,
      "unate": 4029,
      "Ġplanted": 4030,
      "uled": 4031,
      "Ġcarp": 4032,
      "Ġintended": 4033,
      "Ġvar": 4034,
      "Ġspain": 4035,
      "Ġwondered": 4036,
      "Ġbrit": 4037,
      "Ġbelt": 4038,
      "Ġcares": 4039,
      "Ġplanet": 4040,
      "Ġputting": 4041,
      "anged": 4042,
      "Ġstarts": 4043,
      "Ġwalks": 4044,
      "Ġgranted": 4045,
      "Ġowns": 4046,
      "Ġsincere": 4047,
      "Ġreasonable": 4048,
      "Ġconfidence": 4049,
      "Ġlargest": 4050,
      "Ġsuggestion": 4051,
      "Ġlegal": 4052,
      "Ġadmitted": 4053,
      "Ġbags": 4054,
      "Ġsweat": 4055,
      "Ġinsist": 4056,
      "fficient": 4057,
      "Ġphotos": 4058,
      "Ġmountains": 4059,
      "Ġclimate": 4060,
      "Ġcapable": 4061,
      "Ġflying": 4062,
      "Ġdeny": 4063,
      "Ġcurt": 4064,
      "Ġemot": 4065,
      "Ġdrawer": 4066,
      "Ġviolence": 4067,
      "Ġuncom": 4068,
      "Ġerr": 4069,
      "Ġdemanded": 4070,
      "Ġdeparture": 4071,
      "Ġknocked": 4072,
      "Ġincredibly": 4073,
      "Ġproducts": 4074,
      "Ġsuffering": 4075,
      "Ġmirror": 4076,
      "Ġweapon": 4077,
      "Ġelectricity": 4078,
      "Ġdescribe": 4079,
      "Ġfilm": 4080,
      "Ġhigher": 4081,
      "Ġissue": 4082,
      "Ġperformance": 4083,
      "Ġpassengers": 4084,
      "Ġafrica": 4085,
      "Ġelevator": 4086,
      "Ġcitiz": 4087,
      "Ġluggage": 4088,
      "Ġnonsense": 4089,
      "bum": 4090,
      "gar": 4091,
      "ji": 4092,
      "ob": 4093,
      "sed": 4094,
      "squ": 4095,
      "Ġwave": 4096,
      "Ġwounded": 4097,
      "Ġsore": 4098,
      "Ġdata": 4099,
      "Ġment": 4100,
      "Ġmall": 4101,
      "Ġbi": 4102,
      "Ġbaked": 4103,
      "Ġcities": 4104,
      "Ġheight": 4105,
      "Ġnon": 4106,
      "Ġgat": 4107,
      "Ġgamb": 4108,
      "Ġpra": 4109,
      "Ġhook": 4110,
      "ask": 4111,
      "asing": 4112,
      "Ġbeard": 4113,
      "Ġeager": 4114,
      "Ġmeasure": 4115,
      "vert": 4116,
      "verse": 4117,
      "Ġrele": 4118,
      "iculous": 4119,
      "riger": 4120,
      "Ġaside": 4121,
      "Ġcomb": 4122,
      "Ġalbum": 4123,
      "Ġlecture": 4124,
      "Ġdeg": 4125,
      "atest": 4126,
      "Ġhelpful": 4127,
      "Ġagg": 4128,
      "Ġboard": 4129,
      "Ġmosqu": 4130,
      "Ġpoet": 4131,
      "Ġpockets": 4132,
      "Ġarr": 4133,
      "Ġspan": 4134,
      "Ġguide": 4135,
      "Ġchances": 4136,
      "ization": 4137,
      "Ġscrat": 4138,
      "Ġsleeps": 4139,
      "tered": 4140,
      "Ġcleared": 4141,
      "Ġmistook": 4142,
      "Ġattended": 4143,
      "Ġbegun": 4144,
      "Ġsecrets": 4145,
      "Ġruined": 4146,
      "Ġdiscovered": 4147,
      "Ġrefriger": 4148,
      "Ġspoon": 4149,
      "Ġprior": 4150,
      "Ġretire": 4151,
      "Ġapology": 4152,
      "Ġgreatest": 4153,
      "Ġbothering": 4154,
      "Ġtranslated": 4155,
      "Ġrecognized": 4156,
      "Ġpurse": 4157,
      "Ġvalue": 4158,
      "Ġfingers": 4159,
      "Ġcloset": 4160,
      "Ġvolunt": 4161,
      "Ġ2013": 4162,
      "Ġdrugs": 4163,
      "Ġblew": 4164,
      "Ġbleed": 4165,
      "Ġmisunderstanding": 4166,
      "Ġeconomy": 4167,
      "Ġlocal": 4168,
      "Ġdetermined": 4169,
      "Ġcigarettes": 4170,
      "Ġchallenge": 4171,
      "Ġreservation": 4172,
      "Ġconclus": 4173,
      "Ġassumed": 4174,
      "Ġdumped": 4175,
      "Ġunusual": 4176,
      "Ġbargain": 4177,
      "Ġdessert": 4178,
      "Ġgathered": 4179,
      "aff": 4180,
      "cha": 4181,
      "cue": 4182,
      "gage": 4183,
      "ime": 4184,
      "ivor": 4185,
      "reen": 4186,
      "inting": 4187,
      "Ġbitten": 4188,
      "Ġfant": 4189,
      "anced": 4190,
      "Ġpil": 4191,
      "Ġitself": 4192,
      "stick": 4193,
      "Ġancient": 4194,
      "oos": 4195,
      "Ġfork": 4196,
      "Ġneat": 4197,
      "Ġtrap": 4198,
      "urity": 4199,
      "ctions": 4200,
      "ilities": 4201,
      "Ġchose": 4202,
      "Ġmob": 4203,
      "Ġvan": 4204,
      "Ġspy": 4205,
      "Ġspite": 4206,
      "Ġunp": 4207,
      "Ġuns": 4208,
      "Ġspec": 4209,
      "Ġtwins": 4210,
      "Ġhandy": 4211,
      "Ġswear": 4212,
      "Ġunderstands": 4213,
      "Ġengaged": 4214,
      "Ġmater": 4215,
      "Ġopening": 4216,
      "Ġbiggest": 4217,
      "Ġrobb": 4218,
      "Ġcounting": 4219,
      "Ġsecurity": 4220,
      "Ġwarning": 4221,
      "Ġwarmer": 4222,
      "Ġskirt": 4223,
      "Ġ100": 4224,
      "Ġregard": 4225,
      "Ġabsence": 4226,
      "Ġmedical": 4227,
      "Ġpreparing": 4228,
      "Ġdeli": 4229,
      "Ġinformed": 4230,
      "Ġsells": 4231,
      "Ġridiculous": 4232,
      "Ġsilver": 4233,
      "Ġbreathe": 4234,
      "Ġsurvivor": 4235,
      "Ġfactory": 4236,
      "Ġdeserves": 4237,
      "Ġpossibly": 4238,
      "Ġappearance": 4239,
      "isticated": 4240,
      "Ġfluently": 4241,
      "Ġcenter": 4242,
      "Ġscreaming": 4243,
      "Ġfund": 4244,
      "Ġautumn": 4245,
      "Ġdisturbed": 4246,
      "Ġthreatened": 4247,
      "Ġpredict": 4248,
      "Ġunde": 4249,
      "Ġcirc": 4250,
      "Ġremoved": 4251,
      "Ġeffective": 4252,
      "Ġhesitate": 4253,
      "Ġsensitive": 4254,
      "Ġtimid": 4255,
      "Ġcooper": 4256,
      "Ġgreeted": 4257,
      "Ġindustry": 4258,
      "Ġmystery": 4259,
      "Ġcommunic": 4260,
      "priate": 4261,
      "Ġsophisticated": 4262,
      "Ġaggress": 4263,
      "Ġrefrigerator": 4264,
      "ium": 4265,
      "lig": 4266,
      "mate": 4267,
      "rain": 4268,
      "heart": 4269,
      "Ġsou": 4270,
      "Ġtow": 4271,
      "Ġtoy": 4272,
      "Ġdig": 4273,
      "Ġdouble": 4274,
      "Ġmass": 4275,
      "Ġfas": 4276,
      "Ġfainted": 4277,
      "Ġfield": 4278,
      "isy": 4279,
      "Ġnicer": 4280,
      "Ġgear": 4281,
      "Ġhoney": 4282,
      "Ġthro": 4283,
      "Ġbes": 4284,
      "Ġbeside": 4285,
      "Ġink": 4286,
      "Ġforty": 4287,
      "antly": 4288,
      "aced": 4289,
      "acter": 4290,
      "Ġhowever": 4291,
      "Ġtrad": 4292,
      "pered": 4293,
      "Ġoutr": 4294,
      "mploy": 4295,
      "Ġdefe": 4296,
      "Ġseated": 4297,
      "Ġchop": 4298,
      "Ġconference": 4299,
      "ament": 4300,
      "Ġarmed": 4301,
      "Ġvoted": 4302,
      "Ġadvert": 4303,
      "Ġbud": 4304,
      "Ġtwe": 4305,
      "Ġappl": 4306,
      "issors": 4307,
      "Ġkeeping": 4308,
      "Ġscissors": 4309,
      "Ġflood": 4310,
      "Ġturns": 4311,
      "Ġresist": 4312,
      "Ġuseless": 4313,
      "Ġrose": 4314,
      "Ġtrained": 4315,
      "Ġrecent": 4316,
      "Ġpassword": 4317,
      "Ġlightning": 4318,
      "weight": 4319,
      "Ġ18": 4320,
      "Ġrelated": 4321,
      "Ġcooked": 4322,
      "Ġclosely": 4323,
      "Ġfastest": 4324,
      "Ġcrack": 4325,
      "Ġentr": 4326,
      "Ġagreement": 4327,
      "Ġcommit": 4328,
      "Ġlarger": 4329,
      "Ġdaughters": 4330,
      "Ġapologized": 4331,
      "Ġsett": 4332,
      "Ġsigned": 4333,
      "Ġsignific": 4334,
      "Ġceiling": 4335,
      "Ġcharges": 4336,
      "Ġmondays": 4337,
      "Ġdelayed": 4338,
      "Ġsalad": 4339,
      "Ġsuccessful": 4340,
      "Ġtyp": 4341,
      "Ġmiser": 4342,
      "Ġunlock": 4343,
      "Ġstraw": 4344,
      "Ġedge": 4345,
      "Ġparticip": 4346,
      "Ġsuitcases": 4347,
      "place": 4348,
      "Ġdefinitely": 4349,
      "Ġpotatoes": 4350,
      "Ġannoying": 4351,
      "mony": 4352,
      "Ġattempt": 4353,
      "Ġliter": 4354,
      "Ġunfair": 4355,
      "Ġtextbook": 4356,
      "Ġstrike": 4357,
      "Ġdocument": 4358,
      "Ġcandles": 4359,
      "Ġinflu": 4360,
      "Ġconvenient": 4361,
      "Ġjeans": 4362,
      "Ġdisgusting": 4363,
      "Ġuncomfortable": 4364,
      "Ġfascin": 4365,
      "jud": 4366,
      "rm": 4367,
      "vard": 4368,
      "hetic": 4369,
      "Ġaver": 4370,
      "Ġwound": 4371,
      "Ġwild": 4372,
      "Ġdow": 4373,
      "Ġmt": 4374,
      "Ġbal": 4375,
      "Ġbare": 4376,
      "Ġcher": 4377,
      "Ġfought": 4378,
      "Ġgree": 4379,
      "Ġport": 4380,
      "Ġoven": 4381,
      "ows": 4382,
      "arian": 4383,
      "Ġbee": 4384,
      "Ġine": 4385,
      "let": 4386,
      "lected": 4387,
      "Ġwasted": 4388,
      "Ġreject": 4389,
      "chief": 4390,
      "aled": 4391,
      "Ġsheep": 4392,
      "Ġshout": 4393,
      "Ġrail": 4394,
      "Ġrush": 4395,
      "Ġsocial": 4396,
      "Ġalike": 4397,
      "Ġnoisy": 4398,
      "Ġlean": 4399,
      "Ġleak": 4400,
      "Ġsew": 4401,
      "Ġvot": 4402,
      "Ġvain": 4403,
      "essed": 4404,
      "Ġunb": 4405,
      "mbered": 4406,
      "Ġburied": 4407,
      "asses": 4408,
      "Ġharvard": 4409,
      "Ġcomment": 4410,
      "Ġaccent": 4411,
      "Ġresour": 4412,
      "Ġremembered": 4413,
      "Ġfuneral": 4414,
      "cially": 4415,
      "Ġattitude": 4416,
      "Ġrecovered": 4417,
      "Ġrecover": 4418,
      "Ġchamp": 4419,
      "Ġfarmer": 4420,
      "Ġvisa": 4421,
      "Ġsounded": 4422,
      "Ġclasses": 4423,
      "Ġnearby": 4424,
      "Ġdreamed": 4425,
      "Ġhaircut": 4426,
      "Ġtallest": 4427,
      "Ġregist": 4428,
      "Ġgrown": 4429,
      "Ġsnowing": 4430,
      "Ġelephan": 4431,
      "Ġsuits": 4432,
      "Ġpickpo": 4433,
      "Ġdisappoint": 4434,
      "Ġstreets": 4435,
      "Ġbaggage": 4436,
      "Ġassume": 4437,
      "Ġinsult": 4438,
      "Ġbills": 4439,
      "Ġhumor": 4440,
      "ivated": 4441,
      "Ġtyph": 4442,
      "Ġtranslation": 4443,
      "Ġremains": 4444,
      "Ġcanada": 4445,
      "Ġsimply": 4446,
      "Ġrented": 4447,
      "Ġident": 4448,
      "Ġ197": 4449,
      "Ġoccas": 4450,
      "Ġembarrassing": 4451,
      "Ġgenerous": 4452,
      "Ġloudly": 4453,
      "Ġbattle": 4454,
      "Ġcows": 4455,
      "Ġcentury": 4456,
      "Ġunemploy": 4457,
      "Ġaccompan": 4458,
      "Ġdepartment": 4459,
      "Ġachieved": 4460,
      "Ġauthority": 4461,
      "Ġassistance": 4462,
      "Ġghosts": 4463,
      "Ġexchange": 4464,
      "Ġexchanged": 4465,
      "Ġinstructions": 4466,
      "Ġvolunteer": 4467,
      "Ġpostponed": 4468,
      "Ġdislike": 4469,
      "Ġdedicated": 4470,
      "Ġvaluable": 4471,
      "Ġtechn": 4472,
      "Ġmotorcy": 4473,
      "Ġmosquit": 4474,
      "Ġspanish": 4475,
      "Ġvolunteered": 4476,
      "Ġtower": 4477,
      "Ġtwelve": 4478,
      "Ġentrance": 4479,
      "Ġmiserable": 4480,
      ",\"": 4481,
      "bs": 4482,
      "bage": 4483,
      "cles": 4484,
      "lo": 4485,
      "yond": 4486,
      "zer": 4487,
      "Ġtar": 4488,
      "Ġtail": 4489,
      "rer": 4490,
      "hache": 4491,
      "ints": 4492,
      "inary": 4493,
      "vere": 4494,
      "Ġnin": 4495,
      "Ġnation": 4496,
      "erted": 4497,
      "owed": 4498,
      "arily": 4499,
      "Ġbeyond": 4500,
      "store": 4501,
      "Ġeld": 4502,
      "Ġformed": 4503,
      "antic": 4504,
      "Ġwhist": 4505,
      "entine": 4506,
      "thy": 4507,
      "pper": 4508,
      "Ġjaz": 4509,
      "illed": 4510,
      "Ġshirts": 4511,
      "Ġraw": 4512,
      "Ġtied": 4513,
      "Ġcode": 4514,
      "Ġworn": 4515,
      "Ġplastic": 4516,
      "Ġmud": 4517,
      "Ġpoll": 4518,
      "Ġhomes": 4519,
      "Ġreads": 4520,
      "agger": 4521,
      "Ġcomprom": 4522,
      "Ġtwin": 4523,
      "Ġoverweight": 4524,
      "omat": 4525,
      "Ġblamed": 4526,
      "Ġglove": 4527,
      "Ġflash": 4528,
      "Ġstrugg": 4529,
      "Ġcheaper": 4530,
      "Ġpolicy": 4531,
      "Ġtense": 4532,
      "Ġactress": 4533,
      "Ġpersonally": 4534,
      "ipl": 4535,
      "Ġimportance": 4536,
      "aughter": 4537,
      "Ġ16": 4538,
      "Ġcookie": 4539,
      "Ġhunting": 4540,
      "Ġmusician": 4541,
      "Ġstopping": 4542,
      "Ġincident": 4543,
      "ologist": 4544,
      "Ġregular": 4545,
      "uded": 4546,
      "Ġoblig": 4547,
      "Ġdeadline": 4548,
      "Ġabsor": 4549,
      "Ġcourt": 4550,
      "Ġpunish": 4551,
      "Ġsubway": 4552,
      "Ġpublished": 4553,
      "Ġringing": 4554,
      "Ġdancer": 4555,
      "Ġhundreds": 4556,
      "Ġvalentine": 4557,
      "Ġrisks": 4558,
      "Ġuniverse": 4559,
      "ounced": 4560,
      "Ġthousands": 4561,
      "Ġcoward": 4562,
      "Ġgarbage": 4563,
      "Ġerror": 4564,
      "Ġambul": 4565,
      "Ġmiracle": 4566,
      "Ġdespise": 4567,
      "Ġattempted": 4568,
      "Ġincrease": 4569,
      "Ġcamping": 4570,
      "Ġremove": 4571,
      "Ġassistant": 4572,
      "Ġweapons": 4573,
      "Ġflew": 4574,
      "Ġscientist": 4575,
      "Ġprofessional": 4576,
      "Ġresearch": 4577,
      "Ġexperienced": 4578,
      "Ġinvented": 4579,
      "handed": 4580,
      "Ġallergic": 4581,
      "Ġceremony": 4582,
      "Ġmicro": 4583,
      "Ġbleeding": 4584,
      "Ġfantastic": 4585,
      "Ġaggressive": 4586,
      "Ġbesides": 4587,
      "Ġaccompanied": 4588,
      "Ġjazz": 4589,
      "Ġgloves": 4590,
      "aire": 4591,
      "com": 4592,
      "ey": 4593,
      "ipt": 4594,
      "lasses": 4595,
      "mare": 4596,
      "oc": 4597,
      "pa": 4598,
      "was": 4599,
      "xic": 4600,
      "Ġta": 4601,
      "Ġtoler": 4602,
      "hab": 4603,
      "Ġdipl": 4604,
      "Ġmouse": 4605,
      "onment": 4606,
      "Ġcrew": 4607,
      "Ġfuss": 4608,
      "Ġfreed": 4609,
      "lly": 4610,
      "Ġgather": 4611,
      "Ġpound": 4612,
      "Ġpeel": 4613,
      "ators": 4614,
      "Ġease": 4615,
      "Ġonline": 4616,
      "Ġsting": 4617,
      "Ġstat": 4618,
      "Ġkicked": 4619,
      "Ġcandle": 4620,
      "Ġsheet": 4621,
      "though": 4622,
      "imistic": 4623,
      "Ġjerk": 4624,
      "utious": 4625,
      "ironment": 4626,
      "Ġtip": 4627,
      "ends": 4628,
      "Ġalthough": 4629,
      "urs": 4630,
      "Ġexagger": 4631,
      "Ġcautious": 4632,
      "Ġenvel": 4633,
      "Ġconce": 4634,
      "amond": 4635,
      "Ġproceed": 4636,
      "Ġquarter": 4637,
      "Ġclue": 4638,
      "Ġbrand": 4639,
      "Ġbackwards": 4640,
      "agers": 4641,
      "ntown": 4642,
      "Ġpray": 4643,
      "Ġnightmare": 4644,
      "Ġhandker": 4645,
      "Ġexpert": 4646,
      "Ġearn": 4647,
      "Ġswit": 4648,
      "Ġsurre": 4649,
      "Ġgrave": 4650,
      "Ġsupply": 4651,
      "Ġbedtime": 4652,
      "Ġcheek": 4653,
      "Ġbeginner": 4654,
      "Ġtrains": 4655,
      "Ġsings": 4656,
      "bel": 4657,
      "Ġshared": 4658,
      "Ġshaken": 4659,
      "igned": 4660,
      "onscious": 4661,
      "Ġ15": 4662,
      "Ġpresence": 4663,
      "Ġdiamond": 4664,
      "Ġclassmates": 4665,
      "Ġvisitors": 4666,
      "Ġguessed": 4667,
      "Ġcrash": 4668,
      "Ġaddition": 4669,
      "Ġheaded": 4670,
      "Ġconsists": 4671,
      "Ġstrongly": 4672,
      "Ġcomplex": 4673,
      "screen": 4674,
      "Ġcomplaints": 4675,
      "Ġsunscreen": 4676,
      "Ġdetect": 4677,
      "Ġhidden": 4678,
      "Ġprisoner": 4679,
      "Ġimagined": 4680,
      "Ġlawn": 4681,
      "Ġtaxes": 4682,
      "ivid": 4683,
      "Ġreceipt": 4684,
      "Ġrequire": 4685,
      "Ġrequired": 4686,
      "Ġhoped": 4687,
      "Ġvolume": 4688,
      "coat": 4689,
      "Ġfits": 4690,
      "Ġirre": 4691,
      "Ġyelling": 4692,
      "Ġtotal": 4693,
      "Ġoption": 4694,
      "Ġgunshots": 4695,
      "Ġgraduate": 4696,
      "Ġsteak": 4697,
      "Ġdevoted": 4698,
      "Ġambition": 4699,
      "Ġtowards": 4700,
      "Ġequal": 4701,
      "Ġtourists": 4702,
      "Ġpackage": 4703,
      "Ġconnected": 4704,
      "Ġconnection": 4705,
      "Ġcircle": 4706,
      "Ġjourney": 4707,
      "Ġacquainted": 4708,
      "Ġturning": 4709,
      "Ġaimed": 4710,
      "Ġlimit": 4711,
      "Ġreligious": 4712,
      "Ġenvironment": 4713,
      "Ġapplication": 4714,
      "Ġinvestigation": 4715,
      "Ġjuice": 4716,
      "Ġpsychic": 4717,
      "Ġfinancial": 4718,
      "Ġrussian": 4719,
      "Ġsurrounded": 4720,
      "Ġdistracted": 4721,
      "Ġtatt": 4722,
      "Ġsunglasses": 4723,
      "Ġmentally": 4724,
      "Ġgambling": 4725,
      "Ġsurvivors": 4726,
      "Ġthroat": 4727,
      "Ġsignificant": 4728,
      "Ġaverage": 4729,
      "Ġdowntown": 4730,
      "Ġrejected": 4731,
      "Ġtyphoon": 4732,
      "Ġtarget": 4733,
      "Ġambulance": 4734,
      "Ġenvelope": 4735,
      "Ġhandkerchief": 4736,
      "ai": 4737,
      "ald": 4738,
      "bly": 4739,
      "cast": 4740,
      "fo": 4741,
      "jam": 4742,
      "uct": 4743,
      "umber": 4744,
      "whe": 4745,
      "xy": 4746,
      "you": 4747,
      "Ġtent": 4748,
      "Ġtiny": 4749,
      "Ġaston": 4750,
      "Ġwre": 4751,
      "Ġwire": 4752,
      "Ġske": 4753,
      "onna": 4754,
      "Ġbunch": 4755,
      "Ġciv": 4756,
      "Ġcoun": 4757,
      "isis": 4758,
      "Ġgonna": 4759,
      "Ġpha": 4760,
      "Ġpin": 4761,
      "Ġpens": 4762,
      "Ġpacked": 4763,
      "Ġham": 4764,
      "Ġhon": 4765,
      "Ġthor": 4766,
      "asy": 4767,
      "arched": 4768,
      "Ġwest": 4769,
      "Ġitem": 4770,
      "Ġinsp": 4771,
      "Ġeast": 4772,
      "Ġefficient": 4773,
      "Ġmeters": 4774,
      "Ġstret": 4775,
      "Ġstaff": 4776,
      "Ġwhiche": 4777,
      "imp": 4778,
      "Ġshr": 4779,
      "Ġrome": 4780,
      "Ġrap": 4781,
      "Ġrare": 4782,
      "Ġriche": 4783,
      "Ġtrunk": 4784,
      "Ġtrade": 4785,
      "Ġcared": 4786,
      "oph": 4787,
      "Ġsearched": 4788,
      "Ġagrees": 4789,
      "ama": 4790,
      "Ġposit": 4791,
      "ift": 4792,
      "igner": 4793,
      "Ġstubb": 4794,
      "Ġbookstore": 4795,
      "Ġwatches": 4796,
      "Ġbelow": 4797,
      "Ġbug": 4798,
      "Ġbucket": 4799,
      "ague": 4800,
      "ieves": 4801,
      "Ġpride": 4802,
      "Ġappet": 4803,
      "agement": 4804,
      "Ġblan": 4805,
      "Ġbloom": 4806,
      "Ġchanging": 4807,
      "Ġputs": 4808,
      "Ġscary": 4809,
      "Ġstops": 4810,
      "Ġflag": 4811,
      "Ġsurger": 4812,
      "Ġgram": 4813,
      "Ġsupplies": 4814,
      "Ġfox": 4815,
      "Ġfolded": 4816,
      "cip": 4817,
      "Ġanswering": 4818,
      "Ġattic": 4819,
      "Ġfrustr": 4820,
      "Ġpromoted": 4821,
      "Ġserve": 4822,
      "Ġsmooth": 4823,
      "Ġsne": 4824,
      "Ġsnakes": 4825,
      "Ġdiscount": 4826,
      "Ġimm": 4827,
      "Ġparking": 4828,
      "Ġcrashed": 4829,
      "Ġcrisis": 4830,
      "Ġaddressed": 4831,
      "Ġrefu": 4832,
      "Ġsentences": 4833,
      "Ġdisappear": 4834,
      "Ġclothing": 4835,
      "Ġinterp": 4836,
      "Ġcomplaint": 4837,
      "Ġsettle": 4838,
      "Ġblackboard": 4839,
      "Ġblackmail": 4840,
      "Ġrising": 4841,
      "Ġrisky": 4842,
      "Ġbuildings": 4843,
      "Ġwalls": 4844,
      "Ġterrified": 4845,
      "Ġterribly": 4846,
      "Ġtreating": 4847,
      "Ġconsidering": 4848,
      "Ġcalcul": 4849,
      "Ġsatisfact": 4850,
      "Ġtempt": 4851,
      "nel": 4852,
      "Ġapproved": 4853,
      "Ġstarving": 4854,
      "Ġprivacy": 4855,
      "Ġmaid": 4856,
      "Ġburning": 4857,
      "Ġloser": 4858,
      "Ġgeneral": 4859,
      "Ġsupportive": 4860,
      "Ġpencils": 4861,
      "Ġdirection": 4862,
      "Ġfamilies": 4863,
      "Ġimproved": 4864,
      "Ġcritical": 4865,
      "resent": 4866,
      "Ġproductive": 4867,
      "Ġmillionaire": 4868,
      "Ġselfish": 4869,
      "Ġcollecting": 4870,
      "Ġopera": 4871,
      "Ġemployees": 4872,
      "Ġconstru": 4873,
      "Ġverify": 4874,
      "Ġdishwas": 4875,
      "Ġbasketball": 4876,
      "Ġpronounce": 4877,
      "Ġlogical": 4878,
      "Ġteenager": 4879,
      "Ġpuzzle": 4880,
      "Ġphotograph": 4881,
      "Ġfocus": 4882,
      "Ġcarpet": 4883,
      "Ġwaved": 4884,
      "Ġpilot": 4885,
      "Ġmobile": 4886,
      "Ġunderest": 4887,
      "Ġbudget": 4888,
      "Ġsettled": 4889,
      "Ġregistered": 4890,
      "Ġmotorcycle": 4891,
      "Ġwreck": 4892,
      "Ġwhichever": 4893,
      "Ġrichest": 4894,
      "Ġpositive": 4895,
      "Ġstubborn": 4896,
      "Ġsurgery": 4897,
      "Ġdishwasher": 4898,
      "cence": 4899,
      "ffered": 4900,
      "gl": 4901,
      "ngest": 4902,
      "ration": 4903,
      "ux": 4904,
      "uary": 4905,
      "val": 4906,
      "year": 4907,
      "Ġtask": 4908,
      "Ġyoungest": 4909,
      "Ġdust": 4910,
      "Ġmile": 4911,
      "Ġmix": 4912,
      "onent": 4913,
      "Ġfries": 4914,
      "Ġlin": 4915,
      "Ġlent": 4916,
      "Ġloose": 4917,
      "Ġlaughter": 4918,
      "ansp": 4919,
      "Ġnational": 4920,
      "Ġgro": 4921,
      "Ġgym": 4922,
      "Ġpig": 4923,
      "Ġpier": 4924,
      "aries": 4925,
      "Ġbeef": 4926,
      "stances": 4927,
      "verty": 4928,
      "Ġdonated": 4929,
      "Ġkore": 4930,
      "ril": 4931,
      "ching": 4932,
      "chite": 4933,
      "Ġjune": 4934,
      "Ġsuffered": 4935,
      "Ġatm": 4936,
      "aches": 4937,
      "Ġrow": 4938,
      "Ġwheel": 4939,
      "Ġcoach": 4940,
      "Ġcoins": 4941,
      "Ġtransp": 4942,
      "Ġoutdo": 4943,
      "que": 4944,
      "Ġhelpless": 4945,
      "Ġsees": 4946,
      "Ġages": 4947,
      "Ġbold": 4948,
      "Ġprohib": 4949,
      "Ġpoverty": 4950,
      "iform": 4951,
      "Ġarchite": 4952,
      "Ġspin": 4953,
      "Ġuniform": 4954,
      "Ġbru": 4955,
      "Ġbran": 4956,
      "Ġcompl": 4957,
      "Ġcomposition": 4958,
      "Ġdisp": 4959,
      "Ġapplies": 4960,
      "Ġplayers": 4961,
      "Ġschools": 4962,
      "Ġblown": 4963,
      "Ġhurting": 4964,
      "Ġflies": 4965,
      "Ġlatest": 4966,
      "Ġrescu": 4967,
      "Ġstrangers": 4968,
      "Ġchew": 4969,
      "Ġcheating": 4970,
      "ciation": 4971,
      "Ġaction": 4972,
      "Ġtrump": 4973,
      "Ġbreaking": 4974,
      "Ġrepresent": 4975,
      "Ġbreaks": 4976,
      "Ġslipped": 4977,
      "Ġtrusts": 4978,
      "Ġimit": 4979,
      "Ġrelative": 4980,
      "Ġends": 4981,
      "Ġnumbers": 4982,
      "Ġrefer": 4983,
      "Ġbringing": 4984,
      "Ġconsult": 4985,
      "Ġconscious": 4986,
      "Ġincomp": 4987,
      "iber": 4988,
      "ibilities": 4989,
      "Ġregister": 4990,
      "Ġsafely": 4991,
      "Ġgrows": 4992,
      "Ġlaws": 4993,
      "Ġsecretary": 4994,
      "Ġdollar": 4995,
      "Ġinterse": 4996,
      "Ġsuggesting": 4997,
      "Ġdisappointing": 4998,
      "Ġfalls": 4999,
      "Ġadmired": 5000,
      "Ġgrandpa": 5001,
      "Ġhalfway": 5002,
      "gging": 5003,
      "Ġsoldier": 5004,
      "Ġtests": 5005,
      "guard": 5006,
      "Ġoppos": 5007,
      "Ġindo": 5008,
      "Ġindia": 5009,
      "Ġchairs": 5010,
      "Ġappropriate": 5011,
      "Ġreceive": 5012,
      "Ġrespected": 5013,
      "Ġcrossing": 5014,
      "Ġpermitted": 5015,
      "Ġforeigners": 5016,
      "Ġmagic": 5017,
      "Ġgrades": 5018,
      "Ġmemor": 5019,
      "Ġjudging": 5020,
      "Ġpolitician": 5021,
      "Ġpersonality": 5022,
      "sites": 5023,
      "Ġdebts": 5024,
      "Ġbattery": 5025,
      "Ġinnocence": 5026,
      "Ġunconscious": 5027,
      "Ġwebsites": 5028,
      "Ġ50": 5029,
      "Ġmagazines": 5030,
      "Ġparticularly": 5031,
      "Ġaccomplish": 5032,
      "Ġannoyed": 5033,
      "Ġfuji": 5034,
      "Ġsuffer": 5035,
      "Ġspotted": 5036,
      "Ġachieve": 5037,
      "Ġoperation": 5038,
      "Ġitalian": 5039,
      "Ġmisunderstood": 5040,
      "Ġhyp": 5041,
      "Ġscientists": 5042,
      "Ġprovide": 5043,
      "Ġslightly": 5044,
      "Ġwishes": 5045,
      "Ġreplace": 5046,
      "Ġremarks": 5047,
      "Ġrevol": 5048,
      "Ġwhispered": 5049,
      "Ġbanana": 5050,
      "Ġessential": 5051,
      "Ġwhale": 5052,
      "Ġstyle": 5053,
      "Ġjournalist": 5054,
      "Ġcott": 5055,
      "Ġsplit": 5056,
      "Ġbullet": 5057,
      "ributed": 5058,
      "Ġbritish": 5059,
      "Ġfascinating": 5060,
      "Ġcherry": 5061,
      "Ġresource": 5062,
      "Ġoccasion": 5063,
      "zerland": 5064,
      "Ġswitzerland": 5065,
      "Ġtattoo": 5066,
      "Ġcivil": 5067,
      "aid": 5068,
      "cr": 5069,
      "gen": 5070,
      "lace": 5071,
      "law": 5072,
      "mit": 5073,
      "now": 5074,
      "phab": 5075,
      "vant": 5076,
      "view": 5077,
      "wood": 5078,
      "wise": 5079,
      "yst": 5080,
      "oudy": 5081,
      "Ġaid": 5082,
      "Ġath": 5083,
      "Ġwide": 5084,
      "Ġsac": 5085,
      "Ġtoys": 5086,
      "Ġyouth": 5087,
      "Ġdrew": 5088,
      "onst": 5089,
      "Ġcy": 5090,
      "Ġhilar": 5091,
      "Ġthumb": 5092,
      "Ġthieves": 5093,
      "itable": 5094,
      "otion": 5095,
      "Ġtomatoes": 5096,
      "Ġmere": 5097,
      "Ġmexic": 5098,
      "Ġange": 5099,
      "Ġstays": 5100,
      "Ġstress": 5101,
      "Ġknees": 5102,
      "adays": 5103,
      "Ġrot": 5104,
      "Ġalphab": 5105,
      "Ġsail": 5106,
      "inded": 5107,
      "geon": 5108,
      "geous": 5109,
      "Ġuses": 5110,
      "Ġworker": 5111,
      "Ġsevent": 5112,
      "Ġconse": 5113,
      "Ġboots": 5114,
      "Ġprover": 5115,
      "Ġnowadays": 5116,
      "Ġpointed": 5117,
      "Ġarrow": 5118,
      "Ġarrog": 5119,
      "Ġclung": 5120,
      "Ġcloudy": 5121,
      "orted": 5122,
      "Ġofficer": 5123,
      "Ġprecious": 5124,
      "Ġadult": 5125,
      "Ġorang": 5126,
      "Ġprince": 5127,
      "Ġpajam": 5128,
      "Ġfinds": 5129,
      "Ġcomfort": 5130,
      "Ġdiffer": 5131,
      "Ġrescue": 5132,
      "Ġsurgeon": 5133,
      "Ġdecent": 5134,
      "Ġbothered": 5135,
      "Ġchem": 5136,
      "Ġbegged": 5137,
      "Ġactiv": 5138,
      "Ġminor": 5139,
      "Ġminister": 5140,
      "Ġthanked": 5141,
      "Ġdesire": 5142,
      "enses": 5143,
      "Ġskate": 5144,
      "Ġdiscouraged": 5145,
      "Ġapril": 5146,
      "Ġdifficulties": 5147,
      "Ġborder": 5148,
      "Ġnucle": 5149,
      "Ġaddicted": 5150,
      "Ġrefle": 5151,
      "Ġentertain": 5152,
      "Ġappreciated": 5153,
      "uding": 5154,
      "Ġconfuse": 5155,
      "Ġobst": 5156,
      "Ġredu": 5157,
      "Ġteleph": 5158,
      "Ġcraw": 5159,
      "Ġcloth": 5160,
      "Ġcollap": 5161,
      "Ġacceptable": 5162,
      "Ġcharacter": 5163,
      "Ġweekends": 5164,
      "Ġexamined": 5165,
      "Ġpianist": 5166,
      "ggy": 5167,
      "Ġlamp": 5168,
      "Ġfooled": 5169,
      "Ġaffair": 5170,
      "Ġheavily": 5171,
      "Ġlawyers": 5172,
      "ival": 5173,
      "Ġwarmth": 5174,
      "Ġgifts": 5175,
      "Ġvalid": 5176,
      "Ġtopic": 5177,
      "Ġmemories": 5178,
      "Ġpolitical": 5179,
      "Ġnormally": 5180,
      "Ġdestination": 5181,
      "Ġsteps": 5182,
      "Ġconditions": 5183,
      "Ġdefend": 5184,
      "Ġfortunate": 5185,
      "Ġfluent": 5186,
      "Ġgrabbed": 5187,
      "Ġfaces": 5188,
      "Ġmotivated": 5189,
      "Ġnegative": 5190,
      "Ġrumors": 5191,
      "Ġlifted": 5192,
      "Ġprincess": 5193,
      "Ġprincip": 5194,
      "Ġcabin": 5195,
      "Ġcompetition": 5196,
      "Ġrecords": 5197,
      "Ġcigarette": 5198,
      "Ġcelebrating": 5199,
      "Ġpostpone": 5200,
      "Ġmercy": 5201,
      "Ġdivided": 5202,
      "Ġqualified": 5203,
      "Ġignorant": 5204,
      "Ġbananas": 5205,
      "Ġdaily": 5206,
      "Ġnecklace": 5207,
      "writer": 5208,
      "Ġcrops": 5209,
      "ievable": 5210,
      "Ġreleased": 5211,
      "Ġdegrees": 5212,
      "hearted": 5213,
      "Ġtradition": 5214,
      "Ġpickpockets": 5215,
      "Ġcompromise": 5216,
      "Ġtolerate": 5217,
      "Ġfreedom": 5218,
      "Ġthorough": 5219,
      "Ġappetite": 5220,
      "Ġinterpre": 5221,
      "Ġtemptation": 5222,
      "Ġoutdoors": 5223,
      "Ġcompliment": 5224,
      "Ġintersection": 5225,
      "Ġindoors": 5226,
      "Ġcottage": 5227,
      "Ġathle": 5228,
      "Ġhilarious": 5229,
      "Ġalphabet": 5230,
      "Ġoranges": 5231,
      "Ġpajamas": 5232,
      "bon": 5233,
      "chan": 5234,
      "card": 5235,
      "fet": 5236,
      "gr": 5237,
      "gy": 5238,
      "mble": 5239,
      "overy": 5240,
      "rant": 5241,
      "uish": 5242,
      "yal": 5243,
      "zed": 5244,
      "Ġtit": 5245,
      "Ġsen": 5246,
      "Ġsank": 5247,
      "Ġtoot": 5248,
      "Ġdy": 5249,
      "Ġdorm": 5250,
      "Ġcure": 5251,
      "Ġcough": 5252,
      "Ġlat": 5253,
      "edy": 5254,
      "orary": 5255,
      "Ġnag": 5256,
      "Ġnail": 5257,
      "Ġgained": 5258,
      "Ġpi": 5259,
      "Ġpac": 5260,
      "Ġpour": 5261,
      "Ġpure": 5262,
      "Ġpace": 5263,
      "Ġpitch": 5264,
      "ero": 5265,
      "Ġthurs": 5266,
      "Ġbeating": 5267,
      "itter": 5268,
      "Ġantic": 5269,
      "Ġkick": 5270,
      "rigu": 5271,
      "Ġgoals": 5272,
      "Ġknee": 5273,
      "acting": 5274,
      "utation": 5275,
      "Ġtires": 5276,
      "Ġcoast": 5277,
      "Ġalice": 5278,
      "Ġalib": 5279,
      "Ġnodd": 5280,
      "ivered": 5281,
      "Ġplumber": 5282,
      "Ġloaded": 5283,
      "Ġletting": 5284,
      "ilient": 5285,
      "iece": 5286,
      "fere": 5287,
      "Ġsevere": 5288,
      "Ġprocess": 5289,
      "epend": 5290,
      "Ġintrigu": 5291,
      "apes": 5292,
      "Ġjoy": 5293,
      "Ġpregn": 5294,
      "Ġspelling": 5295,
      "Ġbraz": 5296,
      "Ġadults": 5297,
      "Ġappa": 5298,
      "Ġappeal": 5299,
      "oms": 5300,
      "Ġearring": 5301,
      "izing": 5302,
      "Ġswall": 5303,
      "Ġswitch": 5304,
      "Ġfaults": 5305,
      "Ġaccur": 5306,
      "Ġhopeless": 5307,
      "Ġresilient": 5308,
      "Ġengagement": 5309,
      "Ġdecor": 5310,
      "Ġtraining": 5311,
      "umstances": 5312,
      "Ġminim": 5313,
      "Ġcontr": 5314,
      "Ġcontains": 5315,
      "Ġpainful": 5316,
      "Ġshade": 5317,
      "Ġshaking": 5318,
      "Ġrested": 5319,
      "Ġexpectations": 5320,
      "Ġruin": 5321,
      "Ġstands": 5322,
      "Ġexcuses": 5323,
      "Ġremote": 5324,
      "Ġeyesight": 5325,
      "shirt": 5326,
      "Ġfinishing": 5327,
      "Ġbabys": 5328,
      "Ġbecomes": 5329,
      "Ġinterfere": 5330,
      "scri": 5331,
      "Ġdecisions": 5332,
      "Ġcharity": 5333,
      "Ġcharming": 5334,
      "Ġmenu": 5335,
      "Ġdelay": 5336,
      "Ġdelivered": 5337,
      "Ġriding": 5338,
      "Ġridden": 5339,
      "Ġtreats": 5340,
      "Ġopinions": 5341,
      "Ġhumid": 5342,
      "Ġopponent": 5343,
      "Ġsubscri": 5344,
      "Ġthrown": 5345,
      "Ġpermit": 5346,
      "Ġrequires": 5347,
      "Ġurged": 5348,
      "Ġ195": 5349,
      "Ġburgl": 5350,
      "Ġenemies": 5351,
      "Ġcurrently": 5352,
      "Ġwoken": 5353,
      "Ġevil": 5354,
      "Ġlanded": 5355,
      "Ġdebate": 5356,
      "Ġcustomer": 5357,
      "Ġfortunately": 5358,
      "Ġbribe": 5359,
      "Ġaccompany": 5360,
      "Ġdrowning": 5361,
      "Ġshooting": 5362,
      "Ġpretending": 5363,
      "Ġcellphone": 5364,
      "Ġimpressive": 5365,
      "Ġabandon": 5366,
      "Ġdevast": 5367,
      "Ġrepeated": 5368,
      "Ġincreased": 5369,
      "Ġhugged": 5370,
      "Ġmentioned": 5371,
      "Ġflex": 5372,
      "Ġbottles": 5373,
      "Ġscarf": 5374,
      "Ġremarkable": 5375,
      "Ġdocuments": 5376,
      "Ġreligion": 5377,
      "Ġteenagers": 5378,
      "Ġenvy": 5379,
      "Ġquality": 5380,
      "Ġpillow": 5381,
      "Ġapproaching": 5382,
      "Ġsympath": 5383,
      "Ġinsects": 5384,
      "Ġculture": 5385,
      "Ġbriefly": 5386,
      "Ġoriginal": 5387,
      "Ġdragged": 5388,
      "Ġemotional": 5389,
      "Ġerrors": 5390,
      "Ġcitizens": 5391,
      "Ġpraise": 5392,
      "Ġmaterial": 5393,
      "Ġcircumstances": 5394,
      "Ġsoul": 5395,
      "Ġunlocked": 5396,
      "Ġelephants": 5397,
      "Ġunemployed": 5398,
      "Ġflashlight": 5399,
      "Ġdiplomat": 5400,
      "Ġdetective": 5401,
      "Ġskept": 5402,
      "Ġsneak": 5403,
      "Ġprohibited": 5404,
      "Ġarchitect": 5405,
      "Ġrescued": 5406,
      "Ġincompet": 5407,
      "Ġopposite": 5408,
      "Ġresourceful": 5409,
      "Ġconsequ": 5410,
      "Ġnuclear": 5411,
      "Ġthursday": 5412,
      "Ġanticip": 5413,
      "avery": 5414,
      "avor": 5415,
      "burn": 5416,
      "cure": 5417,
      "dest": 5418,
      "dom": 5419,
      "ember": 5420,
      "els": 5421,
      "ipp": 5422,
      "ially": 5423,
      "minded": 5424,
      "nes": 5425,
      "ody": 5426,
      "oard": 5427,
      "ped": 5428,
      "ral": 5429,
      "rise": 5430,
      "rated": 5431,
      "rots": 5432,
      "town": 5433,
      "tub": 5434,
      "uous": 5435,
      "uff": 5436,
      "Ġtid": 5437,
      "hest": 5438,
      "Ġack": 5439,
      "Ġwand": 5440,
      "Ġwip": 5441,
      "Ġsides": 5442,
      "Ġsaint": 5443,
      "Ġtore": 5444,
      "Ġtoes": 5445,
      "Ġbone": 5446,
      "Ġbul": 5447,
      "Ġchat": 5448,
      "Ġlapt": 5449,
      "Ġge": 5450,
      "Ġgor": 5451,
      "Ġpant": 5452,
      "Ġpard": 5453,
      "Ġpath": 5454,
      "Ġhaun": 5455,
      "Ġoly": 5456,
      "Ġoyst": 5457,
      "arant": 5458,
      "itary": 5459,
      "Ġweeds": 5460,
      "atis": 5461,
      "Ġinde": 5462,
      "lee": 5463,
      "Ġmechan": 5464,
      "Ġang": 5465,
      "Ġanti": 5466,
      "Ġren": 5467,
      "Ġreact": 5468,
      "Ġstro": 5469,
      "Ġstew": 5470,
      "Ġko": 5471,
      "Ġracket": 5472,
      "Ġteens": 5473,
      "Ġaboard": 5474,
      "Ġtrack": 5475,
      "Ġtrous": 5476,
      "Ġtricked": 5477,
      "ender": 5478,
      "Ġlevel": 5479,
      "Ġsauce": 5480,
      "ushing": 5481,
      "Ġmars": 5482,
      "Ġmarks": 5483,
      "Ġneeding": 5484,
      "Ġcave": 5485,
      "ulse": 5486,
      "ulting": 5487,
      "Ġshoulders": 5488,
      "ili": 5489,
      "Ġdele": 5490,
      "Ġdeals": 5491,
      "Ġsept": 5492,
      "Ġamends": 5493,
      "erson": 5494,
      "Ġmug": 5495,
      "Ġcarbon": 5496,
      "Ġcarrots": 5497,
      "Ġpoker": 5498,
      "cked": 5499,
      "Ġasks": 5500,
      "Ġintim": 5501,
      "Ġcliff": 5502,
      "Ġspr": 5503,
      "Ġspilled": 5504,
      "ession": 5505,
      "Ġunre": 5506,
      "Ġoffic": 5507,
      "Ġjogging": 5508,
      "Ġprefers": 5509,
      "Ġadvent": 5510,
      "Ġadapt": 5511,
      "Ġovers": 5512,
      "Ġoverwork": 5513,
      "aching": 5514,
      "Ġguarant": 5515,
      "Ġroommate": 5516,
      "Ġchildish": 5517,
      "Ġawfully": 5518,
      "Ġhardest": 5519,
      "Ġparts": 5520,
      "Ġpartner": 5521,
      "Ġswam": 5522,
      "Ġaccess": 5523,
      "Ġdiffers": 5524,
      "about": 5525,
      "Ġreserve": 5526,
      "Ġgray": 5527,
      "Ġgrapes": 5528,
      "Ġphil": 5529,
      "Ġattor": 5530,
      "Ġmission": 5531,
      "Ġcountless": 5532,
      "Ġcontain": 5533,
      "Ġthankful": 5534,
      "Ġdeserted": 5535,
      "Ġswims": 5536,
      "Ġshave": 5537,
      "Ġfridge": 5538,
      "Ġwindy": 5539,
      "Ġreputation": 5540,
      "ips": 5541,
      "Ġarriving": 5542,
      "Ġforgetful": 5543,
      "Ġforgetting": 5544,
      "Ġslice": 5545,
      "Ġslipp": 5546,
      "Ġ11": 5547,
      "Ġ12": 5548,
      "Ġimage": 5549,
      "Ġluckily": 5550,
      "Ġpolicemen": 5551,
      "Ġfasten": 5552,
      "Ġcrush": 5553,
      "Ġcommunity": 5554,
      "Ġforeigner": 5555,
      "Ġterror": 5556,
      "Ġfacebook": 5557,
      "Ġinterview": 5558,
      "Ġsuitable": 5559,
      "Ġlaughs": 5560,
      "Ġcakes": 5561,
      "Ġsunny": 5562,
      "Ġsunrise": 5563,
      "Ġsixty": 5564,
      "Ġsituations": 5565,
      "Ġexams": 5566,
      "Ġjoined": 5567,
      "Ġconsideration": 5568,
      "Ġhumili": 5569,
      "Ġindepend": 5570,
      "berries": 5571,
      "Ġfatter": 5572,
      "Ġbathtub": 5573,
      "Ġbehaving": 5574,
      "Ġstarved": 5575,
      "Ġpatients": 5576,
      "Ġthrowing": 5577,
      "Ġeighteen": 5578,
      "Ġdemonst": 5579,
      "Ġreminded": 5580,
      "Ġpressed": 5581,
      "Ġcanadians": 5582,
      "Ġbasic": 5583,
      "Ġamazed": 5584,
      "Ġconditioner": 5585,
      "Ġopportun": 5586,
      "coln": 5587,
      "Ġvegetarian": 5588,
      "Ġoptimistic": 5589,
      "Ġdemands": 5590,
      "Ġscreamed": 5591,
      "Ġmotion": 5592,
      "Ġscenery": 5593,
      "Ġobjection": 5594,
      "Ġengineer": 5595,
      "Ġpoems": 5596,
      "Ġclimbing": 5597,
      "Ġcheerful": 5598,
      "Ġcreep": 5599,
      "Ġdetermine": 5600,
      "Ġhorrified": 5601,
      "Ġfrog": 5602,
      "Ġprofessor": 5603,
      "Ġprovided": 5604,
      "Ġhighest": 5605,
      "Ġmelted": 5606,
      "Ġobserv": 5607,
      "Ġblocked": 5608,
      "Ġastron": 5609,
      "Ġwealthy": 5610,
      "Ġalternatives": 5611,
      "Ġcreative": 5612,
      "Ġinsecure": 5613,
      "Ġignorance": 5614,
      "Ġsource": 5615,
      "Ġvictims": 5616,
      "Ġblowing": 5617,
      "Ġhostages": 5618,
      "Ġclaims": 5619,
      "Ġcds": 5620,
      "looking": 5621,
      "Ġvarious": 5622,
      "Ġcurtain": 5623,
      "Ġmeasures": 5624,
      "Ġarranged": 5625,
      "Ġcooperation": 5626,
      "Ġoutraged": 5627,
      "Ġdefeat": 5628,
      "Ġparticipate": 5629,
      "Ġinfluence": 5630,
      "Ġgreek": 5631,
      "Ġleaned": 5632,
      "Ġabsorbed": 5633,
      "Ġpharm": 5634,
      "Ġsatisfactory": 5635,
      "Ġlincoln": 5636,
      "Ġsacri": 5637,
      "Ġarrogant": 5638,
      "Ġtelephoned": 5639,
      "Ġalibi": 5640,
      "Ġbrazil": 5641,
      "Ġsubscribe": 5642,
      "Ġdevastated": 5643,
      "Ġflexible": 5644,
      "Ġacknow": 5645,
      "Ġlaptop": 5646,
      "Ġpardon": 5647,
      "Ġhaunted": 5648,
      "Ġolymp": 5649,
      "Ġoysters": 5650,
      "Ġtrousers": 5651,
      "Ġseptember": 5652,
      "bi": 5653,
      "can": 5654,
      "cher": 5655,
      "fle": 5656,
      "hus": 5657,
      "ixt": 5658,
      "lph": 5659,
      "oss": 5660,
      "oided": 5661,
      "overs": 5662,
      "phere": 5663,
      "uine": 5664,
      "wh": 5665,
      "why": 5666,
      "xoph": 5667,
      "Ġtank": 5668,
      "Ġtune": 5669,
      "Ġtues": 5670,
      "Ġwings": 5671,
      "Ġsir": 5672,
      "Ġyard": 5673,
      "Ġdyed": 5674,
      "Ġmaint": 5675,
      "ony": 5676,
      "onym": 5677,
      "Ġbible": 5678,
      "Ġbless": 5679,
      "Ġbased": 5680,
      "Ġfiled": 5681,
      "Ġfaint": 5682,
      "Ġfiles": 5683,
      "Ġled": 5684,
      "Ġlacks": 5685,
      "Ġloos": 5686,
      "Ġheated": 5687,
      "Ġnet": 5688,
      "Ġgently": 5689,
      "ength": 5690,
      "Ġpays": 5691,
      "Ġhaw": 5692,
      "Ġhitting": 5693,
      "Ġoxy": 5694,
      "Ġdolph": 5695,
      "Ġbees": 5696,
      "ites": 5697,
      "atory": 5698,
      "Ġinch": 5699,
      "Ġinher": 5700,
      "iders": 5701,
      "Ġeth": 5702,
      "Ġespe": 5703,
      "Ġank": 5704,
      "Ġanal": 5705,
      "Ġonto": 5706,
      "Ġreven": 5707,
      "Ġlion": 5708,
      "Ġstir": 5709,
      "Ġstage": 5710,
      "Ġstones": 5711,
      "icag": 5712,
      "Ġkar": 5713,
      "anta": 5714,
      "thirty": 5715,
      "Ġasp": 5716,
      "Ġshift": 5717,
      "Ġrise": 5718,
      "Ġrushed": 5719,
      "Ġtex": 5720,
      "Ġtrout": 5721,
      "Ġtroub": 5722,
      "Ġtracked": 5723,
      "Ġsoci": 5724,
      "Ġsamp": 5725,
      "Ġsaxoph": 5726,
      "unciation": 5727,
      "Ġupside": 5728,
      "Ġexit": 5729,
      "Ġjustice": 5730,
      "ulf": 5731,
      "Ġchicag": 5732,
      "Ġboil": 5733,
      "Ġquar": 5734,
      "Ġqueen": 5735,
      "Ġarab": 5736,
      "Ġwrist": 5737,
      "Ġhometown": 5738,
      "Ġvivid": 5739,
      "Ġspiders": 5740,
      "Ġrights": 5741,
      "Ġoffend": 5742,
      "Ġlongest": 5743,
      "Ġpear": 5744,
      "Ġpepper": 5745,
      "Ġadj": 5746,
      "Ġthoughts": 5747,
      "Ġbacked": 5748,
      "derer": 5749,
      "Ġcompare": 5750,
      "Ġcareer": 5751,
      "Ġharvest": 5752,
      "olves": 5753,
      "Ġoverc": 5754,
      "Ġoverhe": 5755,
      "Ġwaiter": 5756,
      "Ġdiss": 5757,
      "Ġdisre": 5758,
      "Ġdisaster": 5759,
      "Ġdisgu": 5760,
      "Ġearned": 5761,
      "Ġplanes": 5762,
      "Ġotherwise": 5763,
      "Ġcomments": 5764,
      "Ġbuys": 5765,
      "Ġcheered": 5766,
      "Ġactions": 5767,
      "Ġrob": 5768,
      "Ġelb": 5769,
      "prints": 5770,
      "Ġpretti": 5771,
      "Ġcontro": 5772,
      "Ġcontrib": 5773,
      "Ġdesert": 5774,
      "Ġdeserved": 5775,
      "Ġpayment": 5776,
      "Ġshad": 5777,
      "Ġrecall": 5778,
      "Ġowned": 5779,
      "Ġforgave": 5780,
      "Ġwarrant": 5781,
      "Ġsmoked": 5782,
      "Ġslapped": 5783,
      "Ġdifferences": 5784,
      "Ġ17": 5785,
      "Ġincon": 5786,
      "Ġcuri": 5787,
      "Ġconfessed": 5788,
      "Ġspoiled": 5789,
      "Ġforecast": 5790,
      "Ġbusinessman": 5791,
      "Ġ25": 5792,
      "Ġpriest": 5793,
      "Ġmessed": 5794,
      "Ġpresents": 5795,
      "Ġgreedy": 5796,
      "Ġadmission": 5797,
      "Ġsunset": 5798,
      "Ġfixing": 5799,
      "Ġtravels": 5800,
      "Ġrisked": 5801,
      "Ġsmokes": 5802,
      "Ġseconds": 5803,
      "Ġterrific": 5804,
      "Ġgenuine": 5805,
      "Ġcolors": 5806,
      "Ġtrapped": 5807,
      "Ġavoided": 5808,
      "Ġtemporary": 5809,
      "Ġtasted": 5810,
      "Ġguitarist": 5811,
      "Ġsending": 5812,
      "Ġpropose": 5813,
      "Ġzero": 5814,
      "Ġmisjud": 5815,
      "Ġpostcard": 5816,
      "Ġbarber": 5817,
      "Ġwelcom": 5818,
      "Ġorganic": 5819,
      "Ġorganization": 5820,
      "Ġcopies": 5821,
      "Ġbodyguard": 5822,
      "Ġirrit": 5823,
      "Ġlanding": 5824,
      "Ġmurderer": 5825,
      "Ġbatter": 5826,
      "Ġbeaten": 5827,
      "Ġpolitely": 5828,
      "Ġtypewriter": 5829,
      "holic": 5830,
      "Ġdamaged": 5831,
      "Ġfurious": 5832,
      "Ġknocking": 5833,
      "Ġpuppy": 5834,
      "Ġinterrupted": 5835,
      "Ġhumanity": 5836,
      "Ġdespite": 5837,
      "Ġincreasing": 5838,
      "Ġdirections": 5839,
      "Ġcaptured": 5840,
      "Ġconstantly": 5841,
      "Ġordinary": 5842,
      "Ġfrost": 5843,
      "Ġcriticism": 5844,
      "Ġ300": 5845,
      "Ġsearching": 5846,
      "Ġscarce": 5847,
      "Ġhiking": 5848,
      "Ġsoftware": 5849,
      "Ġcelebrate": 5850,
      "Ġtricks": 5851,
      "Ġreplaced": 5852,
      "Ġpronunciation": 5853,
      "Ġdeceived": 5854,
      "Ġstrictly": 5855,
      "Ġtoothp": 5856,
      "Ġcandid": 5857,
      "Ġexperiences": 5858,
      "Ġpills": 5859,
      "Ġencouraged": 5860,
      "Ġseparated": 5861,
      "Ġsurface": 5862,
      "Ġdeveloped": 5863,
      "Ġrabbits": 5864,
      "Ġpanicked": 5865,
      "Ġskills": 5866,
      "Ġdisturbing": 5867,
      "Ġromantic": 5868,
      "Ġinsisted": 5869,
      "Ġpriority": 5870,
      "Ġconclusion": 5871,
      "sticks": 5872,
      "Ġcommunicate": 5873,
      "Ġchopsticks": 5874,
      "Ġadvertise": 5875,
      "Ġapplied": 5876,
      "Ġliterature": 5877,
      "load": 5878,
      "Ġpollution": 5879,
      "Ġhomesick": 5880,
      "Ġstruggled": 5881,
      "Ġstatue": 5882,
      "Ġrapid": 5883,
      "Ġgrammar": 5884,
      "Ġtrumpet": 5885,
      "Ġrotten": 5886,
      "Ġproverb": 5887,
      "Ġlatin": 5888,
      "Ġpregnant": 5889,
      "Ġskeptical": 5890,
      "Ġincompetent": 5891,
      "Ġwiped": 5892,
      "Ġintimid": 5893,
      "Ġattorney": 5894,
      "husi": 5895,
      "Ġtuesday": 5896,
      "Ġoxygen": 5897,
      "Ġespecially": 5898,
      "Ġsaxophone": 5899,
      "Ġchicago": 5900,
      "Ġprettier": 5901,
      "Ġmisjudged": 5902,
      "Ġwelcomed": 5903,
      "cise": 5904,
      "cated": 5905,
      "for": 5906,
      "ik": 5907,
      "kn": 5908,
      "ole": 5909,
      "oke": 5910,
      "old": 5911,
      "obey": 5912,
      "says": 5913,
      "the": 5914,
      "table": 5915,
      "ties": 5916,
      "uries": 5917,
      "zes": 5918,
      "Ġtha": 5919,
      "Ġtub": 5920,
      "Ġip": 5921,
      "het": 5922,
      "Ġain": 5923,
      "Ġsanta": 5924,
      "inist": 5925,
      "inos": 5926,
      "Ġdict": 5927,
      "Ġmr": 5928,
      "Ġmut": 5929,
      "onse": 5930,
      "onde": 5931,
      "Ġbak": 5932,
      "Ġfol": 5933,
      "Ġlaz": 5934,
      "anuary": 5935,
      "lli": 5936,
      "Ġheave": 5937,
      "orthy": 5938,
      "Ġpow": 5939,
      "Ġpit": 5940,
      "Ġpump": 5941,
      "Ġpulse": 5942,
      "erly": 5943,
      "Ġhint": 5944,
      "Ġhud": 5945,
      "Ġthri": 5946,
      "Ġbeers": 5947,
      "Ġbeware": 5948,
      "met": 5949,
      "iter": 5950,
      "athetic": 5951,
      "storm": 5952,
      "levant": 5953,
      "ids": 5954,
      "Ġanonym": 5955,
      "verted": 5956,
      "Ġreward": 5957,
      "Ġut": 5958,
      "Ġlips": 5959,
      "Ġstall": 5960,
      "Ġstink": 5961,
      "Ġforb": 5962,
      "icing": 5963,
      "ometers": 5964,
      "rived": 5965,
      "Ġknitting": 5966,
      "roph": 5967,
      "thless": 5968,
      "imated": 5969,
      "imney": 5970,
      "Ġjunk": 5971,
      "Ġjanuary": 5972,
      "Ġasia": 5973,
      "Ġsue": 5974,
      "Ġsush": 5975,
      "Ġrational": 5976,
      "ooked": 5977,
      "Ġteased": 5978,
      "Ġcoal": 5979,
      "Ġsoap": 5980,
      "pelled": 5981,
      "Ġexting": 5982,
      "Ġload": 5983,
      "Ġloving": 5984,
      "Ġloyal": 5985,
      "Ġcaution": 5986,
      "Ġcauses": 5987,
      "Ġtools": 5988,
      "Ġselected": 5989,
      "Ġmanners": 5990,
      "Ġchores": 5991,
      "Ġchimney": 5992,
      "Ġwhereabout": 5993,
      "Ġamused": 5994,
      "Ġboiling": 5995,
      "Ġtalkative": 5996,
      "Ġrifle": 5997,
      "Ġvir": 5998,
      "Ġvague": 5999,
      "Ġspir": 6000,
      "Ġspont": 6001,
      "Ġunbel": 6002,
      "Ġbrushed": 6003,
      "Ġbuses": 6004,
      "Ġorphan": 6005,
      "agious": 6006,
      "ickering": 6007,
      "aud": 6008,
      "oline": 6009,
      "Ġoverre": 6010,
      "Ġafterwards": 6011,
      "Ġdisobey": 6012,
      "fty": 6013,
      "ressing": 6014,
      "osity": 6015,
      "Ġhandwrit": 6016,
      "Ġexpenses": 6017,
      "omy": 6018,
      "Ġpartners": 6019,
      "Ġblast": 6020,
      "Ġbluff": 6021,
      "Ġbloss": 6022,
      "Ġblonde": 6023,
      "ffs": 6024,
      "Ġsword": 6025,
      "Ġfined": 6026,
      "Ġflin": 6027,
      "Ġshows": 6028,
      "Ġshowing": 6029,
      "Ġreserved": 6030,
      "Ġgrounded": 6031,
      "Ġcheat": 6032,
      "Ġdrill": 6033,
      "Ġphr": 6034,
      "Ġmonkey": 6035,
      "Ġacts": 6036,
      "Ġroot": 6037,
      "Ġrole": 6038,
      "Ġrocks": 6039,
      "ogram": 6040,
      "Ġcolds": 6041,
      "proof": 6042,
      "Ġcontagious": 6043,
      "Ġfewer": 6044,
      "sper": 6045,
      "Ġswimmer": 6046,
      "bell": 6047,
      "Ġlistens": 6048,
      "Ġpromotion": 6049,
      "Ġbroad": 6050,
      "Ġsurprises": 6051,
      "Ġrug": 6052,
      "Ġruthless": 6053,
      "Ġslip": 6054,
      "well": 6055,
      "Ġkilling": 6056,
      "Ġreality": 6057,
      "Ġreluct": 6058,
      "Ġending": 6059,
      "Ġexcused": 6060,
      "Ġclassical": 6061,
      "Ġhunger": 6062,
      "Ġchoir": 6063,
      "Ġcrushed": 6064,
      "Ġadded": 6065,
      "Ġstove": 6066,
      "Ġrefres": 6067,
      "Ġenthusi": 6068,
      "Ġbrings": 6069,
      "Ġheads": 6070,
      "Ġconserv": 6071,
      "Ġconscient": 6072,
      "Ġincor": 6073,
      "Ġagreeing": 6074,
      "Ġdeprived": 6075,
      "Ġregards": 6076,
      "Ġcommand": 6077,
      "Ġ200": 6078,
      "Ġprime": 6079,
      "Ġholds": 6080,
      "Ġdolls": 6081,
      "Ġsets": 6082,
      "Ġhorror": 6083,
      "Ġsigns": 6084,
      "Ġcorp": 6085,
      "Ġstores": 6086,
      "Ġassure": 6087,
      "Ġquietly": 6088,
      "Ġrestaurants": 6089,
      "Ġresponse": 6090,
      "Ġextent": 6091,
      "Ġvacant": 6092,
      "Ġflows": 6093,
      "Ġroads": 6094,
      "Ġbillion": 6095,
      "Ġtempted": 6096,
      "Ġarrives": 6097,
      "Ġbankrupt": 6098,
      "Ġbehaved": 6099,
      "Ġresponsibilities": 6100,
      "Ġcarrying": 6101,
      "Ġapprove": 6102,
      "Ġapproached": 6103,
      "Ġbreathing": 6104,
      "Ġvoices": 6105,
      "Ġfrequ": 6106,
      "Ġpulling": 6107,
      "Ġpowerless": 6108,
      "Ġannounced": 6109,
      "Ġ198": 6110,
      "aneous": 6111,
      "Ġwednes": 6112,
      "Ġprotection": 6113,
      "Ġoccup": 6114,
      "Ġleads": 6115,
      "Ġargued": 6116,
      "Ġforgiven": 6117,
      "Ġyelled": 6118,
      "Ġpairs": 6119,
      "Ġcrimes": 6120,
      "Ġbasis": 6121,
      "Ġviolent": 6122,
      "Ġdirector": 6123,
      "Ġmurdered": 6124,
      "Ġladies": 6125,
      "Ġdefense": 6126,
      "Ġcustoms": 6127,
      "Ġeuropean": 6128,
      "Ġnapk": 6129,
      "Ġbarks": 6130,
      "Ġformal": 6131,
      "Ġexception": 6132,
      "Ġdelicate": 6133,
      "Ġhabits": 6134,
      "Ġsuspended": 6135,
      "Ġselfie": 6136,
      "Ġflattered": 6137,
      "Ġproperty": 6138,
      "Ġtourist": 6139,
      "Ġthreatening": 6140,
      "Ġvictory": 6141,
      "Ġcollected": 6142,
      "Ġpredicted": 6143,
      "ships": 6144,
      "Ġbenef": 6145,
      "Ġdisgusted": 6146,
      "Ġinternational": 6147,
      "Ġacquired": 6148,
      "Ġcreate": 6149,
      "Ġlocated": 6150,
      "Ġdescribed": 6151,
      "Ġfrozen": 6152,
      "Ġwiser": 6153,
      "Ġcongress": 6154,
      "Ġmajority": 6155,
      "Ġmerciful": 6156,
      "Ġpets": 6157,
      "Ġreview": 6158,
      "Ġnegotiations": 6159,
      "Ġaffected": 6160,
      "Ġpuzzled": 6161,
      "Ġbowl": 6162,
      "Ġbassoon": 6163,
      "Ġallergies": 6164,
      "going": 6165,
      "Ġessay": 6166,
      "Ġsinking": 6167,
      "Ġowes": 6168,
      "Ġstylish": 6169,
      "Ġtreasure": 6170,
      "Ġlabor": 6171,
      "Ġcurtains": 6172,
      "Ġcitizen": 6173,
      "Ġscratched": 6174,
      "Ġspecific": 6175,
      "Ġrobber": 6176,
      "Ġrobbery": 6177,
      "Ġdeliver": 6178,
      "Ġmassage": 6179,
      "amental": 6180,
      "Ġtextbooks": 6181,
      "Ġinex": 6182,
      "Ġrailroad": 6183,
      "Ġelderly": 6184,
      "Ġwhistling": 6185,
      "Ġobliged": 6186,
      "Ġpunishment": 6187,
      "Ġsurrender": 6188,
      "Ġirrelevant": 6189,
      "Ġitems": 6190,
      "Ġunderestimate": 6191,
      "Ġbranch": 6192,
      "Ġrelatives": 6193,
      "Ġmexico": 6194,
      "Ġseventeen": 6195,
      "Ġinterpreter": 6196,
      "Ġtoothache": 6197,
      "Ġdye": 6198,
      "Ġnodded": 6199,
      "Ġapparently": 6200,
      "Ġminimum": 6201,
      "Ġburglar": 6202,
      "Ġsneaky": 6203,
      "Ġconsequences": 6204,
      "Ġtidy": 6205,
      "Ġgorgeous": 6206,
      "atisfied": 6207,
      "Ġoverslept": 6208,
      "Ġoverworked": 6209,
      "Ġphilos": 6210,
      "Ġhumiliated": 6211,
      "Ġobservant": 6212,
      "Ġastronomy": 6213,
      "Ġloosen": 6214,
      "Ġhawai": 6215,
      "Ġinherited": 6216,
      "Ġcuriosity": 6217,
      "Ġheaven": 6218,
      "Ġanonymous": 6219,
      "Ġsushi": 6220,
      "Ġwhereabouts": 6221,
      "Ġspontaneous": 6222,
      "Ġhandwriting": 6223,
      "Ġconservative": 6224,
      "Ġconscientious": 6225,
      "Ġwednesday": 6226,
      "!\"": 6227,
      "10": 6228,
      "dled": 6229,
      "fight": 6230,
      "four": 6231,
      "hor": 6232,
      "ials": 6233,
      "ivers": 6234,
      "kk": 6235,
      "kward": 6236,
      "lon": 6237,
      "mun": 6238,
      "mons": 6239,
      "oed": 6240,
      "point": 6241,
      "race": 6242,
      "sha": 6243,
      "son": 6244,
      "tion": 6245,
      "than": 6246,
      "tom": 6247,
      "vitable": 6248,
      "zing": 6249,
      "Ã©": 6250,
      "Ġwan": 6251,
      "Ġwow": 6252,
      "Ġwid": 6253,
      "Ġsin": 6254,
      "Ġslee": 6255,
      "Ġtoss": 6256,
      "inct": 6257,
      "Ġdried": 6258,
      "Ġdining": 6259,
      "Ġdangers": 6260,
      "Ġbart": 6261,
      "Ġbanged": 6262,
      "vey": 6263,
      "Ġcases": 6264,
      "Ġfuel": 6265,
      "Ġfulf": 6266,
      "Ġlung": 6267,
      "Ġlux": 6268,
      "Ġlength": 6269,
      "inguish": 6270,
      "Ġheater": 6271,
      "orable": 6272,
      "Ġnations": 6273,
      "eness": 6274,
      "enna": 6275,
      "Ġpoo": 6276,
      "Ġpal": 6277,
      "Ġpink": 6278,
      "Ġhamb": 6279,
      "Ġol": 6280,
      "Ġbeans": 6281,
      "iti": 6282,
      "ato": 6283,
      "ste": 6284,
      "sts": 6285,
      "Ġinha": 6286,
      "Ġinfect": 6287,
      "Ġmeas": 6288,
      "Ġant": 6289,
      "Ġants": 6290,
      "ooze": 6291,
      "Ġrecept": 6292,
      "Ġlip": 6293,
      "Ġliars": 6294,
      "Ġstain": 6295,
      "Ġstream": 6296,
      "Ġstead": 6297,
      "Ġstiff": 6298,
      "Ġformer": 6299,
      "iches": 6300,
      "rim": 6301,
      "Ġnotes": 6302,
      "Ġgoss": 6303,
      "Ġjew": 6304,
      "Ġjury": 6305,
      "Ġasian": 6306,
      "Ġrat": 6307,
      "Ġrout": 6308,
      "irmed": 6309,
      "Ġwheat": 6310,
      "ndry": 6311,
      "ndered": 6312,
      "Ġanytime": 6313,
      "Ġsock": 6314,
      "urally": 6315,
      "Ġsafer": 6316,
      "Ġsailing": 6317,
      "Ġoutcome": 6318,
      "unken": 6319,
      "unched": 6320,
      "Ġexe": 6321,
      "Ġplot": 6322,
      "Ġlocation": 6323,
      "Ġcable": 6324,
      "Ġlets": 6325,
      "aste": 6326,
      "qual": 6327,
      "isted": 6328,
      "istry": 6329,
      "Ġenvious": 6330,
      "Ġsection": 6331,
      "Ġmans": 6332,
      "Ġmanual": 6333,
      "Ġamusing": 6334,
      "Ġammun": 6335,
      "Ġconsp": 6336,
      "Ġcondu": 6337,
      "Ġagric": 6338,
      "amm": 6339,
      "ammed": 6340,
      "Ġproced": 6341,
      "ept": 6342,
      "Ġrip": 6343,
      "Ġmodest": 6344,
      "iforn": 6345,
      "Ġspicy": 6346,
      "Ġunim": 6347,
      "Ġunne": 6348,
      "mbol": 6349,
      "Ġprevious": 6350,
      "Ġpreaching": 6351,
      "Ġprecise": 6352,
      "arded": 6353,
      "Ġhokk": 6354,
      "box": 6355,
      "Ġbrain": 6356,
      "Ġbush": 6357,
      "Ġdrum": 6358,
      "Ġdrunken": 6359,
      "Ġlottery": 6360,
      "Ġbum": 6361,
      "Ġsmashed": 6362,
      "olite": 6363,
      "Ġovercoat": 6364,
      "urned": 6365,
      "Ġguilt": 6366,
      "Ġguards": 6367,
      "Ġwaitress": 6368,
      "Ġawa": 6369,
      "Ġawkward": 6370,
      "osphere": 6371,
      "Ġexpressed": 6372,
      "Ġchannel": 6373,
      "Ġparent": 6374,
      "Ġswed": 6375,
      "Ġimpolite": 6376,
      "Ġcomic": 6377,
      "Ġglanced": 6378,
      "Ġflame": 6379,
      "Ġaccusing": 6380,
      "ulture": 6381,
      "Ġfold": 6382,
      "cience": 6383,
      "Ġattached": 6384,
      "Ġshovel": 6385,
      "Ġactive": 6386,
      "Ġgreatly": 6387,
      "Ġrecons": 6388,
      "awa": 6389,
      "Ġenjoys": 6390,
      "Ġmetal": 6391,
      "Ġpassing": 6392,
      "Ġpassion": 6393,
      "Ġsnack": 6394,
      "cessary": 6395,
      "Ġlighter": 6396,
      "Ġdiscreet": 6397,
      "Ġcutting": 6398,
      "Ġsickness": 6399,
      "Ġstandards": 6400,
      "Ġcooks": 6401,
      "Ġdiag": 6402,
      "Ġlaundry": 6403,
      "Ġaddict": 6404,
      "Ġrefrain": 6405,
      "Ġentering": 6406,
      "ubby": 6407,
      "Ġregrets": 6408,
      "Ġconfirm": 6409,
      "Ġspoil": 6410,
      "Ġreduce": 6411,
      "Ġsnowman": 6412,
      "Ġsnowstorm": 6413,
      "Ġcrafty": 6414,
      "Ġbabies": 6415,
      "Ġdresses": 6416,
      "Ġmessages": 6417,
      "Ġmedal": 6418,
      "Ġcomplains": 6419,
      "Ġchecks": 6420,
      "Ġchecking": 6421,
      "bbing": 6422,
      "Ġpicky": 6423,
      "Ġpicking": 6424,
      "Ġdealing": 6425,
      "Ġguns": 6426,
      "Ġcease": 6427,
      "Ġcorn": 6428,
      "Ġhospitality": 6429,
      "Ġtouching": 6430,
      "Ġadminist": 6431,
      "Ġasso": 6432,
      "Ġdistinguish": 6433,
      "Ġheartb": 6434,
      "Ġexamine": 6435,
      "Ġlessons": 6436,
      "Ġinstall": 6437,
      "Ġimagining": 6438,
      "Ġsalmon": 6439,
      "Ġtreatment": 6440,
      "Ġfooling": 6441,
      "Ġcaliforn": 6442,
      "Ġsilk": 6443,
      "Ġopposed": 6444,
      "Ġaffairs": 6445,
      "Ġchairman": 6446,
      "Ġimmediate": 6447,
      "Ġinjury": 6448,
      "Ġinjuries": 6449,
      "Ġspeechless": 6450,
      "Ġvocation": 6451,
      "Ġsymbol": 6452,
      "Ġearliest": 6453,
      "Ġrings": 6454,
      "Ġgrade": 6455,
      "Ġ199": 6456,
      "Ġvienna": 6457,
      "Ġmarrying": 6458,
      "Ġcurrent": 6459,
      "Ġloses": 6460,
      "Ġsuperv": 6461,
      "Ġblinded": 6462,
      "Ġaccountant": 6463,
      "Ġ500": 6464,
      "Ġtightly": 6465,
      "Ġimproving": 6466,
      "Ġflights": 6467,
      "Ġtalents": 6468,
      "Ġsquee": 6469,
      "Ġsquir": 6470,
      "Ġavoiding": 6471,
      "Ġbarked": 6472,
      "cript": 6473,
      "Ġnaturally": 6474,
      "Ġstepped": 6475,
      "Ġdevice": 6476,
      "Ġbetray": 6477,
      "Ġrecommended": 6478,
      "Ġbutterf": 6479,
      "Ġunfortunate": 6480,
      "Ġrequested": 6481,
      "Ġcriticized": 6482,
      "Ġtends": 6483,
      "Ġtendency": 6484,
      "Ġalcoholic": 6485,
      "Ġspeeding": 6486,
      "Ġvolunteers": 6487,
      "Ġwisdom": 6488,
      "Ġstomac": 6489,
      "Ġcarelessness": 6490,
      "Ġintelligence": 6491,
      "Ġlimited": 6492,
      "Ġdestroy": 6493,
      "Ġresemble": 6494,
      "Ġastute": 6495,
      "Ġcooperate": 6496,
      "Ġkilometers": 6497,
      "Ġencour": 6498,
      "Ġseparate": 6499,
      "Ġaffects": 6500,
      "Ġbowed": 6501,
      "Ġpanic": 6502,
      "Ġjuly": 6503,
      "Ġfocused": 6504,
      "Ġresponded": 6505,
      "Ġcotton": 6506,
      "Ġcongratulated": 6507,
      "Ġcongratulations": 6508,
      "Ġtort": 6509,
      "Ġarrange": 6510,
      "Ġscratch": 6511,
      "Ġspecies": 6512,
      "Ġregardless": 6513,
      "Ġcommunication": 6514,
      "Ġstrawberries": 6515,
      "Ġinevitable": 6516,
      "Ġunbear": 6517,
      "Ġmosquitoes": 6518,
      "Ġexaggerate": 6519,
      "Ġastonished": 6520,
      "Ġblanket": 6521,
      "Ġblackmailed": 6522,
      "Ġconstruction": 6523,
      "Ġkorean": 6524,
      "Ġatmosphere": 6525,
      "Ġmemorize": 6526,
      "Ġhypnot": 6527,
      "aido": 6528,
      "Ġangel": 6529,
      "Ġchemistry": 6530,
      "Ġcrawling": 6531,
      "Ġcollapsed": 6532,
      "Ġaccurate": 6533,
      "Ġbabysitter": 6534,
      "Ġmechanic": 6535,
      "Ġkobe": 6536,
      "Ġindependent": 6537,
      "Ġsacrific": 6538,
      "Ġcontribute": 6539,
      "Ġbatteries": 6540,
      "Ġscarcely": 6541,
      "Ġtoothpaste": 6542,
      "known": 6543,
      "Ġforbid": 6544,
      "Ġspirits": 6545,
      "Ġbluffing": 6546,
      "Ġfrequently": 6547,
      "Ġphilosop": 6548,
      "Ġhawaii": 6549,
      "Ġwanna": 6550,
      "Ġhambur": 6551,
      "Ġreception": 6552,
      "Ġgossip": 6553,
      "Ġammunition": 6554,
      "Ġagriculture": 6555,
      "Ġunnecessary": 6556,
      "Ġhokkaido": 6557,
      "Ġreconsider": 6558,
      "Ġcalifornia": 6559,
      "ah": 6560,
      "bow": 6561,
      "brow": 6562,
      "bag": 6563,
      "bulous": 6564,
      "cil": 6565,
      "ev": 6566,
      "free": 6567,
      "ij": 6568,
      "lin": 6569,
      "lim": 6570,
      "lict": 6571,
      "oe": 6572,
      "ok": 6573,
      "ode": 6574,
      "piece": 6575,
      "rous": 6576,
      "sis": 6577,
      "test": 6578,
      "tles": 6579,
      "uri": 6580,
      "walk": 6581,
      "worthy": 6582,
      "yard": 6583,
      "Ġx": 6584,
      "Ġven": 6585,
      "Ġvers": 6586,
      "Ġtan": 6587,
      "Ġtun": 6588,
      "Ġtap": 6589,
      "Ġtick": 6590,
      "Ġtiss": 6591,
      "Ġtuck": 6592,
      "hens": 6593,
      "Ġamp": 6594,
      "Ġwi": 6595,
      "Ġwink": 6596,
      "Ġwished": 6597,
      "Ġwinner": 6598,
      "Ġsar": 6599,
      "Ġsake": 6600,
      "Ġsip": 6601,
      "Ġtone": 6602,
      "inate": 6603,
      "Ġder": 6604,
      "Ġdee": 6605,
      "Ġdates": 6606,
      "Ġdinos": 6607,
      "Ġmal": 6608,
      "onnect": 6609,
      "Ġbones": 6610,
      "Ġcart": 6611,
      "Ġfuse": 6612,
      "Ġfountain": 6613,
      "Ġfbi": 6614,
      "isor": 6615,
      "Ġnause": 6616,
      "Ġgay": 6617,
      "Ġgang": 6618,
      "Ġpry": 6619,
      "Ġpork": 6620,
      "eria": 6621,
      "Ġhallow": 6622,
      "Ġhike": 6623,
      "Ġbears": 6624,
      "Ġwester": 6625,
      "Ġinapp": 6626,
      "leasant": 6627,
      "iding": 6628,
      "oops": 6629,
      "Ġwashes": 6630,
      "Ġonions": 6631,
      "Ġrein": 6632,
      "Ġreve": 6633,
      "Ġreck": 6634,
      "Ġult": 6635,
      "Ġliqu": 6636,
      "Ġstab": 6637,
      "icians": 6638,
      "ometer": 6639,
      "seas": 6640,
      "Ġknives": 6641,
      "Ġshell": 6642,
      "entive": 6643,
      "imately": 6644,
      "Ġjar": 6645,
      "acu": 6646,
      "Ġshining": 6647,
      "Ġruled": 6648,
      "Ġtear": 6649,
      "Ġabol": 6650,
      "Ġsomewhat": 6651,
      "Ġsomeplace": 6652,
      "Ġtroops": 6653,
      "orer": 6654,
      "Ġworries": 6655,
      "Ġalert": 6656,
      "Ġnoises": 6657,
      "pest": 6658,
      "Ġlemon": 6659,
      "Ġlemons": 6660,
      "Ġusa": 6661,
      "Ġhappiest": 6662,
      "Ġexhib": 6663,
      "Ġplate": 6664,
      "Ġplates": 6665,
      "Ġlovers": 6666,
      "Ġjustify": 6667,
      "andal": 6668,
      "Ġenorm": 6669,
      "Ġchubby": 6670,
      "Ġboiled": 6671,
      "Ġprofic": 6672,
      "ishing": 6673,
      "Ġquitting": 6674,
      "Ġmule": 6675,
      "cking": 6676,
      "Ġvoy": 6677,
      "Ġunion": 6678,
      "Ġspect": 6679,
      "Ġbrag": 6680,
      "Ġdra": 6681,
      "Ġorient": 6682,
      "assy": 6683,
      "aging": 6684,
      "agne": 6685,
      "icky": 6686,
      "Ġspeakers": 6687,
      "Ġcompan": 6688,
      "Ġwage": 6689,
      "Ġovercome": 6690,
      "Ġoverlook": 6691,
      "Ġoverseas": 6692,
      "omic": 6693,
      "Ġsweep": 6694,
      "Ġswept": 6695,
      "Ġfinicky": 6696,
      "Ġscore": 6697,
      "Ġfabulous": 6698,
      "Ġflir": 6699,
      "Ġflaw": 6700,
      "Ġstartled": 6701,
      "Ġdoorbell": 6702,
      "Ġcatches": 6703,
      "Ġcatholic": 6704,
      "Ġresort": 6705,
      "Ġbeds": 6706,
      "Ġraincoat": 6707,
      "merous": 6708,
      "Ġphoned": 6709,
      "Ġmonster": 6710,
      "Ġattach": 6711,
      "Ġattentive": 6712,
      "Ġrolled": 6713,
      "ogy": 6714,
      "print": 6715,
      "Ġcounts": 6716,
      "Ġpainter": 6717,
      "Ġdesigned": 6718,
      "Ġgladly": 6719,
      "Ġchain": 6720,
      "Ġowner": 6721,
      "Ġmostly": 6722,
      "Ġrub": 6723,
      "Ġrubbed": 6724,
      "Ġwins": 6725,
      "Ġsnake": 6726,
      "Ġslavery": 6727,
      "Ġrealistic": 6728,
      "Ġdiscover": 6729,
      "Ġrelief": 6730,
      "Ġmuscles": 6731,
      "Ġclosest": 6732,
      "Ġnumerous": 6733,
      "Ġparks": 6734,
      "Ġunturned": 6735,
      "Ġvisits": 6736,
      "working": 6737,
      "Ġbicycles": 6738,
      "Ġheading": 6739,
      "Ġcups": 6740,
      "Ġtroubles": 6741,
      "Ġcountryside": 6742,
      "Ġconfirmed": 6743,
      "Ġconflict": 6744,
      "Ġallowance": 6745,
      "Ġgrowth": 6746,
      "Ġsnowed": 6747,
      "Ġforehead": 6748,
      "Ġcostume": 6749,
      "Ġsecretly": 6750,
      "Ġprim": 6751,
      "Ġshortly": 6752,
      "Ġdiscussing": 6753,
      "Ġmilitary": 6754,
      "Ġsunburn": 6755,
      "Ġassert": 6756,
      "Ġtravelers": 6757,
      "Ġexperts": 6758,
      "Ġlocker": 6759,
      "Ġworthy": 6760,
      "Ġworthwh": 6761,
      "Ġdeliber": 6762,
      "Ġnecessarily": 6763,
      "Ġnovelist": 6764,
      "Ġlaunched": 6765,
      "Ġtransfer": 6766,
      "Ġconsiderate": 6767,
      "Ġtestify": 6768,
      "Ġmedication": 6769,
      "Ġtraitor": 6770,
      "Ġpunched": 6771,
      "Ġindic": 6772,
      "Ġheavier": 6773,
      "headed": 6774,
      "Ġcorrected": 6775,
      "Ġstarve": 6776,
      "Ġprophe": 6777,
      "Ġbarbe": 6778,
      "Ġembassy": 6779,
      "Ġannounce": 6780,
      "Ġorganize": 6781,
      "Ġskipped": 6782,
      "Ġprivately": 6783,
      "Ġ193": 6784,
      "Ġeyebrow": 6785,
      "Ġrelaxing": 6786,
      "Ġwooden": 6787,
      "Ġpoliticians": 6788,
      "Ġwolf": 6789,
      "Ġevacu": 6790,
      "Ġmuseums": 6791,
      "Ġfifth": 6792,
      "Ġeuros": 6793,
      "Ġdestiny": 6794,
      "Ġblinds": 6795,
      "Ġdoubtful": 6796,
      "Ġwashington": 6797,
      "Ġgarlic": 6798,
      "Ġclosing": 6799,
      "Ġscheduled": 6800,
      "Ġmillions": 6801,
      "Ġgasoline": 6802,
      "Ġpracticing": 6803,
      "Ġattracted": 6804,
      "Ġfrightening": 6805,
      "Ġpotato": 6806,
      "Ġbrilli": 6807,
      "Ġgolden": 6808,
      "Ġcellar": 6809,
      "Ġearthquakes": 6810,
      "Ġbrightest": 6811,
      "Ġobjective": 6812,
      "Ġsuspects": 6813,
      "Ġsaturdays": 6814,
      "Ġpacking": 6815,
      "Ġunfor": 6816,
      "Ġfingern": 6817,
      "Ġcousins": 6818,
      "Ġdiseases": 6819,
      "Ġgroups": 6820,
      "Ġservant": 6821,
      "Ġintends": 6822,
      "Ġclaus": 6823,
      "Ġhyd": 6824,
      "Ġconstant": 6825,
      "Ġfilthy": 6826,
      "Ġstrive": 6827,
      "Ġeffects": 6828,
      "Ġsandwiches": 6829,
      "Ġhesitated": 6830,
      "Ġvolunteering": 6831,
      "Ġturkey": 6832,
      "Ġturtles": 6833,
      "Ġsensible": 6834,
      "Ġalarmed": 6835,
      "Ġcourageous": 6836,
      "Ġverge": 6837,
      "Ġadopt": 6838,
      "Ġfarmers": 6839,
      "Ġexistence": 6840,
      "Ġdecember": 6841,
      "Ġdivide": 6842,
      "Ġobsessed": 6843,
      "Ġblocks": 6844,
      "Ġpassenger": 6845,
      "Ġinvention": 6846,
      "Ġkilos": 6847,
      "Ġkilogram": 6848,
      "Ġprotested": 6849,
      "Ġprotesters": 6850,
      "Ġcreated": 6851,
      "Ġsavings": 6852,
      "Ġdawn": 6853,
      "Ġsalesman": 6854,
      "Ġnerves": 6855,
      "Ġphysical": 6856,
      "Ġcontented": 6857,
      "Ġshakespe": 6858,
      "Ġdeclared": 6859,
      "Ġclaimed": 6860,
      "Ġ70": 6861,
      "Ġwhales": 6862,
      "Ġestate": 6863,
      "Ġestab": 6864,
      "rogen": 6865,
      "Ġfinancially": 6866,
      "Ġincluded": 6867,
      "Ġlabel": 6868,
      "Ġbritain": 6869,
      "Ġemotions": 6870,
      "Ġdegree": 6871,
      "Ġunpleasant": 6872,
      "Ġdelivery": 6873,
      "Ġoutrank": 6874,
      "Ġdefeated": 6875,
      "Ġtypical": 6876,
      "Ġbalance": 6877,
      "Ġshouting": 6878,
      "Ġsewing": 6879,
      "Ġchampion": 6880,
      "Ġchampagne": 6881,
      "Ġidentify": 6882,
      "Ġtechnology": 6883,
      "Ġmosquito": 6884,
      "Ġninety": 6885,
      "Ġelders": 6886,
      "Ġmicrophone": 6887,
      "Ġpounds": 6888,
      "Ġsheets": 6889,
      "when": 6890,
      "Ġcouncil": 6891,
      "Ġinspired": 6892,
      "Ġrefund": 6893,
      "Ġrefuge": 6894,
      "Ġmixed": 6895,
      "Ġpigs": 6896,
      "Ġpierced": 6897,
      "Ġspinach": 6898,
      "Ġreduced": 6899,
      "Ġcabinet": 6900,
      "heartedly": 6901,
      "Ġswallow": 6902,
      "Ġcontrad": 6903,
      "Ġsympathy": 6904,
      "Ġwandered": 6905,
      "Ġpanting": 6906,
      "Ġstroke": 6907,
      "Ġadventure": 6908,
      "Ġpharmacy": 6909,
      "Ġacknowled": 6910,
      "Ġmaintain": 6911,
      "Ġrevenge": 6912,
      "Ġsample": 6913,
      "Ġoverheard": 6914,
      "Ġdisguised": 6915,
      "Ġinconven": 6916,
      "Ġbakery": 6917,
      "Ġpowers": 6918,
      "Ġhuddled": 6919,
      "Ġoverreacting": 6920,
      "Ġdisobeyed": 6921,
      "Ġincorrect": 6922,
      "Ġbartender": 6923,
      "Ġexecut": 6924,
      "qualified": 6925,
      "Ġstomachache": 6926,
      "Ġunbearable": 6927,
      "Ġphilosophy": 6928,
      "Ġversion": 6929,
      "Ġsarc": 6930,
      "Ġdeepest": 6931,
      "Ġdinosaur": 6932,
      "Ġhalloween": 6933,
      "Ġinappro": 6934,
      "Ġenormous": 6935,
      "Ġproficient": 6936,
      "Ġvoyage": 6937,
      "Ġworthwhile": 6938,
      "Ġannouncement": 6939,
      "Ġbrilliant": 6940,
      "Ġkilograms": 6941,
      "Ġshakespeare": 6942,
      "20": 6943,
      "bu": 6944,
      "ban": 6945,
      "bar": 6946,
      "case": 6947,
      "corn": 6948,
      "food": 6949,
      "hj": 6950,
      "li": 6951,
      "lter": 6952,
      "lance": 6953,
      "lted": 6954,
      "may": 6955,
      "nical": 6956,
      "phe": 6957,
      "pack": 6958,
      "park": 6959,
      "person": 6960,
      "ray": 6961,
      "rate": 6962,
      "ximately": 6963,
      "Ġted": 6964,
      "Ġtab": 6965,
      "Ġaug": 6966,
      "Ġwires": 6967,
      "Ġsed": 6968,
      "Ġyog": 6969,
      "inci": 6970,
      "Ġdies": 6971,
      "Ġdread": 6972,
      "Ġdated": 6973,
      "Ġdull": 6974,
      "Ġduck": 6975,
      "Ġdug": 6976,
      "Ġmer": 6977,
      "Ġmow": 6978,
      "Ġmand": 6979,
      "Ġmild": 6980,
      "Ġmult": 6981,
      "Ġmamm": 6982,
      "Ġtherm": 6983,
      "Ġber": 6984,
      "Ġbent": 6985,
      "Ġbald": 6986,
      "Ġcou": 6987,
      "Ġfee": 6988,
      "Ġfart": 6989,
      "Ġfest": 6990,
      "Ġlid": 6991,
      "Ġloo": 6992,
      "Ġlink": 6993,
      "ller": 6994,
      "lley": 6995,
      "Ġheating": 6996,
      "Ġnails": 6997,
      "Ġgri": 6998,
      "Ġgall": 6999,
      "enic": 7000,
      "Ġped": 7001,
      "Ġpages": 7002,
      "Ġhives": 7003,
      "asm": 7004,
      "aser": 7005,
      "Ġdove": 7006,
      "mester": 7007,
      "atic": 7008,
      "stand": 7009,
      "Ġance": 7010,
      "Ġreci": 7011,
      "Ġrebe": 7012,
      "Ġforces": 7013,
      "Ġwhatso": 7014,
      "sever": 7015,
      "Ġgoat": 7016,
      "Ġknit": 7017,
      "roken": 7018,
      "Ġshelter": 7019,
      "hern": 7020,
      "Ġjet": 7021,
      "Ġsued": 7022,
      "Ġatomic": 7023,
      "Ġrats": 7024,
      "Ġalleg": 7025,
      "iracy": 7026,
      "Ġtiger": 7027,
      "Ġtigers": 7028,
      "Ġcoc": 7029,
      "Ġcock": 7030,
      "Ġtrace": 7031,
      "Ġtraged": 7032,
      "Ġali": 7033,
      "Ġleap": 7034,
      "Ġoutra": 7035,
      "Ġmarath": 7036,
      "Ġplus": 7037,
      "Ġcausing": 7038,
      "Ġdemo": 7039,
      "Ġhelmet": 7040,
      "ands": 7041,
      "ieving": 7042,
      "Ġseeds": 7043,
      "Ġsealed": 7044,
      "Ġsemester": 7045,
      "Ġchoos": 7046,
      "Ġchips": 7047,
      "ambitious": 7048,
      "Ġproved": 7049,
      "Ġripe": 7050,
      "Ġmosc": 7051,
      "Ġcarries": 7052,
      "Ġpoints": 7053,
      "Ġwrap": 7054,
      "ighed": 7055,
      "Ġclum": 7056,
      "Ġhomeless": 7057,
      "Ġvul": 7058,
      "Ġspag": 7059,
      "Ġunknown": 7060,
      "Ġunambitious": 7061,
      "Ġoffensive": 7062,
      "Ġprejud": 7063,
      "Ġfeared": 7064,
      "Ġfellow": 7065,
      "Ġfema": 7066,
      "boy": 7067,
      "Ġbroom": 7068,
      "Ġbrick": 7069,
      "Ġdrastic": 7070,
      "Ġunderw": 7071,
      "Ġacid": 7072,
      "Ġcompos": 7073,
      "Ġharsh": 7074,
      "olve": 7075,
      "Ġovertime": 7076,
      "Ġoverwhe": 7077,
      "Ġdisney": 7078,
      "Ġschol": 7079,
      "Ġhandles": 7080,
      "Ġexpose": 7081,
      "Ġexpired": 7082,
      "Ġblink": 7083,
      "Ġblouse": 7084,
      "Ġblush": 7085,
      "angle": 7086,
      "Ġhurric": 7087,
      "Ġscan": 7088,
      "Ġscot": 7089,
      "Ġimply": 7090,
      "Ġglance": 7091,
      "Ġflute": 7092,
      "Ġquestioning": 7093,
      "abor": 7094,
      "abul": 7095,
      "Ġresident": 7096,
      "Ġresched": 7097,
      "Ġdecre": 7098,
      "Ġdecline": 7099,
      "Ġremembering": 7100,
      "Ġchest": 7101,
      "teous": 7102,
      "Ġwaterme": 7103,
      "Ġattained": 7104,
      "Ġbeggar": 7105,
      "Ġpersever": 7106,
      "Ġcolder": 7107,
      "Ġcounted": 7108,
      "Ġdesires": 7109,
      "Ġrestr": 7110,
      "Ġrestroom": 7111,
      "Ġbroch": 7112,
      "Ġrecy": 7113,
      "Ġsits": 7114,
      "Ġrepub": 7115,
      "Ġowners": 7116,
      "Ġserver": 7117,
      "Ġvision": 7118,
      "Ġrubb": 7119,
      "Ġslammed": 7120,
      "Ġskating": 7121,
      "Ġtrusting": 7122,
      "Ġkidna": 7123,
      "Ġimports": 7124,
      "Ġdiscour": 7125,
      "Ġdiscovery": 7126,
      "Ġdiscrim": 7127,
      "Ġbiting": 7128,
      "Ġdime": 7129,
      "Ġdial": 7130,
      "Ġdipping": 7131,
      "Ġfollows": 7132,
      "asonable": 7133,
      "Ġadding": 7134,
      "Ġhighway": 7135,
      "Ġtripped": 7136,
      "lican": 7137,
      "Ġentit": 7138,
      "Ġconscience": 7139,
      "Ġexplaining": 7140,
      "shine": 7141,
      "ological": 7142,
      "Ġdepos": 7143,
      "Ġregion": 7144,
      "Ġsentenced": 7145,
      "Ġsnows": 7146,
      "Ġinfuri": 7147,
      "Ġterrit": 7148,
      "Ġcatching": 7149,
      "Ġ21": 7150,
      "Ġartific": 7151,
      "iety": 7152,
      "Ġsuggestions": 7153,
      "Ġpathetic": 7154,
      "cling": 7155,
      "Ġsunlight": 7156,
      "Ġsunshine": 7157,
      "Ġcharged": 7158,
      "Ġpaperwork": 7159,
      "umption": 7160,
      "Ġworthless": 7161,
      "Ġextro": 7162,
      "Ġcourteous": 7163,
      "Ġsmelled": 7164,
      "Ġsalty": 7165,
      "Ġjoining": 7166,
      "Ġoffering": 7167,
      "Ġcolumb": 7168,
      "Ġparan": 7169,
      "Ġcalmed": 7170,
      "Ġtemples": 7171,
      "Ġtaxis": 7172,
      "Ġpopcorn": 7173,
      "check": 7174,
      "Ġbehaves": 7175,
      "Ġapproval": 7176,
      "Ġapproximately": 7177,
      "Ġreceiving": 7178,
      "Ġvolley": 7179,
      "Ġsyn": 7180,
      "Ġfairy": 7181,
      "Ġgifted": 7182,
      "Ġfreak": 7183,
      "Ġfreaked": 7184,
      "Ġsurvival": 7185,
      "Ġshops": 7186,
      "Ġurban": 7187,
      "Ġgradually": 7188,
      "Ġvolcan": 7189,
      "cope": 7190,
      "Ġmahj": 7191,
      "Ġdependent": 7192,
      "Ġelectron": 7193,
      "Ġleading": 7194,
      "Ġfeeds": 7195,
      "Ġeighty": 7196,
      "Ġforgiveness": 7197,
      "Ġevident": 7198,
      "Ġdrawing": 7199,
      "Ġproduction": 7200,
      "Ġladder": 7201,
      "Ġfruits": 7202,
      "Ġdetailed": 7203,
      "raph": 7204,
      "Ġpeacefully": 7205,
      "Ġseafood": 7206,
      "Ġappointments": 7207,
      "minute": 7208,
      "Ġevents": 7209,
      "Ġinvestment": 7210,
      "Ġobjected": 7211,
      "Ġjudgement": 7212,
      "Ġsuspected": 7213,
      "Ġinterrupting": 7214,
      "Ġmajors": 7215,
      "Ġwisely": 7216,
      "Ġdespises": 7217,
      "Ġweakness": 7218,
      "Ġexamples": 7219,
      "Ġcollection": 7220,
      "Ġdisgrace": 7221,
      "Ġexpression": 7222,
      "Ġeconomics": 7223,
      "Ġcompete": 7224,
      "lights": 7225,
      "Ġ40": 7226,
      "Ġintentionally": 7227,
      "Ġsuspicion": 7228,
      "Ġfashionable": 7229,
      "Ġlimits": 7230,
      "Ġtricky": 7231,
      "Ġmasterpiece": 7232,
      "Ġtiming": 7233,
      "Ġtowels": 7234,
      "Ġmainly": 7235,
      "Ġwhisper": 7236,
      "Ġnegotiate": 7237,
      "Ġpleasantly": 7238,
      "Ġsympathetic": 7239,
      "Ġreservations": 7240,
      "Ġconcluded": 7241,
      "Ġphotographer": 7242,
      "Ġphysically": 7243,
      "Ġdeclined": 7244,
      "Ġinclude": 7245,
      "Ġgaining": 7246,
      "Ġrussia": 7247,
      "Ġscrewed": 7248,
      "Ġsurround": 7249,
      "Ġwitnessed": 7250,
      "Ġtorn": 7251,
      "Ġsummit": 7252,
      "Ġsincerely": 7253,
      "Ġbiased": 7254,
      "Ġpraised": 7255,
      "Ġconclusions": 7256,
      "Ġmaterials": 7257,
      "Ġpredictable": 7258,
      "Ġdigging": 7259,
      "Ġapplaud": 7260,
      "Ġparticipated": 7261,
      "Ġinfluential": 7262,
      "Ġbarefo": 7263,
      "Ġgreece": 7264,
      "Ġportug": 7265,
      "Ġvoting": 7266,
      "Ġvotes": 7267,
      "loaded": 7268,
      "Ġtales": 7269,
      "Ġfussy": 7270,
      "Ġsurrendered": 7271,
      "Ġcheeks": 7272,
      "Ġhonor": 7273,
      "Ġstretched": 7274,
      "Ġfrustrating": 7275,
      "Ġuniforms": 7276,
      "Ġdisposal": 7277,
      "Ġchewed": 7278,
      "Ġachievement": 7279,
      "Ġstressful": 7280,
      "Ġsailor": 7281,
      "Ġprinciples": 7282,
      "Ġtraditional": 7283,
      "Ġathletic": 7284,
      "ground": 7285,
      "Ġtitle": 7286,
      "Ġintrigued": 7287,
      "Ġindeed": 7288,
      "Ġrenew": 7289,
      "Ġunreasonable": 7290,
      "Ġguarantee": 7291,
      "Ġopportunities": 7292,
      "Ġdolphin": 7293,
      "Ġaspir": 7294,
      "Ġtroubled": 7295,
      "Ġsociety": 7296,
      "Ġquarrel": 7297,
      "Ġarabic": 7298,
      "Ġadjust": 7299,
      "Ġdissatisfied": 7300,
      "Ġdisrespect": 7301,
      "Ġcontrolled": 7302,
      "Ġrapidly": 7303,
      "hetti": 7304,
      "Ġthrilled": 7305,
      "Ġunbelievable": 7306,
      "Ġflinching": 7307,
      "Ġrugby": 7308,
      "Ġreluctant": 7309,
      "Ġrefreshing": 7310,
      "Ġcorpor": 7311,
      "Ġsleeve": 7312,
      "Ġluxury": 7313,
      "Ġlipstick": 7314,
      "Ġmansion": 7315,
      "Ġconduct": 7316,
      "Ġprocedure": 7317,
      "Ġheartbroken": 7318,
      "Ġtissue": 7319,
      "Ġnauseous": 7320,
      "orers": 7321,
      "Ġflirting": 7322,
      "Ġprimary": 7323,
      "Ġassertive": 7324,
      "Ġprophecy": 7325,
      "Ġbarbecue": 7326,
      "Ġeyebrows": 7327,
      "Ġfingernails": 7328,
      "Ġinconvenience": 7329,
      "Ġsarcastic": 7330,
      "Ġdinosaurs": 7331,
      "build": 7332,
      "Ġaugust": 7333,
      "Ġfarther": 7334,
      "Ġancest": 7335,
      "Ġrecipe": 7336,
      "Ġrebels": 7337,
      "Ġwhatsoever": 7338,
      "Ġmoscow": 7339,
      "Ġspaghetti": 7340,
      "Ġfemale": 7341,
      "Ġoverwhel": 7342,
      "Ġdisneyland": 7343,
      "Ġhurricane": 7344,
      "Ġkidnapped": 7345,
      "Ġdiscrimination": 7346,
      "Ġartificial": 7347,
      "Ġcolumbus": 7348,
      "Ġvolleyball": 7349,
      "Ġmahjong": 7350,
      "Ġbarefoot": 7351,
      "14": 7352,
      "bl": 7353,
      "bone": 7354,
      "bul": 7355,
      "back": 7356,
      "cd": 7357,
      "cause": 7358,
      "cond": 7359,
      "cabul": 7360,
      "dge": 7361,
      "dream": 7362,
      "eavor": 7363,
      "five": 7364,
      "fire": 7365,
      "fying": 7366,
      "gir": 7367,
      "gment": 7368,
      "gger": 7369,
      "hill": 7370,
      "jo": 7371,
      "kind": 7372,
      "kirts": 7373,
      "lor": 7374,
      "mers": 7375,
      "nate": 7376,
      "name": 7377,
      "ointed": 7378,
      "ollen": 7379,
      "pes": 7380,
      "rot": 7381,
      "sized": 7382,
      "uc": 7383,
      "ument": 7384,
      "uished": 7385,
      "ube": 7386,
      "wr": 7387,
      "wat": 7388,
      "zart": 7389,
      "zard": 7390,
      "Ġii": 7391,
      "Ġaven": 7392,
      "Ġwages": 7393,
      "Ġwolves": 7394,
      "Ġsorts": 7395,
      "Ġyach": 7396,
      "Ġtons": 7397,
      "Ġdim": 7398,
      "Ġdna": 7399,
      "Ġmice": 7400,
      "oning": 7401,
      "onies": 7402,
      "Ġbore": 7403,
      "Ġbars": 7404,
      "Ġbacter": 7405,
      "Ġcured": 7406,
      "Ġcub": 7407,
      "Ġfry": 7408,
      "Ġfier": 7409,
      "Ġly": 7410,
      "anes": 7411,
      "anic": 7412,
      "anuts": 7413,
      "anji": 7414,
      "isure": 7415,
      "orious": 7416,
      "Ġnick": 7417,
      "Ġnaught": 7418,
      "Ġgest": 7419,
      "Ġgam": 7420,
      "Ġgaz": 7421,
      "Ġguts": 7422,
      "Ġpee": 7423,
      "Ġpess": 7424,
      "Ġhay": 7425,
      "Ġhack": 7426,
      "Ġhacks": 7427,
      "Ġhairsty": 7428,
      "Ġhil": 7429,
      "Ġhiring": 7430,
      "Ġthread": 7431,
      "Ġoath": 7432,
      "arried": 7433,
      "arians": 7434,
      "arium": 7435,
      "Ġdogh": 7436,
      "Ġdope": 7437,
      "itution": 7438,
      "otic": 7439,
      "othes": 7440,
      "sty": 7441,
      "stit": 7442,
      "stop": 7443,
      "keep": 7444,
      "Ġegy": 7445,
      "Ġmeter": 7446,
      "Ġdonut": 7447,
      "etic": 7448,
      "Ġrewr": 7449,
      "Ġufo": 7450,
      "Ġsteel": 7451,
      "Ġforms": 7452,
      "icher": 7453,
      "icop": 7454,
      "icket": 7455,
      "Ġkite": 7456,
      "Ġkanji": 7457,
      "Ġcane": 7458,
      "rial": 7459,
      "rily": 7460,
      "child": 7461,
      "Ġknot": 7462,
      "ading": 7463,
      "Ġwithd": 7464,
      "Ġjes": 7465,
      "Ġjaw": 7466,
      "Ġjung": 7467,
      "allel": 7468,
      "illa": 7469,
      "acts": 7470,
      "acles": 7471,
      "Ġshi": 7472,
      "utton": 7473,
      "Ġrack": 7474,
      "Ġrage": 7475,
      "Ġrates": 7476,
      "Ġricher": 7477,
      "Ġalley": 7478,
      "Ġteles": 7479,
      "Ġteasing": 7480,
      "Ġabst": 7481,
      "Ġabhor": 7482,
      "aine": 7483,
      "ainer": 7484,
      "Ġsomehow": 7485,
      "Ġcope": 7486,
      "Ġworm": 7487,
      "enda": 7488,
      "endar": 7489,
      "urbs": 7490,
      "ctic": 7491,
      "ctive": 7492,
      "Ġleather": 7493,
      "Ġleisure": 7494,
      "Ġoutf": 7495,
      "Ġmargar": 7496,
      "Ġupd": 7497,
      "Ġupload": 7498,
      "Ġneedle": 7499,
      "Ġcafet": 7500,
      "uls": 7501,
      "ulpt": 7502,
      "aki": 7503,
      "Ġdeer": 7504,
      "ategy": 7505,
      "quate": 7506,
      "Ġhelicop": 7507,
      "Ġtool": 7508,
      "fel": 7509,
      "few": 7510,
      "Ġseas": 7511,
      "aves": 7512,
      "Ġconqu": 7513,
      "Ġcontemp": 7514,
      "Ġconvey": 7515,
      "Ġagenda": 7516,
      "aming": 7517,
      "Ġquant": 7518,
      "Ġripped": 7519,
      "Ġmozart": 7520,
      "Ġpole": 7521,
      "Ġarcha": 7522,
      "Ġclerk": 7523,
      "Ġspider": 7524,
      "Ġunin": 7525,
      "Ġunac": 7526,
      "Ġunmar": 7527,
      "Ġprem": 7528,
      "itement": 7529,
      "Ġholes": 7530,
      "ittens": 7531,
      "Ġbooked": 7532,
      "Ġbrace": 7533,
      "Ġbushes": 7534,
      "Ġpeanuts": 7535,
      "Ġadorable": 7536,
      "Ġbackyard": 7537,
      "Ġbackpack": 7538,
      "Ġdaydream": 7539,
      "Ġbelieving": 7540,
      "Ġbump": 7541,
      "Ġbudd": 7542,
      "Ġmustache": 7543,
      "Ġache": 7544,
      "Ġcallous": 7545,
      "Ġtwent": 7546,
      "Ġhousework": 7547,
      "Ġwaist": 7548,
      "Ġdism": 7549,
      "Ġdisor": 7550,
      "Ġdispl": 7551,
      "Ġappointed": 7552,
      "fted": 7553,
      "Ġhandcu": 7554,
      "Ġhandbag": 7555,
      "Ġexposed": 7556,
      "Ġdowns": 7557,
      "Ġpartly": 7558,
      "Ġblank": 7559,
      "Ġblaming": 7560,
      "Ġswollen": 7561,
      "Ġscr": 7562,
      "Ġscrap": 7563,
      "Ġscandal": 7564,
      "Ġsculpt": 7565,
      "Ġglob": 7566,
      "Ġfled": 7567,
      "Ġflour": 7568,
      "Ġflavor": 7569,
      "Ġaccus": 7570,
      "Ġshowers": 7571,
      "Ġcattle": 7572,
      "ability": 7573,
      "Ġresent": 7574,
      "Ġresume": 7575,
      "Ġhats": 7576,
      "Ġadvanced": 7577,
      "Ġminds": 7578,
      "Ġfunction": 7579,
      "Ġstrategy": 7580,
      "Ġdriven": 7581,
      "Ġrainbow": 7582,
      "Ġfounded": 7583,
      "Ġwatering": 7584,
      "Ġenglishman": 7585,
      "Ġmonument": 7586,
      "Ġattributed": 7587,
      "Ġperman": 7588,
      "Ġeasiest": 7589,
      "Ġactual": 7590,
      "ogenic": 7591,
      "Ġrunner": 7592,
      "Ġcontribut": 7593,
      "Ġcontributed": 7594,
      "Ġpaycheck": 7595,
      "beat": 7596,
      "because": 7597,
      "Ġgreater": 7598,
      "Ġfract": 7599,
      "Ġhourly": 7600,
      "Ġresting": 7601,
      "Ġrestart": 7602,
      "Ġrecess": 7603,
      "Ġrecovery": 7604,
      "Ġchap": 7605,
      "Ġchains": 7606,
      "Ġchased": 7607,
      "Ġwinds": 7608,
      "Ġrepay": 7609,
      "Ġrepairs": 7610,
      "Ġinvaded": 7611,
      "ficial": 7612,
      "ipment": 7613,
      "Ġarrival": 7614,
      "Ġsnickering": 7615,
      "Ġtrustworthy": 7616,
      "Ġlightly": 7617,
      "Ġdisconnect": 7618,
      "Ġrelieve": 7619,
      "Ġrelied": 7620,
      "Ġendeavor": 7621,
      "Ġbites": 7622,
      "Ġdigest": 7623,
      "Ġexcitement": 7624,
      "Ġhunter": 7625,
      "Ġnumb": 7626,
      "works": 7627,
      "Ġcrunch": 7628,
      "Ġcrank": 7629,
      "Ġcricket": 7630,
      "Ġfishy": 7631,
      "Ġtrim": 7632,
      "Ġtries": 7633,
      "Ġtrigger": 7634,
      "Ġfreezing": 7635,
      "Ġremarried": 7636,
      "Ġdreamer": 7637,
      "Ġheadlights": 7638,
      "Ġregained": 7639,
      "udes": 7640,
      "Ġconfusing": 7641,
      "Ġconfron": 7642,
      "Ġcommission": 7643,
      "Ġthroughout": 7644,
      "brainer": 7645,
      "Ġ23": 7646,
      "Ġcompleted": 7647,
      "Ġshortage": 7648,
      "Ġmedit": 7649,
      "Ġartists": 7650,
      "Ġpresented": 7651,
      "Ġpointless": 7652,
      "Ġgreasy": 7653,
      "Ġpatrol": 7654,
      "Ġpattern": 7655,
      "Ġfails": 7656,
      "Ġhoriz": 7657,
      "Ġcorrupt": 7658,
      "Ġgrandchild": 7659,
      "Ġassign": 7660,
      "Ġdrops": 7661,
      "Ġempha": 7662,
      "rup": 7663,
      "Ġinsulting": 7664,
      "Ġmoves": 7665,
      "Ġdeluding": 7666,
      "Ġvacations": 7667,
      "Ġcourtes": 7668,
      "Ġnecessity": 7669,
      "Ġtreaty": 7670,
      "Ġcameras": 7671,
      "Ġsolid": 7672,
      "Ġsolving": 7673,
      "Ġparag": 7674,
      "Ġparrot": 7675,
      "Ġparallel": 7676,
      "Ġcalendar": 7677,
      "Ġfootprints": 7678,
      "Ġtempting": 7679,
      "Ġhumans": 7680,
      "Ġsuburbs": 7681,
      "Ġindivid": 7682,
      "Ġblames": 7683,
      "Ġradi": 7684,
      "Ġphotogenic": 7685,
      "Ġbanks": 7686,
      "Ġmachines": 7687,
      "Ġvocabul": 7688,
      "Ġfigures": 7689,
      "Ġcorrectly": 7690,
      "Ġproposed": 7691,
      "Ġrespectful": 7692,
      "Ġzeal": 7693,
      "Ġcouples": 7694,
      "Ġraising": 7695,
      "Ġpurcha": 7696,
      "Ġweirdest": 7697,
      "Ġbelonged": 7698,
      "Ġsimpler": 7699,
      "Ġconcerns": 7700,
      "Ġmagician": 7701,
      "Ġannivers": 7702,
      "Ġurge": 7703,
      "Ġspecialty": 7704,
      "Ġunique": 7705,
      "Ġ194": 7706,
      "ounter": 7707,
      "Ġtopics": 7708,
      "ilingual": 7709,
      "Ġbury": 7710,
      "Ġburnt": 7711,
      "Ġburden": 7712,
      "Ġeditor": 7713,
      "Ġjudged": 7714,
      "Ġcopied": 7715,
      "Ġstuffed": 7716,
      "Ġirs": 7717,
      "Ġcurse": 7718,
      "Ġcurfew": 7719,
      "Ġpossess": 7720,
      "Ġappearances": 7721,
      "Ġgenerations": 7722,
      "oids": 7723,
      "Ġpressing": 7724,
      "Ġprotected": 7725,
      "Ġballs": 7726,
      "Ġsweetheart": 7727,
      "Ġcowards": 7728,
      "Ġbeatles": 7729,
      "Ġvegetarians": 7730,
      "Ġsticky": 7731,
      "Ġpeaceful": 7732,
      "Ġexplanations": 7733,
      "Ġuniversal": 7734,
      "Ġdemanding": 7735,
      "Ġcentral": 7736,
      "Ġpotential": 7737,
      "Ġsubjects": 7738,
      "Ġnapole": 7739,
      "Ġexercising": 7740,
      "Ġcontacted": 7741,
      "Ġchocolates": 7742,
      "Ġlowered": 7743,
      "Ġsteer": 7744,
      "Ġsteam": 7745,
      "Ġdevil": 7746,
      "Ġmajored": 7747,
      "Ġautom": 7748,
      "Ġdespised": 7749,
      "Ġequals": 7750,
      "Ġequipment": 7751,
      "Ġbanjo": 7752,
      "Ġobeyed": 7753,
      "Ġgolfer": 7754,
      "Ġemployee": 7755,
      "matic": 7756,
      "Ġbene": 7757,
      "Ġacquaint": 7758,
      "Ġhypo": 7759,
      "ography": 7760,
      "Ġeducated": 7761,
      "Ġprofession": 7762,
      "Ġslightest": 7763,
      "Ġstatement": 7764,
      "Ġintentions": 7765,
      "Ġdishonest": 7766,
      "Ġnara": 7767,
      "Ġpsyched": 7768,
      "Ġreplied": 7769,
      "Ġissues": 7770,
      "Ġcriminals": 7771,
      "Ġmelody": 7772,
      "Ġdeceive": 7773,
      "Ġdeceased": 7774,
      "Ġwhiskey": 7775,
      "Ġprograms": 7776,
      "Ġprogrammer": 7777,
      "Ġastrol": 7778,
      "Ġencounter": 7779,
      "Ġseparately": 7780,
      "Ġresigned": 7781,
      "Ġresignation": 7782,
      "Ġindustrial": 7783,
      "Ġinvestigating": 7784,
      "Ġinflation": 7785,
      "Ġassuming": 7786,
      "Ġbounds": 7787,
      "Ġconvenience": 7788,
      "Ġweighs": 7789,
      "Ġfalsely": 7790,
      "Ġracial": 7791,
      "Ġbitterly": 7792,
      "Ġnarrowly": 7793,
      "Ġcongratulate": 7794,
      "Ġheights": 7795,
      "Ġnonstop": 7796,
      "Ġcombination": 7797,
      "chair": 7798,
      "Ġneatly": 7799,
      "Ġvanilla": 7800,
      "Ġregarded": 7801,
      "Ġflooded": 7802,
      "Ġtypist": 7803,
      "Ġwounds": 7804,
      "Ġshouted": 7805,
      "Ġrailway": 7806,
      "Ġunbutton": 7807,
      "Ġrecovering": 7808,
      "Ġelephant": 7809,
      "Ġidentity": 7810,
      "Ġunemployment": 7811,
      "Ġdislikes": 7812,
      "Ġtechnical": 7813,
      "Ġwhistle": 7814,
      "Ġstruggle": 7815,
      "Ġobligation": 7816,
      "ocated": 7817,
      "Ġgathering": 7818,
      "Ġconceited": 7819,
      "Ġdiamonds": 7820,
      "Ġcounter": 7821,
      "Ġblankets": 7822,
      "Ġfrustrated": 7823,
      "Ġsmoothly": 7824,
      "Ġblackmailing": 7825,
      "Ġgroggy": 7826,
      "Ġkorea": 7827,
      "Ġbruised": 7828,
      "Ġconsciousness": 7829,
      "Ġgrandparents": 7830,
      "Ġhypothes": 7831,
      "Ġrevolution": 7832,
      "Ġbullets": 7833,
      "Ġcynical": 7834,
      "Ġcycling": 7835,
      "Ġactivity": 7836,
      "Ġtitanic": 7837,
      "Ġsenator": 7838,
      "Ġsenior": 7839,
      "Ġpipe": 7840,
      "Ġpacific": 7841,
      "Ġappealed": 7842,
      "Ġearrings": 7843,
      "Ġdiplomatic": 7844,
      "Ġanticipated": 7845,
      "Ġangrily": 7846,
      "Ġreaction": 7847,
      "Ġdelete": 7848,
      "Ġofficial": 7849,
      "Ġslippers": 7850,
      "Ġslippery": 7851,
      "Ġdemonstration": 7852,
      "Ġcreeps": 7853,
      "Ġolympic": 7854,
      "Ġolympics": 7855,
      "Ġankle": 7856,
      "Ġanaly": 7857,
      "Ġkarate": 7858,
      "Ġrobots": 7859,
      "Ġshadow": 7860,
      "Ġirritating": 7861,
      "Ġcandidate": 7862,
      "Ġadvertisement": 7863,
      "force": 7864,
      "Ġdictator": 7865,
      "Ġmutual": 7866,
      "Ġfolks": 7867,
      "iterate": 7868,
      "Ġstalling": 7869,
      "Ġstinks": 7870,
      "Ġextinguished": 7871,
      "Ġvirus": 7872,
      "Ġblossoms": 7873,
      "Ġoccupied": 7874,
      "Ġinexp": 7875,
      "thank": 7876,
      "Ġtossed": 7877,
      "Ġfulfill": 7878,
      "Ġolives": 7879,
      "Ġconspiracy": 7880,
      "Ġadministration": 7881,
      "Ġsqueeze": 7882,
      "Ġsquirrel": 7883,
      "Ġresembles": 7884,
      "Ġwestern": 7885,
      "Ġreveal": 7886,
      "Ġultimate": 7887,
      "Ġstabbed": 7888,
      "Ġabolished": 7889,
      "Ġexhibition": 7890,
      "Ġevacuate": 7891,
      "Ġrefugees": 7892,
      "Ġacknowledged": 7893,
      "Ġinappropriate": 7894,
      "Ġthermometer": 7895,
      "Ġfestival": 7896,
      "Ġcocaine": 7897,
      "Ġtragedy": 7898,
      "Ġaliens": 7899,
      "Ġmarathon": 7900,
      "Ġchoosing": 7901,
      "Ġclumsy": 7902,
      "Ġextroverted": 7903,
      "Ġparanoid": 7904,
      "Ġwhispering": 7905,
      "Ġaspirin": 7906,
      "Ġbacteria": 7907,
      "Ġfierce": 7908,
      "Ġnaughty": 7909,
      "Ġgamble": 7910,
      "Ġhacksaw": 7911,
      "Ġhairstyle": 7912,
      "Ġhilton": 7913,
      "Ġdoghouse": 7914,
      "Ġegypt": 7915,
      "Ġjungle": 7916,
      "Ġtelescope": 7917,
      "Ġmargarine": 7918,
      "Ġcafeteria": 7919,
      "Ġhelicopter": 7920,
      "Ġarchae": 7921,
      "Ġunmarried": 7922,
      "Ġbracelet": 7923,
      "Ġpermanent": 7924,
      "Ġconfronted": 7925,
      "Ġcourtesy": 7926,
      "Ġvocabulary": 7927,
      "Ġanniversary": 7928,
      "Ġnapoleon": 7929,
      "Ġunbuttoned": 7930,
      "Ġhypothesis": 7931,
      "%.": 7932,
      "ale": 7933,
      "bat": 7934,
      "bay": 7935,
      "bur": 7936,
      "coming": 7937,
      "da": 7938,
      "ders": 7939,
      "down": 7940,
      "dress": 7941,
      "fl": 7942,
      "fy": 7943,
      "fall": 7944,
      "face": 7945,
      "ford": 7946,
      "gun": 7947,
      "ique": 7948,
      "live": 7949,
      "my": 7950,
      "mated": 7951,
      "pan": 7952,
      "ront": 7953,
      "rants": 7954,
      "ser": 7955,
      "sure": 7956,
      "tress": 7957,
      "tied": 7958,
      "uk": 7959,
      "uan": 7960,
      "ups": 7961,
      "ufact": 7962,
      "win": 7963,
      "war": 7964,
      "who": 7965,
      "Ġvent": 7966,
      "Ġtrom": 7967,
      "Ġtag": 7968,
      "Ġtide": 7969,
      "Ġtape": 7970,
      "Ġtails": 7971,
      "Ġicy": 7972,
      "hen": 7973,
      "Ġaust": 7974,
      "Ġaqu": 7975,
      "Ġwag": 7976,
      "Ġwaking": 7977,
      "rels": 7978,
      "rehens": 7979,
      "Ġsout": 7980,
      "Ġsorrow": 7981,
      "Ġsigh": 7982,
      "Ġsixt": 7983,
      "Ġtoll": 7984,
      "ino": 7985,
      "inse": 7986,
      "inable": 7987,
      "inies": 7988,
      "inations": 7989,
      "inawa": 7990,
      "Ġdar": 7991,
      "Ġdign": 7992,
      "Ġdense": 7993,
      "Ġdirt": 7994,
      "Ġditch": 7995,
      "Ġmask": 7996,
      "Ġtheft": 7997,
      "Ġthesis": 7998,
      "onald": 7999
    },
    "merges": [
      [
        "Ġ",
        "t"
      ],
      [
        "Ġ",
        "i"
      ],
      [
        "h",
        "e"
      ],
      [
        "o",
        "u"
      ],
      [
        "Ġ",
        "a"
      ],
      [
        "Ġ",
        "w"
      ],
      [
        "r",
        "e"
      ],
      [
        "Ġ",
        "s"
      ],
      [
        "Ġ",
        "y"
      ],
      [
        "Ġt",
        "o"
      ],
      [
        "Ġy",
        "ou"
      ],
      [
        "h",
        "a"
      ],
      [
        "i",
        "n"
      ],
      [
        "Ġ",
        "d"
      ],
      [
        "Ġ",
        "m"
      ],
      [
        "Ġt",
        "he"
      ],
      [
        "o",
        "n"
      ],
      [
        "Ġ",
        "b"
      ],
      [
        "v",
        "e"
      ],
      [
        "Ġ",
        "c"
      ],
      [
        "Ġ",
        "f"
      ],
      [
        "Ġ",
        "l"
      ],
      [
        "in",
        "g"
      ],
      [
        "a",
        "n"
      ],
      [
        "e",
        "d"
      ],
      [
        "i",
        "s"
      ],
      [
        "l",
        "l"
      ],
      [
        "Ġ",
        "he"
      ],
      [
        "o",
        "r"
      ],
      [
        "ha",
        "t"
      ],
      [
        "Ġ",
        "n"
      ],
      [
        "Ġ",
        "g"
      ],
      [
        "e",
        "n"
      ],
      [
        "Ġ",
        "p"
      ],
      [
        "'",
        "t"
      ],
      [
        "e",
        "r"
      ],
      [
        "Ġ",
        "ha"
      ],
      [
        "Ġ",
        "h"
      ],
      [
        "Ġt",
        "h"
      ],
      [
        "Ġ",
        "o"
      ],
      [
        "a",
        "s"
      ],
      [
        "o",
        "w"
      ],
      [
        "Ġi",
        "s"
      ],
      [
        "a",
        "r"
      ],
      [
        "Ġd",
        "o"
      ],
      [
        "Ġb",
        "e"
      ],
      [
        "m",
        "e"
      ],
      [
        "i",
        "t"
      ],
      [
        "o",
        "t"
      ],
      [
        "Ġw",
        "e"
      ],
      [
        "a",
        "t"
      ],
      [
        "Ġto",
        "m"
      ],
      [
        "Ġi",
        "t"
      ],
      [
        "s",
        "t"
      ],
      [
        "Ġt",
        "hat"
      ],
      [
        "Ġi",
        "n"
      ],
      [
        "l",
        "e"
      ],
      [
        "k",
        "e"
      ],
      [
        "a",
        "y"
      ],
      [
        "i",
        "d"
      ],
      [
        "Ġo",
        "f"
      ],
      [
        "Ġ",
        "e"
      ],
      [
        "l",
        "d"
      ],
      [
        "Ġm",
        "e"
      ],
      [
        "'",
        "s"
      ],
      [
        "Ġa",
        "n"
      ],
      [
        "ve",
        "r"
      ],
      [
        "o",
        "o"
      ],
      [
        "Ġd",
        "on"
      ],
      [
        "Ġth",
        "is"
      ],
      [
        "e",
        "t"
      ],
      [
        "Ġha",
        "ve"
      ],
      [
        "Ġw",
        "as"
      ],
      [
        "Ġ",
        "on"
      ],
      [
        "Ġ",
        "re"
      ],
      [
        "g",
        "h"
      ],
      [
        "Ġ",
        "u"
      ],
      [
        "Ġl",
        "i"
      ],
      [
        "Ġs",
        "t"
      ],
      [
        "e",
        "s"
      ],
      [
        "Ġf",
        "or"
      ],
      [
        "i",
        "c"
      ],
      [
        "Ġ",
        "k"
      ],
      [
        "an",
        "t"
      ],
      [
        "Ġw",
        "hat"
      ],
      [
        "Ġm",
        "y"
      ],
      [
        "o",
        "me"
      ],
      [
        "Ġc",
        "an"
      ],
      [
        "Ġa",
        "re"
      ],
      [
        "Ġyou",
        "r"
      ],
      [
        "ou",
        "ld"
      ],
      [
        "s",
        "e"
      ],
      [
        "Ġw",
        "ant"
      ],
      [
        "r",
        "i"
      ],
      [
        "gh",
        "t"
      ],
      [
        "Ġn",
        "e"
      ],
      [
        "'",
        "m"
      ],
      [
        "Ġd",
        "id"
      ],
      [
        "Ġn",
        "ot"
      ],
      [
        "ou",
        "t"
      ],
      [
        "c",
        "h"
      ],
      [
        "Ġg",
        "o"
      ],
      [
        "a",
        "l"
      ],
      [
        "Ġk",
        "n"
      ],
      [
        "r",
        "o"
      ],
      [
        "a",
        "d"
      ],
      [
        "Ġs",
        "he"
      ],
      [
        "'",
        "re"
      ],
      [
        "Ġw",
        "h"
      ],
      [
        "Ġkn",
        "ow"
      ],
      [
        "l",
        "y"
      ],
      [
        "en",
        "t"
      ],
      [
        "ver",
        "y"
      ],
      [
        "Ġli",
        "ke"
      ],
      [
        "it",
        "h"
      ],
      [
        "t",
        "h"
      ],
      [
        "Ġw",
        "ith"
      ],
      [
        "he",
        "r"
      ],
      [
        "i",
        "m"
      ],
      [
        "p",
        "p"
      ],
      [
        "Ġ",
        "j"
      ],
      [
        "a",
        "ll"
      ],
      [
        "on",
        "e"
      ],
      [
        "e",
        "e"
      ],
      [
        "Ġa",
        "s"
      ],
      [
        "Ġs",
        "u"
      ],
      [
        "Ġa",
        "t"
      ],
      [
        "i",
        "on"
      ],
      [
        "i",
        "ll"
      ],
      [
        "in",
        "k"
      ],
      [
        "a",
        "c"
      ],
      [
        "Ġs",
        "h"
      ],
      [
        "a",
        "ke"
      ],
      [
        "Ġthe",
        "y"
      ],
      [
        "u",
        "t"
      ],
      [
        "Ġ",
        "r"
      ],
      [
        "u",
        "st"
      ],
      [
        "Ġa",
        "ll"
      ],
      [
        "Ġh",
        "is"
      ],
      [
        "oo",
        "k"
      ],
      [
        "i",
        "r"
      ],
      [
        "Ġt",
        "i"
      ],
      [
        "t",
        "er"
      ],
      [
        "Ġt",
        "e"
      ],
      [
        "Ġa",
        "b"
      ],
      [
        "Ġw",
        "he"
      ],
      [
        "a",
        "in"
      ],
      [
        "Ġh",
        "ow"
      ],
      [
        "n",
        "d"
      ],
      [
        "Ġs",
        "ome"
      ],
      [
        "Ġth",
        "ink"
      ],
      [
        "Ġh",
        "im"
      ],
      [
        "Ġan",
        "y"
      ],
      [
        "Ġc",
        "o"
      ],
      [
        "Ġt",
        "r"
      ],
      [
        "o",
        "re"
      ],
      [
        "Ġw",
        "or"
      ],
      [
        "th",
        "ing"
      ],
      [
        "c",
        "e"
      ],
      [
        "Ġs",
        "o"
      ],
      [
        "Ġthe",
        "re"
      ],
      [
        "en",
        "d"
      ],
      [
        "Ġg",
        "et"
      ],
      [
        "'",
        "ll"
      ],
      [
        "Ġti",
        "me"
      ],
      [
        "Ġa",
        "l"
      ],
      [
        "Ġn",
        "o"
      ],
      [
        "Ġan",
        "d"
      ],
      [
        "oo",
        "d"
      ],
      [
        "Ġab",
        "out"
      ],
      [
        "p",
        "e"
      ],
      [
        "u",
        "r"
      ],
      [
        "'",
        "ve"
      ],
      [
        "Ġhe",
        "re"
      ],
      [
        "c",
        "t"
      ],
      [
        "Ġl",
        "e"
      ],
      [
        "Ġ",
        "very"
      ],
      [
        "Ġwe",
        "re"
      ],
      [
        "Ġs",
        "a"
      ],
      [
        "Ġs",
        "ee"
      ],
      [
        "Ġhe",
        "r"
      ],
      [
        "u",
        "s"
      ],
      [
        "ha",
        "n"
      ],
      [
        "Ġ",
        "out"
      ],
      [
        "Ġdid",
        "n"
      ],
      [
        "u",
        "n"
      ],
      [
        "Ġw",
        "ill"
      ],
      [
        "i",
        "ve"
      ],
      [
        "on",
        "g"
      ],
      [
        "in",
        "d"
      ],
      [
        "m",
        "p"
      ],
      [
        "all",
        "y"
      ],
      [
        "re",
        "d"
      ],
      [
        "Ġm",
        "ar"
      ],
      [
        "g",
        "e"
      ],
      [
        "Ġu",
        "p"
      ],
      [
        "Ġu",
        "s"
      ],
      [
        "Ġha",
        "d"
      ],
      [
        "b",
        "le"
      ],
      [
        "Ġw",
        "ould"
      ],
      [
        "Ġe",
        "very"
      ],
      [
        "Ġha",
        "pp"
      ],
      [
        "Ġe",
        "x"
      ],
      [
        "Ġi",
        "f"
      ],
      [
        "Ġp",
        "l"
      ],
      [
        "i",
        "ght"
      ],
      [
        "Ġwh",
        "y"
      ],
      [
        "Ġl",
        "o"
      ],
      [
        "Ġha",
        "s"
      ],
      [
        "Ġon",
        "e"
      ],
      [
        "Ġne",
        "ed"
      ],
      [
        "Ġj",
        "ust"
      ],
      [
        "r",
        "y"
      ],
      [
        "re",
        "n"
      ],
      [
        "Ġc",
        "a"
      ],
      [
        "Ġl",
        "ook"
      ],
      [
        "u",
        "l"
      ],
      [
        "s",
        "s"
      ],
      [
        "ro",
        "m"
      ],
      [
        "a",
        "k"
      ],
      [
        "Ġl",
        "et"
      ],
      [
        "Ġwh",
        "o"
      ],
      [
        "Ġc",
        "ould"
      ],
      [
        "o",
        "p"
      ],
      [
        "al",
        "k"
      ],
      [
        "Ġsh",
        "ould"
      ],
      [
        "as",
        "t"
      ],
      [
        "Ġgo",
        "ing"
      ],
      [
        "as",
        "e"
      ],
      [
        "i",
        "l"
      ],
      [
        "Ġd",
        "e"
      ],
      [
        "at",
        "e"
      ],
      [
        "'",
        "d"
      ],
      [
        "d",
        "ay"
      ],
      [
        "Ġg",
        "ood"
      ],
      [
        "q",
        "u"
      ],
      [
        "Ġhe",
        "l"
      ],
      [
        "Ġte",
        "ll"
      ],
      [
        "Ġhel",
        "p"
      ],
      [
        "Ġc",
        "ome"
      ],
      [
        "is",
        "t"
      ],
      [
        "an",
        "d"
      ],
      [
        "i",
        "e"
      ],
      [
        "ou",
        "r"
      ],
      [
        "Ġdo",
        "es"
      ],
      [
        "Ġto",
        "o"
      ],
      [
        "Ġ",
        "en"
      ],
      [
        "Ġmar",
        "y"
      ],
      [
        "Ġwor",
        "k"
      ],
      [
        "ar",
        "t"
      ],
      [
        "Ġp",
        "le"
      ],
      [
        "f",
        "e"
      ],
      [
        "Ġs",
        "e"
      ],
      [
        "ic",
        "e"
      ],
      [
        "Ġm",
        "an"
      ],
      [
        "Ġwhe",
        "n"
      ],
      [
        "Ġc",
        "h"
      ],
      [
        "Ġf",
        "rom"
      ],
      [
        "ou",
        "ght"
      ],
      [
        "Ġt",
        "han"
      ],
      [
        "a",
        "ve"
      ],
      [
        "Ġwhe",
        "re"
      ],
      [
        "Ġb",
        "y"
      ],
      [
        "e",
        "st"
      ],
      [
        "Ġa",
        "m"
      ],
      [
        "Ġple",
        "ase"
      ],
      [
        "Ġre",
        "ally"
      ],
      [
        "Ġt",
        "ake"
      ],
      [
        "Ġc",
        "on"
      ],
      [
        "l",
        "f"
      ],
      [
        "d",
        "y"
      ],
      [
        "ay",
        "s"
      ],
      [
        "Ġa",
        "g"
      ],
      [
        "Ġb",
        "o"
      ],
      [
        "a",
        "m"
      ],
      [
        "at",
        "ion"
      ],
      [
        "Ġp",
        "ro"
      ],
      [
        "Ġt",
        "alk"
      ],
      [
        "Ġn",
        "ow"
      ],
      [
        "is",
        "h"
      ],
      [
        "ac",
        "k"
      ],
      [
        "e",
        "p"
      ],
      [
        "ri",
        "end"
      ],
      [
        "Ġ",
        "qu"
      ],
      [
        "Ġm",
        "ake"
      ],
      [
        "Ġbe",
        "en"
      ],
      [
        "Ġne",
        "ver"
      ],
      [
        "ot",
        "her"
      ],
      [
        "Ġm",
        "ore"
      ],
      [
        "er",
        "s"
      ],
      [
        "ou",
        "s"
      ],
      [
        "Ġa",
        "f"
      ],
      [
        "Ġg",
        "ot"
      ],
      [
        "Ġ",
        "ri"
      ],
      [
        "Ġm",
        "o"
      ],
      [
        "Ġm",
        "u"
      ],
      [
        "Ġc",
        "ar"
      ],
      [
        "Ġp",
        "o"
      ],
      [
        "i",
        "f"
      ],
      [
        "c",
        "k"
      ],
      [
        "r",
        "ow"
      ],
      [
        "re",
        "e"
      ],
      [
        "Ġas",
        "k"
      ],
      [
        "Ġa",
        "r"
      ],
      [
        "Ġsome",
        "thing"
      ],
      [
        "Ġw",
        "r"
      ],
      [
        "i",
        "g"
      ],
      [
        "Ġin",
        "t"
      ],
      [
        "Ġhapp",
        "en"
      ],
      [
        "Ġc",
        "l"
      ],
      [
        "Ġh",
        "ome"
      ],
      [
        "Ġe",
        "at"
      ],
      [
        "ou",
        "nd"
      ],
      [
        "Ġ",
        "v"
      ],
      [
        "Ġs",
        "p"
      ],
      [
        "Ġb",
        "ut"
      ],
      [
        "Ġst",
        "u"
      ],
      [
        "or",
        "t"
      ],
      [
        "in",
        "e"
      ],
      [
        "Ġmu",
        "ch"
      ],
      [
        "Ġre",
        "ad"
      ],
      [
        "Ġf",
        "riend"
      ],
      [
        "a",
        "p"
      ],
      [
        "Ġs",
        "ay"
      ],
      [
        "Ġri",
        "ght"
      ],
      [
        "at",
        "her"
      ],
      [
        "es",
        "s"
      ],
      [
        "Ġu",
        "n"
      ],
      [
        "Ġof",
        "f"
      ],
      [
        "Ġj",
        "o"
      ],
      [
        "m",
        "b"
      ],
      [
        "Ġw",
        "on"
      ],
      [
        "Ġp",
        "re"
      ],
      [
        "it",
        "e"
      ],
      [
        "ee",
        "l"
      ],
      [
        "Ġf",
        "e"
      ],
      [
        "ar",
        "d"
      ],
      [
        "Ġs",
        "pe"
      ],
      [
        "Ġ",
        "ke"
      ],
      [
        "one",
        "y"
      ],
      [
        "Ġf",
        "eel"
      ],
      [
        "Ġl",
        "ong"
      ],
      [
        "Ġlo",
        "ve"
      ],
      [
        "Ġg",
        "ive"
      ],
      [
        "se",
        "lf"
      ],
      [
        "Ġh",
        "o"
      ],
      [
        "Ġm",
        "oney"
      ],
      [
        "Ġne",
        "w"
      ],
      [
        "it",
        "t"
      ],
      [
        "Ġb",
        "ook"
      ],
      [
        "Ġl",
        "ast"
      ],
      [
        "b",
        "o"
      ],
      [
        "Ġb",
        "r"
      ],
      [
        "Ġb",
        "us"
      ],
      [
        "Ġp",
        "e"
      ],
      [
        "Ġa",
        "d"
      ],
      [
        "Ġm",
        "ad"
      ],
      [
        "Ġth",
        "ought"
      ],
      [
        "n",
        "ing"
      ],
      [
        "Ġbe",
        "t"
      ],
      [
        "Ġsu",
        "re"
      ],
      [
        "Ġb",
        "ack"
      ],
      [
        "Ġany",
        "thing"
      ],
      [
        "Ġd",
        "r"
      ],
      [
        "Ġw",
        "at"
      ],
      [
        "u",
        "re"
      ],
      [
        "a",
        "me"
      ],
      [
        "Ġth",
        "ing"
      ],
      [
        "ou",
        "gh"
      ],
      [
        "ri",
        "ed"
      ],
      [
        "bo",
        "dy"
      ],
      [
        "e",
        "ar"
      ],
      [
        "oo",
        "l"
      ],
      [
        "Ġd",
        "ay"
      ],
      [
        "Ġbe",
        "l"
      ],
      [
        "i",
        "ld"
      ],
      [
        "Ġ",
        "or"
      ],
      [
        "Ġ",
        "our"
      ],
      [
        "nd",
        "er"
      ],
      [
        "Ġdoes",
        "n"
      ],
      [
        "Ġl",
        "ot"
      ],
      [
        "Ġb",
        "u"
      ],
      [
        "as",
        "s"
      ],
      [
        "a",
        "g"
      ],
      [
        "oo",
        "m"
      ],
      [
        "op",
        "le"
      ],
      [
        "Ġpe",
        "ople"
      ],
      [
        "he",
        "d"
      ],
      [
        "Ġag",
        "ain"
      ],
      [
        "Ġto",
        "ld"
      ],
      [
        "Ġmad",
        "e"
      ],
      [
        "ic",
        "k"
      ],
      [
        "Ġspe",
        "ak"
      ],
      [
        "Ġm",
        "ust"
      ],
      [
        "Ġu",
        "nder"
      ],
      [
        "Ġw",
        "ay"
      ],
      [
        "Ġa",
        "c"
      ],
      [
        "Ġst",
        "ay"
      ],
      [
        "ie",
        "ve"
      ],
      [
        "Ġli",
        "ve"
      ],
      [
        "id",
        "e"
      ],
      [
        "a",
        "u"
      ],
      [
        "d",
        "e"
      ],
      [
        "n",
        "t"
      ],
      [
        "Ġm",
        "ay"
      ],
      [
        "Ġco",
        "mp"
      ],
      [
        "Ġo",
        "ld"
      ],
      [
        "Ġc",
        "all"
      ],
      [
        "Ġman",
        "y"
      ],
      [
        "t",
        "s"
      ],
      [
        "ou",
        "se"
      ],
      [
        "Ġca",
        "re"
      ],
      [
        "Ġtr",
        "y"
      ],
      [
        "Ġsa",
        "id"
      ],
      [
        "Ġt",
        "w"
      ],
      [
        "Ġs",
        "m"
      ],
      [
        "v",
        "ing"
      ],
      [
        "Ġdo",
        "ing"
      ],
      [
        "Ġle",
        "ave"
      ],
      [
        "Ġy",
        "ear"
      ],
      [
        "t",
        "her"
      ],
      [
        "Ġbel",
        "ieve"
      ],
      [
        "Ġto",
        "day"
      ],
      [
        "Ġha",
        "r"
      ],
      [
        "Ġw",
        "ent"
      ],
      [
        "Ġh",
        "ouse"
      ],
      [
        "Ġw",
        "a"
      ],
      [
        "Ġst",
        "ill"
      ],
      [
        "r",
        "a"
      ],
      [
        "o",
        "l"
      ],
      [
        "w",
        "ays"
      ],
      [
        "Ġon",
        "ly"
      ],
      [
        "Ġhapp",
        "y"
      ],
      [
        "Ġal",
        "ways"
      ],
      [
        "Ġbet",
        "ter"
      ],
      [
        "Ġo",
        "ver"
      ],
      [
        "ur",
        "n"
      ],
      [
        "or",
        "row"
      ],
      [
        "a",
        "ch"
      ],
      [
        "Ġg",
        "u"
      ],
      [
        "ow",
        "n"
      ],
      [
        "Ġr",
        "oom"
      ],
      [
        "ren",
        "ch"
      ],
      [
        "Ġp",
        "r"
      ],
      [
        "Ġf",
        "rench"
      ],
      [
        "Ġthe",
        "m"
      ],
      [
        "Ġwa",
        "it"
      ],
      [
        "Ġaf",
        "ter"
      ],
      [
        "Ġjo",
        "b"
      ],
      [
        "Ġch",
        "ild"
      ],
      [
        "Ġd",
        "is"
      ],
      [
        "Ġa",
        "pp"
      ],
      [
        "Ġpl",
        "ay"
      ],
      [
        "f",
        "t"
      ],
      [
        "Ġa",
        "w"
      ],
      [
        "f",
        "ore"
      ],
      [
        "a",
        "ble"
      ],
      [
        "u",
        "e"
      ],
      [
        "re",
        "ss"
      ],
      [
        "Ġis",
        "n"
      ],
      [
        "o",
        "se"
      ],
      [
        "Ġs",
        "ch"
      ],
      [
        "Ġbe",
        "fore"
      ],
      [
        "Ġn",
        "ight"
      ],
      [
        "o",
        "s"
      ],
      [
        "mb",
        "er"
      ],
      [
        "Ġsch",
        "ool"
      ],
      [
        "Ġha",
        "nd"
      ],
      [
        "a",
        "ge"
      ],
      [
        "t",
        "y"
      ],
      [
        "ac",
        "e"
      ],
      [
        "p",
        "t"
      ],
      [
        "m",
        "ent"
      ],
      [
        "Ġex",
        "p"
      ],
      [
        "o",
        "m"
      ],
      [
        "Ġhar",
        "d"
      ],
      [
        "Ġd",
        "own"
      ],
      [
        "itt",
        "le"
      ],
      [
        "Ġl",
        "ittle"
      ],
      [
        "Ġf",
        "ather"
      ],
      [
        "Ġwe",
        "ll"
      ],
      [
        "Ġp",
        "art"
      ],
      [
        "is",
        "s"
      ],
      [
        "h",
        "ing"
      ],
      [
        "Ġb",
        "l"
      ],
      [
        "Ġevery",
        "thing"
      ],
      [
        "Ġunder",
        "st"
      ],
      [
        "Ġe",
        "ar"
      ],
      [
        "g",
        "et"
      ],
      [
        "Ġc",
        "han"
      ],
      [
        "f",
        "ul"
      ],
      [
        "t",
        "ing"
      ],
      [
        "ble",
        "m"
      ],
      [
        "it",
        "y"
      ],
      [
        "Ġpro",
        "blem"
      ],
      [
        "le",
        "ep"
      ],
      [
        "Ġpl",
        "an"
      ],
      [
        "Ġp",
        "ut"
      ],
      [
        "Ġbe",
        "c"
      ],
      [
        "Ġwant",
        "ed"
      ],
      [
        "f",
        "f"
      ],
      [
        "i",
        "z"
      ],
      [
        "Ġdo",
        "g"
      ],
      [
        "Ġy",
        "est"
      ],
      [
        "er",
        "day"
      ],
      [
        "Ġyest",
        "erday"
      ],
      [
        "Ġp",
        "a"
[...]
