{
  "version": "1.0",
  "truncation": null,
  "padding": {
    "strategy": "BatchLongest",
    "direction": "Right",
    "pad_to_multiple_of": null,
    "pad_id": 2,
    "pad_type_id": 0,
    "pad_token": "[pad]"
  },
  "added_tokens": [
    {
      "id": 0,
      "content": "[start]",
      "single_word": false,
      "lstrip": false,
      "rstrip": false,
      "normalized": false,
      "special": true
    },
    {
      "id": 1,
      "content": "[end]",
      "single_word": false,
      "lstrip": false,
      "rstrip": false,
      "normalized": false,
      "special": true
    },
    {
      "id": 2,
      "content": "[pad]",
      "single_word": false,
      "lstrip": false,
      "rstrip": false,
      "normalized": false,
      "special": true
    }
  ],
  "normalizer": null,
  "pre_tokenizer": {
    "type": "ByteLevel",
    "add_prefix_space": true,
    "trim_offsets": true,
    "use_regex": true
  },
  "post_processor": null,
  "decoder": {
    "type": "ByteLevel",
    "add_prefix_space": true,
    "trim_offsets": true,
    "use_regex": true
  },
  "model": {
    "type": "BPE",
    "dropout": null,
    "unk_token": null,
    "continuing_subword_prefix": null,
    "end_of_word_suffix": null,
    "fuse_unk": false,
    "byte_fallback": false,
    "ignore_merges": false,
    "vocab": {
      "[start]": 0,
      "[end]": 1,
      "[pad]": 2,
      "!": 3,
      "\"": 4,
      "$": 5,
      "%": 6,
      "'": 7,
      "(": 8,
      ")": 9,
      "+": 10,
      ",": 11,
      "-": 12,
      ".": 13,
      "/": 14,
      "0": 15,
      "1": 16,
      "2": 17,
      "3": 18,
      "4": 19,
      "5": 20,
      "6": 21,
      "7": 22,
      "8": 23,
      "9": 24,
      ":": 25,
      ";": 26,
      "?": 27,
      "a": 28,
      "b": 29,
      "c": 30,
      "d": 31,
      "e": 32,
      "f": 33,
      "g": 34,
      "h": 35,
      "i": 36,
      "j": 37,
      "k": 38,
      "l": 39,
      "m": 40,
      "n": 41,
      "o": 42,
      "p": 43,
      "q": 44,
      "r": 45,
      "s": 46,
      "t": 47,
      "u": 48,
      "v": 49,
      "w": 50,
      "x": 51,
      "y": 52,
      "z": 53,
      "¢": 54,
      "§": 55,
      "¨": 56,
      "©": 57,
      "ª": 58,
      "«": 59,
      "®": 60,
      "¯": 61,
      "´": 62,
      "¶": 63,
      "¹": 64,
      "»": 65,
      "½": 66,
      "Â": 67,
      "Ã": 68,
      "Å": 69,
      "Ñ": 70,
      "â": 71,
      "Ġ": 72,
      "Ģ": 73,
      "ģ": 74,
      "ĭ": 75,
      "ĵ": 76,
      "ĺ": 77,
      "Ļ": 78,
      "ł": 79,
      "Ġp": 80,
      "Ġd": 81,
      "ai": 82,
      "es": 83,
      "ou": 84,
      "Ã©": 85,
      "en": 86,
      "Ġl": 87,
      "Ġt": 88,
      "Ġc": 89,
      "Ġs": 90,
      "Ġj": 91,
      "re": 92,
      "on": 93,
      "qu": 94,
      "Ġa": 95,
      "Ġn": 96,
      "Ġv": 97,
      "Ġm": 98,
      "er": 99,
      "Ġqu": 100,
      "Ġde": 101,
      "Ġpa": 102,
      "Ġje": 103,
      "ous": 104,
      "il": 105,
      "oi": 106,
      "an": 107,
      "ĠÃ": 108,
      "Ġf": 109,
      "ent": 110,
      "om": 111,
      "le": 112,
      "est": 113,
      "Ġque": 114,
      "Ġpas": 115,
      "ais": 116,
      "un": 117,
      "Ġ?": 118,
      "eu": 119,
      "is": 120,
      "ĠÃł": 121,
      "te": 122,
      "Ġun": 123,
      "Ġne": 124,
      "Ġle": 125,
      "Ġce": 126,
      "our": 127,
      "Ġla": 128,
      "Ġvous": 129,
      "Ġb": 130,
      "Ġil": 131,
      "ait": 132,
      "Ġr": 133,
      "ez": 134,
      "Ã¨": 135,
      "it": 136,
      "Ġtom": 137,
      "in": 138,
      "Ġest": 139,
      "el": 140,
      "Ġen": 141,
      "ar": 142,
      "Ġsu": 143,
      "Ġpr": 144,
      "or": 145,
      "us": 146,
      "Ã©t": 147,
      "Ġtr": 148,
      "Ġch": 149,
      "ment": 150,
      "Ġav": 151,
      "tre": 152,
      "se": 153,
      "au": 154,
      "Ġtu": 155,
      "Ġpour": 156,
      "Ġnous": 157,
      "ons": 158,
      "Ġpar": 159,
      "ant": 160,
      "eux": 161,
      "tu": 162,
      "elle": 163,
      "end": 164,
      "me": 165,
      "ti": 166,
      "av": 167,
      "ont": 168,
      "ce": 169,
      "Ġau": 170,
      "Ġles": 171,
      "Ġme": 172,
      "Ġune": 173,
      "Ġcom": 174,
      "ch": 175,
      "Ġpl": 176,
      "onn": 177,
      "ri": 178,
      "ci": 179,
      "Ãª": 180,
      "ĠÃ©t": 181,
      "Ġg": 182,
      "ouv": 183,
      "aire": 184,
      "vous": 185,
      "mp": 186,
      "Ġtou": 187,
      "ien": 188,
      "ain": 189,
      "Ġsuis": 190,
      "Ġte": 191,
      "Ġe": 192,
      "Ġre": 193,
      "Ã©e": 194,
      "de": 195,
      "tes": 196,
      "oir": 197,
      "Ġh": 198,
      "ĠdÃ©": 199,
      "ans": 200,
      "al": 201,
      "os": 202,
      "ois": 203,
      "ag": 204,
      "Ġse": 205,
      "que": 206,
      "Ã¨re": 207,
      "as": 208,
      "Ġfaire": 209,
      "ĠÃª": 210,
      "Ġelle": 211,
      "ie": 212,
      "Ġmon": 213,
      "Ġquel": 214,
      "§a": 215,
      "Ġ!": 216,
      "ir": 217,
      "ĠÃ§a": 218,
      "pp": 219,
      "Ġsi": 220,
      "res": 221,
      "Ġdans": 222,
      "Ġi": 223,
      "am": 224,
      "Ġpen": 225,
      "Ġplus": 226,
      "Ġdes": 227,
      "ui": 228,
      "les": 229,
      "ec": 230,
      "ler": 231,
      "Ġqui": 232,
      "at": 233,
      "Ġfait": 234,
      "Ã¨s": 235,
      "Ġpro": 236,
      "Ġdu": 237,
      "Ġtout": 238,
      "Ġdi": 239,
      "Ġo": 240,
      "and": 241,
      "eur": 242,
      "Ġas": 243,
      "ang": 244,
      "Ġveux": 245,
      "Ġvo": 246,
      "Ġai": 247,
      "tte": 248,
      "Ġdev": 249,
      "lÃ©": 250,
      "Ġal": 251,
      "ble": 252,
      "ĠrÃ©": 253,
      "ĠÃ©": 254,
      "Ġavec": 255,
      "li": 256,
      "la": 257,
      "si": 258,
      "Ġmar": 259,
      "Ġes": 260,
      "ers": 261,
      "oin": 262,
      "eau": 263,
      "rai": 264,
      "Ġsur": 265,
      "ur": 266,
      "Ġpeu": 267,
      "ille": 268,
      "Ġy": 269,
      "ort": 270,
      "ac": 271,
      "Ġin": 272,
      "mes": 273,
      "Ãł": 274,
      "ff": 275,
      "iv": 276,
      "mps": 277,
      "Ġet": 278,
      "ĠÃªtes": 279,
      "Ġvou": 280,
      "pr": 281,
      "Ġsont": 282,
      "che": 283,
      "onne": 284,
      "Ġcon": 285,
      "tÃ©": 286,
      "Ġson": 287,
      "endre": 288,
      "Ġcette": 289,
      "ier": 290,
      "Ġar": 291,
      "ter": 292,
      "je": 293,
      "Ġdit": 294,
      "ose": 295,
      "Ġma": 296,
      "oup": 297,
      "ion": 298,
      "ati": 299,
      "ĠtrÃ¨s": 300,
      "rais": 301,
      "Ġmais": 302,
      "Ġcela": 303,
      "Ġmoi": 304,
      "ux": 305,
      "Ġpeux": 306,
      "uis": 307,
      "Ġvotre": 308,
      "ail": 309,
      "ard": 310,
      "Ġtemps": 311,
      "ĠÃªtre": 312,
      "Ã©s": 313,
      "Ġlui": 314,
      "Ġdem": 315,
      "Ġdis": 316,
      "quoi": 317,
      "Ġpourquoi": 318,
      "Ġpens": 319,
      "Ã»": 320,
      "jour": 321,
      "Ġfr": 322,
      "ĠÃ©tait": 323,
      "co": 324,
      "Ġam": 325,
      "Ġsais": 326,
      "ut": 327,
      "Ġvrai": 328,
      "di": 329,
      "ĠÃ©tÃ©": 330,
      "Ġpouv": 331,
      "Ã´": 332,
      "Ã©r": 333,
      "Ġavez": 334,
      "Ġtrav": 335,
      "oit": 336,
      "Ġpense": 337,
      "Ġser": 338,
      "Ġsa": 339,
      "Ġjam": 340,
      "riv": 341,
      "Ġgr": 342,
      "age": 343,
      "ol": 344,
      "Ġils": 345,
      "gn": 346,
      "elles": 347,
      "Ġchose": 348,
      "ap": 349,
      "ens": 350,
      "cu": 351,
      "Ã§": 352,
      "Ġici": 353,
      "Ġcr": 354,
      "Ġapp": 355,
      "op": 356,
      "Ã¹": 357,
      "Ã®": 358,
      "Ġjamais": 359,
      "mer": 360,
      "Ġcomment": 361,
      "ot": 362,
      "Ġbien": 363,
      "Ġheu": 364,
      "ue": 365,
      "Ġtravail": 366,
      "Ġpers": 367,
      "app": 368,
      "ĠoÃ¹": 369,
      "Ġsav": 370,
      "Ġbeau": 371,
      "une": 372,
      "Ġvraiment": 373,
      "orte": 374,
      "Ġdire": 375,
      "able": 376,
      "Ġton": 377,
      "Ġex": 378,
      "oy": 379,
      "Ġent": 380,
      "Ġsom": 381,
      "aiss": 382,
      "Ġquelque": 383,
      "Ġan": 384,
      "tt": 385,
      "Ġjour": 386,
      "itÃ©": 387,
      "Ġtoi": 388,
      "iÃ¨re": 389,
      "Ġtous": 390,
      "Ãªte": 391,
      "moi": 392,
      "Ġseu": 393,
      "rer": 394,
      "aut": 395,
      "coup": 396,
      "uit": 397,
      "Ġbeaucoup": 398,
      "Ġrest": 399,
      "esoin": 400,
      "Ġbesoin": 401,
      "ĠprÃ©": 402,
      "ess": 403,
      "Ġpeut": 404,
      "Ġmain": 405,
      "Ġtrouv": 406,
      "bre": 407,
      "Ġon": 408,
      "ne": 409,
      "ture": 410,
      "rÃ©": 411,
      "Ġvi": 412,
      "ten": 413,
      "Ġsommes": 414,
      "gent": 415,
      "Ġparti": 416,
      "Ġjus": 417,
      "ab": 418,
      "iez": 419,
      "Ġvoi": 420,
      "Ġmang": 421,
      "Ġvoul": 422,
      "Ġpersonne": 423,
      "Ġmes": 424,
      "Ġavons": 425,
      "Ãªtre": 426,
      "ors": 427,
      "lez": 428,
      "Ġfer": 429,
      "Ġont": 430,
      "Ġmal": 431,
      "Ġrien": 432,
      "lÃ¨": 433,
      "Ġfais": 434,
      "Ġcomme": 435,
      "Ġsem": 436,
      "ĠlÃł": 437,
      "Ġaller": 438,
      "lement": 439,
      "Ġva": 440,
      "Ġquelqu": 441,
      "Ġpe": 442,
      "Ġatt": 443,
      "Ġtrain": 444,
      "Ġparler": 445,
      "Ãªme": 446,
      "Ġven": 447,
      "Ġpass": 448,
      "Ġmaison": 449,
      "Ġheure": 450,
      "Ġmary": 451,
      "der": 452,
      "ge": 453,
      "ation": 454,
      "Ġass": 455,
      "ile": 456,
      "ay": 457,
      "Ġper": 458,
      "Ġtrop": 459,
      "Ġquoi": 460,
      "ance": 461,
      "aÃ®": 462,
      "Ã©es": 463,
      "Ġvoir": 464,
      "Ã©tait": 465,
      "Ġtoujour": 466,
      "Ġtoujours": 467,
      "Ġdeux": 468,
      "enc": 469,
      "Ġelles": 470,
      "oire": 471,
      "ve": 472,
      "Ġcomp": 473,
      "aime": 474,
      "Ġnouv": 475,
      "ure": 476,
      "Ġprob": 477,
      "Ġta": 478,
      "Ġbon": 479,
      "Ġquand": 480,
      "ils": 481,
      "ivre": 482,
      "Ġca": 483,
      "Ã¢": 484,
      "Ġcont": 485,
      "rait": 486,
      "Ġenf": 487,
      "core": 488,
      "Ġpuis": 489,
      "ussi": 490,
      "Ġmonde": 491,
      "Ġli": 492,
      "Ġencore": 493,
      "Ġconn": 494,
      "ine": 495,
      "Ġveu": 496,
      "Ġarriv": 497,
      "orm": 498,
      "ĠÃ©c": 499,
      "em": 500,
      "ord": 501,
      "Ġreg": 502,
      "Ġsoit": 503,
      "ants": 504,
      "Ã´t": 505,
      "Ġdemand": 506,
      "ends": 507,
      "ence": 508,
      "aine": 509,
      "cher": 510,
      "Ġfaut": 511,
      "air": 512,
      "Ġno": 513,
      "Ġcomb": 514,
      "Ġou": 515,
      "ert": 516,
      "Ġdonn": 517,
      "iens": 518,
      "Ġdois": 519,
      "merais": 520,
      "ante": 521,
      "Ġvoiture": 522,
      "dre": 523,
      "ions": 524,
      "Ġses": 525,
      "ic": 526,
      "Ġavoir": 527,
      "Ġlaiss": 528,
      "Ġder": 529,
      "ass": 530,
      "Ġimp": 531,
      "ĠrÃ©p": 532,
      "Ã©tais": 533,
      "Ġpos": 534,
      "Ġcomm": 535,
      "esp": 536,
      "Ġcour": 537,
      "ign": 538,
      "ĠdÃ©s": 539,
      "Ġfois": 540,
      "Ġmainten": 541,
      "Ã©ri": 542,
      "aient": 543,
      "argent": 544,
      "Ġac": 545,
      "Ġvais": 546,
      "Ġmaintenant": 547,
      "riez": 548,
      "ad": 549,
      "Ġcombien": 550,
      "bli": 551,
      "aimerais": 552,
      "tr": 553,
      "Ġceci": 554,
      "Ġvu": 555,
      "Ġavait": 556,
      "erre": 557,
      "Ġsou": 558,
      "Ġaussi": 559,
      "ande": 560,
      "ĠsÃ»": 561,
      "pos": 562,
      "Ġjou": 563,
      "Ġvie": 564,
      "Ġeu": 565,
      "Ġcompr": 566,
      "Ġdiff": 567,
      "Ã©c": 568,
      "use": 569,
      "Ġnom": 570,
      "tement": 571,
      "Ġfran": 572,
      "Ġpouvez": 573,
      "prÃ¨s": 574,
      "ĠmÃªme": 575,
      "endu": 576,
      "ents": 577,
      "Åĵ": 578,
      "hui": 579,
      "Ġpi": 580,
      "jourd": 581,
      "aÃ®t": 582,
      "ra": 583,
      "cup": 584,
      "Ã§ais": 585,
      "Ġjuste": 586,
      "Ġess": 587,
      "ĠproblÃ¨": 588,
      "Ġret": 589,
      "ĠtÃ©": 590,
      "ĠfranÃ§ais": 591,
      "Ġfin": 592,
      "Ġquelle": 593,
      "Ġces": 594,
      "um": 595,
      "Ġdern": 596,
      "Ġporte": 597,
      "Ġaut": 598,
      "ccup": 599,
      "Ġaujourd": 600,
      "Ġhier": 601,
      "Ġmi": 602,
      "ise": 603,
      "Ġtoutes": 604,
      "Ġchez": 605,
      "Ġbou": 606,
      "ts": 607,
      "Ġple": 608,
      "ĠpÃ¨re": 609,
      "ĠtÃ©lÃ©": 610,
      "tit": 611,
      "ttre": 612,
      "Ġseul": 613,
      "ique": 614,
      "arriv": 615,
      "Ġbr": 616,
      "ong": 617,
      "Ġman": 618,
      "Ġarr": 619,
      "Ġgrand": 620,
      "ĠdÃ©j": 621,
      "ĠdÃ©jÃł": 622,
      "ore": 623,
      "Ġpensais": 624,
      "ner": 625,
      "Ġnotre": 626,
      "Ġlivre": 627,
      "Ġpris": 628,
      "Ġsouv": 629,
      "ĠdÃ©t": 630,
      "Ġpart": 631,
      "Ġprendre": 632,
      "Ġbonne": 633,
      "asse": 634,
      "Ġvoulez": 635,
      "ĠaprÃ¨s": 636,
      "par": 637,
      "ente": 638,
      "Ġassez": 639,
      "gu": 640,
      "du": 641,
      "Ġtrois": 642,
      "âĢ": 643,
      "avais": 644,
      "Ġall": 645,
      "mÃ©": 646,
      "Ġsans": 647,
      "dÃ©": 648,
      "Ġsimp": 649,
      "âĢĻ": 650,
      "omme": 651,
      "Ġregard": 652,
      "Ġache": 653,
      "Ġdemain": 654,
      "Ġmieux": 655,
      "Ġsoir": 656,
      "cole": 657,
      "nous": 658,
      "rit": 659,
      "Ġmanger": 660,
      "Ġmat": 661,
      "Ġcha": 662,
      "nÃ©e": 663,
      "are": 664,
      "ud": 665,
      "cti": 666,
      "Ġcons": 667,
      "Ġavant": 668,
      "ĠproblÃ¨me": 669,
      "Ġenv": 670,
      "Ġauc": 671,
      "Ġlong": 672,
      "ĠplaÃ®t": 673,
      "ex": 674,
      "Ġpu": 675,
      "Ġquest": 676,
      "ven": 677,
      "Ãªtes": 678,
      "Ġpay": 679,
      "Ġdevrais": 680,
      "Ġessay": 681,
      "itu": 682,
      "ĠdÃ»": 683,
      "anc": 684,
      "auv": 685,
      "Ġrenc": 686,
      "ĠdÃ©c": 687,
      "Ġsent": 688,
      "ĠmÃ©": 689,
      "Ġoccup": 690,
      "Ġgens": 691,
      "Ġsavoir": 692,
      "Ġvis": 693,
      "Ġtoute": 694,
      "Ġleur": 695,
      "leur": 696,
      "rez": 697,
      "Ġsupp": 698,
      "ient": 699,
      "ton": 700,
      "Ġgar": 701,
      "Ġtes": 702,
      "Ġfut": 703,
      "Ġaux": 704,
      "rang": 705,
      "avez": 706,
      "Ġmarie": 707,
      "arrive": 708,
      "aux": 709,
      "ellement": 710,
      "Ġappr": 711,
      "dÃ©e": 712,
      "Ġlors": 713,
      "ĠrÃ©pon": 714,
      "Ġmom": 715,
      "Ġheures": 716,
      "inu": 717,
      "Ġemp": 718,
      "Ġenfants": 719,
      "Ġcet": 720,
      "rent": 721,
      "Ġsimplement": 722,
      "Ġsor": 723,
      "Ġmoment": 724,
      "ul": 725,
      "oses": 726,
      "Ġpartir": 727,
      "ĠÂ": 728,
      "att": 729,
      "avant": 730,
      "oyez": 731,
      "Ġph": 732,
      "Ġnuit": 733,
      "Ġvos": 734,
      "Ã©cole": 735,
      "con": 736,
      "ĠsÃ»r": 737,
      "Ġcoup": 738,
      "Ġsens": 739,
      "Ãªt": 740,
      "Ġconf": 741,
      "Ġpetit": 742,
      "Ġchien": 743,
      "autre": 744,
      "Ġvoy": 745,
      "ĠmÃ¨re": 746,
      "ph": 747,
      "lais": 748,
      "Ġquelques": 749,
      "Åĵur": 750,
      "Ġans": 751,
      "oc": 752,
      "Ġcl": 753,
      "ĠdÃ©p": 754,
      "Ġsorti": 755,
      "Ġri": 756,
      "Ġami": 757,
      "Ġvoud": 758,
      "Ġrester": 759,
      "ins": 760,
      "Ġrend": 761,
      "Ġnouveau": 762,
      "rÃ©ci": 763,
      "ite": 764,
      "Ã©n": 765,
      "Ġchoses": 766,
      "puis": 767,
      "Ġab": 768,
      "Ġrais": 769,
      "Ġcel": 770,
      "rem": 771,
      "acc": 772,
      "ĠpassÃ©": 773,
      "ager": 774,
      "Ġcher": 775,
      "Ġfem": 776,
      "Ġprom": 777,
      "ĠderniÃ¨re": 778,
      "Ġrapp": 779,
      "Ġvoulais": 780,
      "Ġcond": 781,
      "ide": 782,
      "endant": 783,
      "Ġparle": 784,
      "im": 785,
      "Ġpo": 786,
      "Ġvenir": 787,
      "Ġheureux": 788,
      "aisse": 789,
      "ress": 790,
      "Ġveut": 791,
      "Ġbos": 792,
      "Ġcert": 793,
      "chÃ©": 794,
      "Ġboston": 795,
      "aider": 796,
      "Ġsait": 797,
      "jet": 798,
      "iste": 799,
      "Ġad": 800,
      "ist": 801,
      "Ġchang": 802,
      "ob": 803,
      "oute": 804,
      "Ġmoin": 805,
      "euse": 806,
      "Ġdiffic": 807,
      "Ġfil": 808,
      "ĠtÃ´t": 809,
      "Ġjours": 810,
      "Ġense": 811,
      "Ġten": 812,
      "Ġmer": 813,
      "Ġter": 814,
      "int": 815,
      "Ġcroire": 816,
      "Ġmontre": 817,
      "ĠidÃ©e": 818,
      "ill": 819,
      "Ġfaites": 820,
      "ĠallÃ©": 821,
      "Ġtomb": 822,
      "ĠprÃ©f": 823,
      "dent": 824,
      "Ġsemble": 825,
      "Ġmauv": 826,
      "all": 827,
      "udi": 828,
      "temps": 829,
      "Ġmauvais": 830,
      "Ġsoyez": 831,
      "ade": 832,
      "Ġtrouver": 833,
      "Ġdepuis": 834,
      "tion": 835,
      "Ġrendre": 836,
      "Ã¨rent": 837,
      "avoir": 838,
      "Ġpeur": 839,
      "ace": 840,
      "Ġprem": 841,
      "Ġpendant": 842,
      "jeun": 843,
      "omp": 844,
      "ĠdemandÃ©": 845,
      "Ġcham": 846,
      "Ġprof": 847,
      "espÃ¨re": 848,
      "aurais": 849,
      "Ġexp": 850,
      "Ġmatin": 851,
      "Ġdifficile": 852,
      "Ġfac": 853,
      "Ġouv": 854,
      "Ġcol": 855,
      "Ġmari": 856,
      "ĠpiÃ¨": 857,
      "phon": 858,
      "Ġsois": 859,
      "Ġconse": 860,
      "Ġco": 861,
      "ention": 862,
      "Ġsemaine": 863,
      "Ġraison": 864,
      "Ġnon": 865,
      "Ġmeille": 866,
      "Ġim": 867,
      "Ġaider": 868,
      "apon": 869,
      "Ġfille": 870,
      "ĠrÃ©s": 871,
      "Ġentendu": 872,
      "Ġjapon": 873,
      "eure": 874,
      "Ġfort": 875,
      "Ġhab": 876,
      "uire": 877,
      "if": 878,
      "erai": 879,
      "Ġrec": 880,
      "ici": 881,
      "Ġpourrais": 882,
      "Ġseule": 883,
      "Ġamis": 884,
      "min": 885,
      "Ġpouvons": 886,
      "Ġautre": 887,
      "lo": 888,
      "Ã§on": 889,
      "mb": 890,
      "arr": 891,
      "Ġrev": 892,
      "Ġchambre": 893,
      "Ġproch": 894,
      "quÃ©": 895,
      "Ġfati": 896,
      "ĠtÃ©lÃ©phon": 897,
      "roit": 898,
      "Ġpoin": 899,
      "Ġaff": 900,
      "Ġmot": 901,
      "Ġprie": 902,
      "Ġphot": 903,
      "imp": 904,
      "tÃ©ress": 905,
      "Ġparents": 906,
      "olÃ©": 907,
      "Ġhomme": 908,
      "Ġjusqu": 909,
      "Ġfatigu": 910,
      "Ġcrois": 911,
      "oid": 912,
      "ale": 913,
      "Ġsouvent": 914,
      "Ġport": 915,
      "uv": 916,
      "Ãªter": 917,
      "Ġcar": 918,
      "ĠÃ©tudi": 919,
      "Ġexc": 920,
      "pe": 921,
      "Ġpasse": 922,
      "ĠprÃ©s": 923,
      "entre": 924,
      "rions": 925,
      "Ġsera": 926,
      "ques": 927,
      "Ġche": 928,
      "Ġfemme": 929,
      "Ġsavais": 930,
      "Ġlire": 931,
      "Ġvois": 932,
      "onnes": 933,
      "jeuner": 934,
      "ver": 935,
      "Ġpres": 936,
      "Ġnombre": 937,
      "ĠvÃ©r": 938,
      "iss": 939,
      "Ġquestion": 940,
      "Ġretard": 941,
      "Ġtard": 942,
      "Ġment": 943,
      "Ġcou": 944,
      "qui": 945,
      "Ġmont": 946,
      "Ġdorm": 947,
      "Ġrencont": 948,
      "Ġdur": 949,
      "Ġdemande": 950,
      "Ġcommenc": 951,
      "Ġdou": 952,
      "Ġlit": 953,
      "quer": 954,
      "ĠsÅĵur": 955,
      "Ġpropos": 956,
      "eurs": 957,
      "heure": 958,
      "Ġmort": 959,
      "ĠfÃªte": 960,
      "uses": 961,
      "sion": 962,
      "Ġlaisse": 963,
      "Ġgag": 964,
      "mi": 965,
      "ments": 966,
      "ats": 967,
      "ĠvÃ©": 968,
      "Ġsurpr": 969,
      "Ġgros": 970,
      "illez": 971,
      "Ġappel": 972,
      "ĠintÃ©ress": 973,
      "Ġlorsque": 974,
      "Ġpourrait": 975,
      "ĠpiÃ¨ce": 976,
      "Ġfi": 977,
      "Ġfam": 978,
      "ĠachetÃ©": 979,
      "aires": 980,
      "uss": 981,
      "Ġcor": 982,
      "erreur": 983,
      "ĠarrivÃ©": 984,
      "alement": 985,
      "este": 986,
      "Ġbles": 987,
      "ition": 988,
      "util": 989,
      "Ġperdu": 990,
      "Ġjouer": 991,
      "ttes": 992,
      "Ã¨res": 993,
      "Ġlongtemps": 994,
      "esse": 995,
      "ĠdÃ©solÃ©": 996,
      "Ġbless": 997,
      "ienne": 998,
      "ĠdÃ©ci": 999,
      "Ġdeven": 1000,
      "Ġmoins": 1001,
      "ĠtrouvÃ©": 1002,
      "mble": 1003,
      "Ġfor": 1004,
      "Ġchem": 1005,
      "Ġeff": 1006,
      "sible": 1007,
      "Ġconnais": 1008,
      "Ġend": 1009,
      "vent": 1010,
      "Ġviens": 1011,
      "Ġpresque": 1012,
      "cre": 1013,
      "Ġminu": 1014,
      "Ġpenses": 1015,
      "mis": 1016,
      "Ġnouvelle": 1017,
      "Ġchant": 1018,
      "Ġtravailler": 1019,
      "aie": 1020,
      "illÃ©": 1021,
      "Ġref": 1022,
      "ĠfrÃ¨re": 1023,
      "Ġcaf": 1024,
      "Ġparf": 1025,
      "Ġob": 1026,
      "gÃ©": 1027,
      "lent": 1028,
      "Ġnour": 1029,
      "Ġsujet": 1030,
      "ĠÃ©taient": 1031,
      "Ġaucun": 1032,
      "vÃ©": 1033,
      "aim": 1034,
      "Ġfu": 1035,
      "Ġdites": 1036,
      "Ġfacile": 1037,
      "Ġth": 1038,
      "illes": 1039,
      "accord": 1040,
      "Ġdont": 1041,
      "Ġsortir": 1042,
      "avantage": 1043,
      "Ġtable": 1044,
      "Ġville": 1045,
      "Ġretour": 1046,
      "ĠtÃ©lÃ©phone": 1047,
      "Ġdoit": 1048,
      "Ġacc": 1049,
      "Ġpoint": 1050,
      "Ġchev": 1051,
      "Ġaime": 1052,
      "Ġins": 1053,
      "Ġdavantage": 1054,
      "Ġpasser": 1055,
      "Ġmus": 1056,
      "ision": 1057,
      "Ġpensez": 1058,
      "onnÃ©": 1059,
      "Ġgrande": 1060,
      "Ġann": 1061,
      "tel": 1062,
      "Ġvoudrais": 1063,
      "hab": 1064,
      "ĠcafÃ©": 1065,
      "Ġresp": 1066,
      "apprÃ©ci": 1067,
      "ate": 1068,
      "ĠÃ¢": 1069,
      "Ġdevons": 1070,
      "Ġreste": 1071,
      "Ġveuillez": 1072,
      "Ġmis": 1073,
      "Ġbi": 1074,
      "ĠvÃ©ritÃ©": 1075,
      "ches": 1076,
      "ĠpensÃ©": 1077,
      "Ġchaque": 1078,
      "Ġtrouve": 1079,
      "Ġliv": 1080,
      "iser": 1081,
      "Ġconv": 1082,
      "Ġentre": 1083,
      "ond": 1084,
      "Ġlettre": 1085,
      "Ġdispos": 1086,
      "ĠjournÃ©e": 1087,
      "Ġcertain": 1088,
      "istoire": 1089,
      "Ġerreur": 1090,
      "Ġpoli": 1091,
      "Ġpren": 1092,
      "Ġphoto": 1093,
      "ger": 1094,
      "avons": 1095,
      "ĠdÃ©b": 1096,
      "Ġoubli": 1097,
      "Ġsavez": 1098,
      "Ġbure": 1099,
      "Ġcin": 1100,
      "Ġchau": 1101,
      "cep": 1102,
      "out": 1103,
      "Ġtour": 1104,
      "Ġtellement": 1105,
      "Ġaucune": 1106,
      "Ġbureau": 1107,
      "mÃªme": 1108,
      "Ġviv": 1109,
      "isÃ©": 1110,
      "Ġdevriez": 1111,
      "ĠÃ©tais": 1112,
      "Ġvas": 1113,
      "Ġrent": 1114,
      "Ġfamille": 1115,
      "cle": 1116,
      "tite": 1117,
      "Ġaide": 1118,
      "Ġbl": 1119,
      "Ġdevoir": 1120,
      "Ġpetite": 1121,
      "ole": 1122,
      "Ġcap": 1123,
      "ĠÃ©tiez": 1124,
      "Ġvenu": 1125,
      "Ġjeune": 1126,
      "Ġprod": 1127,
      "nÃ©": 1128,
      "rire": 1129,
      "Ġprop": 1130,
      "toi": 1131,
      "Ġsal": 1132,
      "Ġdix": 1133,
      "ĠÂ«": 1134,
      "Ġmag": 1135,
      "Ġimport": 1136,
      "id": 1137,
      "Ġvit": 1138,
      "Ġbus": 1139,
      "ĠdonnÃ©": 1140,
      "Ġlivres": 1141,
      "ĠdÃ©jeuner": 1142,
      "Ġconc": 1143,
      "Ġvoulait": 1144,
      "Ġmerci": 1145,
      "Ġfeu": 1146,
      "ĠÃ©p": 1147,
      "Ġmeilleur": 1148,
      "Ġfini": 1149,
      "Ġenfant": 1150,
      "ĠdiffÃ©r": 1151,
      "emp": 1152,
      "Ġheureuse": 1153,
      "Ġconnaiss": 1154,
      "Ġplu": 1155,
      "Ġinv": 1156,
      "ct": 1157,
      "Ġpartie": 1158,
      "cident": 1159,
      "ignore": 1160,
      "cin": 1161,
      "Ġgard": 1162,
      "aller": 1163,
      "Ġdisp": 1164,
      "ĠoccupÃ©": 1165,
      "conque": 1166,
      "Ġtermin": 1167,
      "ro": 1168,
      "Ġ1": 1169,
      "Ġfilm": 1170,
      "Ġst": 1171,
      "Ġdonner": 1172,
      "Ġlaissez": 1173,
      "Ġpouvoir": 1174,
      "Ġallons": 1175,
      "Ġutil": 1176,
      "onc": 1177,
      "Ġconfi": 1178,
      "Ġsign": 1179,
      "Ġcontr": 1180,
      "Ġcuis": 1181,
      "Ġvin": 1182,
      "ĠsÃ»re": 1183,
      "Ġempl": 1184,
      "bl": 1185,
      "Ġrem": 1186,
      "Ġdevez": 1187,
      "adore": 1188,
      "ĠmÃ©de": 1189,
      "ĠprÃ©sent": 1190,
      "Ġquit": 1191,
      "Ġprend": 1192,
      "Ġalors": 1193,
      "ĠrÃ©un": 1194,
      "Ġdemander": 1195,
      "ĠtÃªte": 1196,
      "ĠÃ©ch": 1197,
      "ĠÂ»": 1198,
      "Ġnager": 1199,
      "Ġrou": 1200,
      "Ġserait": 1201,
      "aide": 1202,
      "Ġmalade": 1203,
      "Ġcelui": 1204,
      "reux": 1205,
      "Ġprends": 1206,
      "Ġprobable": 1207,
      "ĠarrÃªte": 1208,
      "riture": 1209,
      "Ġchat": 1210,
      "Ġdevrait": 1211,
      "Ġvivre": 1212,
      "Ã©tÃ©": 1213,
      "tez": 1214,
      "Ġdevrions": 1215,
      "Ġinc": 1216,
      "rap": 1217,
      "ses": 1218,
      "Ġfils": 1219,
      "Ġpersonnes": 1220,
      "Ġexac": 1221,
      "Ġvite": 1222,
      "ures": 1223,
      "onner": 1224,
      "lot": 1225,
      "Ġallez": 1226,
      "ues": 1227,
      "ĠdÃ®": 1228,
      "Ġvue": 1229,
      "Ġcomprends": 1230,
      "ĠrÃ©union": 1231,
      "ĠcÃ´": 1232,
      "Ġver": 1233,
      "Ġfroid": 1234,
      "ĠmangÃ©": 1235,
      "Ġdir": 1236,
      "Ġdonne": 1237,
      "Ġlang": 1238,
      "Ġnos": 1239,
      "Ġplais": 1240,
      "ĠcolÃ¨re": 1241,
      "ateur": 1242,
      "Ġserais": 1243,
      "Ġsp": 1244,
      "Ġsous": 1245,
      "arde": 1246,
      "ied": 1247,
      "Ã©rÃ©": 1248,
      "Ġserv": 1249,
      "Ġcomprendre": 1250,
      "Ġpays": 1251,
      "ĠclÃ©": 1252,
      "Ġmois": 1253,
      "ĠprÃªt": 1254,
      "ivers": 1255,
      "Ġamus": 1256,
      "Ġseulement": 1257,
      "ĠdÃ©teste": 1258,
      "Ġpri": 1259,
      "Ġprud": 1260,
      "ĠprÃ©v": 1261,
      "Ġlaisser": 1262,
      "Ġnourriture": 1263,
      "ĠÃ©trang": 1264,
      "Ġdang": 1265,
      "ĠprÃ¨s": 1266,
      "ontre": 1267,
      "Ġmettre": 1268,
      "Ġsol": 1269,
      "Ġplan": 1270,
      "Ġgu": 1271,
      "Ġvieux": 1272,
      "Ġsouh": 1273,
      "ĠgarÃ§on": 1274,
      "Ġchance": 1275,
      "Ġferais": 1276,
      "Ġpourriez": 1277,
      "Ġsenti": 1278,
      "Ġensemble": 1279,
      "Ġmo": 1280,
      "Ġgent": 1281,
      "Ġautant": 1282,
      "ances": 1283,
      "Ġquestions": 1284,
      "Ġrencontre": 1285,
      "Ġconduire": 1286,
      "Ġain": 1287,
      "Ġfen": 1288,
      "Ġang": 1289,
      "Ġesp": 1290,
      "ĠÃ©crit": 1291,
      "ĠrÃ©ponse": 1292,
      "Ġpremier": 1293,
      "Ġreconn": 1294,
      "ĠfatiguÃ©": 1295,
      "lu": 1296,
      "Ã©g": 1297,
      "Ġmange": 1298,
      "Ġregarder": 1299,
      "Ġdormir": 1300,
      "ĠthÃ©": 1301,
      "ras": 1302,
      "Ġord": 1303,
      "Ġemb": 1304,
      "Ġcontre": 1305,
      "ĠmaniÃ¨re": 1306,
      "Ġenvie": 1307,
      "Ġconfiance": 1308,
      "omm": 1309,
      "Ġbois": 1310,
      "Ġboire": 1311,
      "Ġbient": 1312,
      "rir": 1313,
      "Ġyeux": 1314,
      "Ġchemin": 1315,
      "ĠbientÃ´t": 1316,
      "Ã¢te": 1317,
      "ommes": 1318,
      "Ġbelle": 1319,
      "Ġgen": 1320,
      "Ġautres": 1321,
      "ĠcÃ´tÃ©": 1322,
      "iter": 1323,
      "Ã§u": 1324,
      "Ġarriver": 1325,
      "ĠvÃ©lo": 1326,
      "Ġfou": 1327,
      "Ġfon": 1328,
      "Ġamie": 1329,
      "Ġainsi": 1330,
      "Ġag": 1331,
      "Ġrap": 1332,
      "Ġserai": 1333,
      "Ġtravaille": 1334,
      "Ġvoyage": 1335,
      "ĠlaissÃ©": 1336,
      "Ġenseign": 1337,
      "aite": 1338,
      "Ġsau": 1339,
      "riÃ¨re": 1340,
      "ations": 1341,
      "Ġcompte": 1342,
      "Ġsouci": 1343,
      "Ġacheter": 1344,
      "Ġrapide": 1345,
      "rant": 1346,
      "Ġw": 1347,
      "ĠsÃ©": 1348,
      "Ġsour": 1349,
      "ĠrÃª": 1350,
      "ĠÃ©tud": 1351,
      "essay": 1352,
      "ĠmÃ©decin": 1353,
      "Ġrep": 1354,
      "atis": 1355,
      "Ġinf": 1356,
      "Ġattend": 1357,
      "itude": 1358,
      "Ġexactement": 1359,
      "arer": 1360,
      "ĠsÃ©ri": 1361,
      "iller": 1362,
      "aise": 1363,
      "Ġplace": 1364,
      "ĠgÃ©n": 1365,
      "lÃł": 1366,
      "per": 1367,
      "anglais": 1368,
      "Ġminutes": 1369,
      "ĠoubliÃ©": 1370,
      "ĠrÃ©f": 1371,
      "Ġdiscu": 1372,
      "Ġregarde": 1373,
      "Ġdernier": 1374,
      "iÃ©": 1375,
      "ages": 1376,
      "Ġtravers": 1377,
      "Ġvient": 1378,
      "Ġjoue": 1379,
      "Ġboulot": 1380,
      "ĠcoÃ»": 1381,
      "Ġchans": 1382,
      "Ġquiconque": 1383,
      "ĠÃ©g": 1384,
      "orter": 1385,
      "ĠessayÃ©": 1386,
      "olÃ©e": 1387,
      "Ġjourn": 1388,
      "midi": 1389,
      "oix": 1390,
      "Ġsuff": 1391,
      "Ġplait": 1392,
      "oyer": 1393,
      "Ġpossible": 1394,
      "apprÃ©cie": 1395,
      "urer": 1396,
      "Ġtant": 1397,
      "leurs": 1398,
      "Ġendroit": 1399,
      "ĠparlÃ©": 1400,
      "Ġplut": 1401,
      "ouver": 1402,
      "Ġattention": 1403,
      "Ġcontinu": 1404,
      "Ġsuppose": 1405,
      "Ġprofess": 1406,
      "rou": 1407,
      "Ġloin": 1408,
      "Ġfau": 1409,
      "ÃªtÃ©": 1410,
      "Ġgare": 1411,
      "Ġpolice": 1412,
      "agne": 1413,
      "Ġpenser": 1414,
      "be": 1415,
      "Ã¨te": 1416,
      "attend": 1417,
      "Ġmour": 1418,
      "Ġvol": 1419,
      "Ġprobablement": 1420,
      "Ġanglais": 1421,
      "uy": 1422,
      "ital": 1423,
      "eler": 1424,
      "antÃ©": 1425,
      "Ġprix": 1426,
      "Ġpied": 1427,
      "iner": 1428,
      "ĠdÃ©solÃ©e": 1429,
      "exp": 1430,
      "Ġabs": 1431,
      "ĠdÃ®ner": 1432,
      "nes": 1433,
      "lic": 1434,
      "Ġpouvais": 1435,
      "tenir": 1436,
      "Ġattendre": 1437,
      "Ġconseil": 1438,
      "amment": 1439,
      "dit": 1440,
      "ire": 1441,
      "lar": 1442,
      "Ġlieu": 1443,
      "venu": 1444,
      "Ġmusique": 1445,
      "ĠplutÃ´t": 1446,
      "Ġra": 1447,
      "Ġpuisse": 1448,
      "Ġprochaine": 1449,
      "Ġcan": 1450,
      "hÃ´": 1451,
      "hors": 1452,
      "Ġcal": 1453,
      "ours": 1454,
      "ĠdÃ©rang": 1455,
      "Ġaim": 1456,
      "ĠÃ¢ge": 1457,
      "Ġverre": 1458,
      "erv": 1459,
      "Ġleurs": 1460,
      "iend": 1461,
      "tant": 1462,
      "Ġdehors": 1463,
      "resse": 1464,
      "Ġappar": 1465,
      "Ġviend": 1466,
      "Ġchanter": 1467,
      "ĠfenÃªtre": 1468,
      "bles": 1469,
      "cÃ©": 1470,
      "homme": 1471,
      "Ġassis": 1472,
      "Ġpeuvent": 1473,
      "mÃ©di": 1474,
      "ĠrencontrÃ©": 1475,
      "Ġchaud": 1476,
      "Ġprofesseur": 1477,
      "Ġto": 1478,
      "Ġsorte": 1479,
      "uritÃ©": 1480,
      "assÃ©": 1481,
      "Ġlu": 1482,
      "Ġchois": 1483,
      "Ġapprendre": 1484,
      "Ġcheveux": 1485,
      "Ġgenre": 1486,
      "Ġdisc": 1487,
      "paravant": 1488,
      "Ġproduit": 1489,
      "Ġfoncti": 1490,
      "rÃ©e": 1491,
      "Ġvers": 1492,
      "Ġnei": 1493,
      "Ã¨me": 1494,
      "Ġmarcher": 1495,
      "ĠapprÃ©ci": 1496,
      "Ġcontent": 1497,
      "importe": 1498,
      "anche": 1499,
      "Ġfa": 1500,
      "avait": 1501,
      "Ġargent": 1502,
      "ĠpremiÃ¨re": 1503,
      "atisf": 1504,
      "ĠrÃ©ve": 1505,
      "Ġappris": 1506,
      "ĠimmÃ©di": 1507,
      "son": 1508,
      "ĠsÃ©c": 1509,
      "Ġauparavant": 1510,
      "Ġdr": 1511,
      "Ãªcher": 1512,
      "Ġpayer": 1513,
      "Ġsatisf": 1514,
      "itÃ©s": 1515,
      "Ġentendre": 1516,
      "Ġfaim": 1517,
      "Ġsuiv": 1518,
      "aille": 1519,
      "Ġprochain": 1520,
      "Ġsac": 1521,
      "ĠnÃ©c": 1522,
      "Ġpap": 1523,
      "Ġvisite": 1524,
      "iers": 1525,
      "Ġrepr": 1526,
      "Ġessayer": 1527,
      "Ġsurpris": 1528,
      "Ġdevoirs": 1529,
      "Ġrencontrer": 1530,
      "atement": 1531,
      "ume": 1532,
      "ves": 1533,
      "Ġhistoire": 1534,
      "Ġdess": 1535,
      "Ġpouvait": 1536,
      "asser": 1537,
      "Ġchauss": 1538,
      "ĠdÃ©cidÃ©": 1539,
      "Ã¯": 1540,
      "env": 1541,
      "Ã¨g": 1542,
      "ĠÃ©tions": 1543,
      "Ġcinq": 1544,
      "Ġjournal": 1545,
      "Ġstu": 1546,
      "irent": 1547,
      "ĠtÃ©lÃ©v": 1548,
      "ĠimmÃ©diatement": 1549,
      "Ġcri": 1550,
      "Ġoff": 1551,
      "tÃ©ri": 1552,
      "Ġvont": 1553,
      "Ġparc": 1554,
      "Ã§ons": 1555,
      "ĠsÃ©curitÃ©": 1556,
      "Ġty": 1557,
      "quel": 1558,
      "Ġnouvelles": 1559,
      "Ġconvain": 1560,
      "Ġwe": 1561,
      "ĠnÃ©cess": 1562,
      "Ġstup": 1563,
      "Ġchoix": 1564,
      "Ã©ro": 1565,
      "Ġimportant": 1566,
      "bas": 1567,
      "Ã©b": 1568,
      "Ġsomme": 1569,
      "ĠÃ©crire": 1570,
      "oÃ®": 1571,
      "user": 1572,
      "Ġobli": 1573,
      "ĠrÃ©pondre": 1574,
      "Ġhabitu": 1575,
      "Ġmoy": 1576,
      "urent": 1577,
      "Ġattrap": 1578,
      "ĠarrÃªtÃ©": 1579,
      "ĠoccupÃ©e": 1580,
      "Ġfumer": 1581,
      "og": 1582,
      "occup": 1583,
      "Ġk": 1584,
      "Ġcours": 1585,
      "Ġdiscuter": 1586,
      "Ġsuffis": 1587,
      "cc": 1588,
      "quipe": 1589,
      "ache": 1590,
      "usÃ©": 1591,
      "Ġcertaine": 1592,
      "ustr": 1593,
      "Ġsecre": 1594,
      "Ġclasse": 1595,
      "Ġchanson": 1596,
      "Ġsoi": 1597,
      "inc": 1598,
      "Ġenn": 1599,
      "Ġprenez": 1600,
      "Ġcop": 1601,
      "Ġfier": 1602,
      "Ġparce": 1603,
      "Ġvoulons": 1604,
      "Ġmagas": 1605,
      "Ġemploi": 1606,
      "Ġchaussures": 1607,
      "Ġsitu": 1608,
      "tient": 1609,
      "amen": 1610,
      "Ġop": 1611,
      "Ġmains": 1612,
      "ains": 1613,
      "ĠdÃ©f": 1614,
      "agit": 1615,
      "ction": 1616,
      "Ġchanger": 1617,
      "ement": 1618,
      "fs": 1619,
      "Ġlum": 1620,
      "Ġtent": 1621,
      "Ġfit": 1622,
      "Ã´le": 1623,
      "Ġsavait": 1624,
      "Ġcade": 1625,
      "venir": 1626,
      "obe": 1627,
      "Ġnombreux": 1628,
      "oÃ»": 1629,
      "Ġlis": 1630,
      "Ġsy": 1631,
      "ĠsantÃ©": 1632,
      "Ġmil": 1633,
      "Ġperdre": 1634,
      "ies": 1635,
      "Ã§a": 1636,
      "enf": 1637,
      "enir": 1638,
      "Ġsoin": 1639,
      "Ġvac": 1640,
      "ĠrÃ¨g": 1641,
      "Ġfrapp": 1642,
      "Ġarrive": 1643,
      "ĠproblÃ¨mes": 1644,
      "Ġtomber": 1645,
      "ig": 1646,
      "ĠÅĵ": 1647,
      "Ġfall": 1648,
      "ĠboÃ®": 1649,
      "ĠÃ©v": 1650,
      "Ġpeine": 1651,
      "ĠbÃ©b": 1652,
      "Ġavais": 1653,
      "ĠderriÃ¨re": 1654,
      "Ġgagner": 1655,
      "ĠtÃ©lÃ©vision": 1656,
      "Ġpois": 1657,
      "Ġrac": 1658,
      "liez": 1659,
      "oyÃ©": 1660,
      "ĠcomplÃ¨": 1661,
      "part": 1662,
      "Ġpropre": 1663,
      "jou": 1664,
      "Ġlune": 1665,
      "Ġterre": 1666,
      "ing": 1667,
      "Ġreti": 1668,
      "Ġamou": 1669,
      "Ġvouloir": 1670,
      "ĠÃ©cou": 1671,
      "quelle": 1672,
      "annÃ©e": 1673,
      "Ġlaquelle": 1674,
      "Ġrom": 1675,
      "Ġchap": 1676,
      "agÃ©": 1677,
      "lÃ©ch": 1678,
      "dio": 1679,
      "Ġrestau": 1680,
      "Ġferm": 1681,
      "Ġcommence": 1682,
      "Ġaccep": 1683,
      "Ġlorsqu": 1684,
      "Ġlangue": 1685,
      "Ġvacances": 1686,
      "nent": 1687,
      "Ġor": 1688,
      "Ġcas": 1689,
      "Ġnum": 1690,
      "Ġresse": 1691,
      "cul": 1692,
      "Ġpleuv": 1693,
      "ĠdÃ©cision": 1694,
      "Ġcelle": 1695,
      "Ġdevenir": 1696,
      "oci": 1697,
      "Ġtemp": 1698,
      "Ġfaisons": 1699,
      "Ġsouviens": 1700,
      "Ġrappelle": 1701,
      "Ġrevoir": 1702,
      "Ġcommencer": 1703,
      "ĠappelÃ©": 1704,
      "Ġrentrer": 1705,
      "Ã¢teau": 1706,
      "pital": 1707,
      "Ġtort": 1708,
      "ĠcÃ©": 1709,
      "Ġju": 1710,
      "Ġparv": 1711,
      "cha": 1712,
      "habitude": 1713,
      "ĠrÃ©flÃ©ch": 1714,
      "ature": 1715,
      "Ġfour": 1716,
      "chez": 1717,
      "Ġdim": 1718,
      "Ġmontrer": 1719,
      "tÃ©rieur": 1720,
      "nis": 1721,
      "Ġlun": 1722,
      "ĠcÅĵur": 1723,
      "Ġriche": 1724,
      "Ġmauvaise": 1725,
      "ĠnÃ©cessaire": 1726,
      "Ġir": 1727,
      "Ġsauv": 1728,
      "Ġpan": 1729,
      "Ġchar": 1730,
      "merci": 1731,
      "ables": 1732,
      "Ġcause": 1733,
      "Ġplein": 1734,
      "Ġbruit": 1735,
      "Ġsuppos": 1736,
      "Ġchercher": 1737,
      "Ġjaponais": 1738,
      "ĠterminÃ©": 1739,
      "ĠÃ©tudier": 1740,
      "ustral": 1741,
      "Ġsecret": 1742,
      "atre": 1743,
      "bres": 1744,
      "Ġnett": 1745,
      "antes": 1746,
      "Ġinter": 1747,
      "Ġcommen": 1748,
      "ĠblessÃ©": 1749,
      "ĠcomplÃ¨tement": 1750,
      "Ġdol": 1751,
      "Ġroute": 1752,
      "ĠcommencÃ©": 1753,
      "ĠnumÃ©ro": 1754,
      "Ġdollar": 1755,
      "Ġrapidement": 1756,
      "Ġchapeau": 1757,
      "ek": 1758,
      "rons": 1759,
      "mettre": 1760,
      "onnaire": 1761,
      "ressi": 1762,
      "Ġdist": 1763,
      "gne": 1764,
      "aÃ®tre": 1765,
      "Ġweek": 1766,
      "ĠbÃ©bÃ©": 1767,
      "Ġsort": 1768,
      "indre": 1769,
      "Ġaimes": 1770,
      "ligent": 1771,
      "Ã¢mes": 1772,
      "Ġposte": 1773,
      "Ġrespons": 1774,
      "Ġordin": 1775,
      "Ġmagasin": 1776,
      "ustralie": 1777,
      "run": 1778,
      "uc": 1779,
      "Ġlait": 1780,
      "oise": 1781,
      "Ġfus": 1782,
      "Ġbal": 1783,
      "Ġbat": 1784,
      "Ġris": 1785,
      "Ġaurait": 1786,
      "ttez": 1787,
      "ĠÃ©le": 1788,
      "Ġferai": 1789,
      "Ġgarder": 1790,
      "Ġguerre": 1791,
      "Ġfasse": 1792,
      "ĠprÃªte": 1793,
      "Ġail": 1794,
      "Ġconsci": 1795,
      "Ġtennis": 1796,
      "ĠboÃ®te": 1797,
      "Ġpol": 1798,
      "Ġcent": 1799,
      "Ġceux": 1800,
      "Ġfont": 1801,
      "ĠbiÃ¨re": 1802,
      "Ġvoudriez": 1803,
      "Ġutiliser": 1804,
      "Ġval": 1805,
      "siez": 1806,
      "Ġautor": 1807,
      "ĠprÃ©fÃ¨re": 1808,
      "Ġrouge": 1809,
      "Ġneige": 1810,
      "et": 1811,
      "gr": 1812,
      "Ġmor": 1813,
      "Ġsug": 1814,
      "ect": 1815,
      "lation": 1816,
      "ensÃ©": 1817,
      "ĠarrÃªter": 1818,
      "Ġdispose": 1819,
      "Ġrestaurant": 1820,
      "ze": 1821,
      "Ġress": 1822,
      "ĠreÃ§u": 1823,
      "oth": 1824,
      "Ġperd": 1825,
      "Ġaffaire": 1826,
      "Ġplaisir": 1827,
      "Ġsituation": 1828,
      "Ġdroit": 1829,
      "Ã©p": 1830,
      "Ã©rer": 1831,
      "Ġrobe": 1832,
      "ague": 1833,
      "ecti": 1834,
      "accident": 1835,
      "Ġlibre": 1836,
      "Ġdonnez": 1837,
      "intention": 1838,
      "Ġaffaires": 1839,
      "Ġstupide": 1840,
      "00": 1841,
      "zar": 1842,
      "Ġ\"": 1843,
      "Ã¨que": 1844,
      "Ġsuper": 1845,
      "Ġparlez": 1846,
      "uite": 1847,
      "ĠrÃ©al": 1848,
      "appr": 1849,
      "Ġpleurer": 1850,
      "Ġnombreuses": 1851,
      "ces": 1852,
      "ense": 1853,
      "Ġrue": 1854,
      "Ġtrente": 1855,
      "Ġintel": 1856,
      "Ġpermis": 1857,
      "Ġfinir": 1858,
      "ĠfaÃ§on": 1859,
      "Ġdollars": 1860,
      "ĠdÃ©couv": 1861,
      "iversaire": 1862,
      "Ġdonc": 1863,
      "oudre": 1864,
      "Ġsel": 1865,
      "ouss": 1866,
      "ĠaimÃ©": 1867,
      "Ġveulent": 1868,
      "Ġposer": 1869,
      "Ġjard": 1870,
      "Ġban": 1871,
      "ormais": 1872,
      "Ġbras": 1873,
      "Ġexpli": 1874,
      "Ġparfois": 1875,
      "Ġsignif": 1876,
      "iques": 1877,
      "Ġait": 1878,
      "Ġnoir": 1879,
      "Ġquatre": 1880,
      "ises": 1881,
      "Ġlequel": 1882,
      "Ġtromp": 1883,
      "Ġsix": 1884,
      "Ġvoulu": 1885,
      "ĠdÃ©sormais": 1886,
      "arrÃªter": 1887,
      "Ġreconnaiss": 1888,
      "ball": 1889,
      "Ġrendu": 1890,
      "Ġdicti": 1891,
      "Ġentrer": 1892,
      "Ġfaisait": 1893,
      "Ġremar": 1894,
      "Ġlundi": 1895,
      "Ġ2": 1896,
      "raient": 1897,
      "Ġrapport": 1898,
      "ĠrÃ©soudre": 1899,
      "Ġporter": 1900,
      "histoire": 1901,
      "Ġeux": 1902,
      "Ġrav": 1903,
      "col": 1904,
      "Ġpubli": 1905,
      "ĠchangÃ©": 1906,
      "Ġfilles": 1907,
      "Ġcadeau": 1908,
      "Ġintelligent": 1909,
      "teur": 1910,
      "Ã©m": 1911,
      "Ġsole": 1912,
      "Ã¨ne": 1913,
      "Ġremp": 1914,
      "Ġdevant": 1915,
      "Ġimag": 1916,
      "Ġmenti": 1917,
      "blie": 1918,
      "Ġdange": 1919,
      "Ġsoleil": 1920,
      "ĠdÃ¨s": 1921,
      "ĠvÃ©ri": 1922,
      "Ġmante": 1923,
      "Ġprin": 1924,
      "cip": 1925,
      "ĠgÃ¢teau": 1926,
      "Ġsouff": 1927,
      "Ġprudent": 1928,
      "Ġdimanche": 1929,
      "Ġjardin": 1930,
      "Ã«": 1931,
      "ĠmarchÃ©": 1932,
      "Ġgarde": 1933,
      "Ġrire": 1934,
      "Ġsouhait": 1935,
      "Ġsatisfait": 1936,
      "ĠlumiÃ¨re": 1937,
      "Ġdictionnaire": 1938,
      "gt": 1939,
      "Ġsoup": 1940,
      "Ġay": 1941,
      "Ġriv": 1942,
      "Ã©trang": 1943,
      "aines": 1944,
      "ĠannÃ©e": 1945,
      "ĠdiffÃ©rent": 1946,
      "Ġmourir": 1947,
      "Ġtype": 1948,
      "Ġsuffisamment": 1949,
      "gÃ©e": 1950,
      "Ġdoi": 1951,
      "Ġtrad": 1952,
      "Ġcuisine": 1953,
      "ieurs": 1954,
      "ĠvÃªte": 1955,
      "Ġfurent": 1956,
      "Ġplain": 1957,
      "irÃ©": 1958,
      "Ġign": 1959,
      "Ġdesc": 1960,
      "Ġaimer": 1961,
      "Ġvenez": 1962,
      "ĠconnaÃ®t": 1963,
      "tron": 1964,
      "Ġpian": 1965,
      "Ġamies": 1966,
      "Ġpromen": 1967,
      "ĠvÃ©rif": 1968,
      "Ġmanteau": 1969,
      "Ġ3": 1970,
      "Ġtruc": 1971,
      "tures": 1972,
      "Ġplage": 1973,
      "Ġhum": 1974,
      "Ġdemanda": 1975,
      "Ġfinalement": 1976,
      "oids": 1977,
      "Ġcarte": 1978,
      "Ġbizar": 1979,
      "rÃ©s": 1980,
      "Ġfleurs": 1981,
      "Ġplusieurs": 1982,
      "dic": 1983,
      "Ġaccident": 1984,
      "Ġemprun": 1985,
      "Ġrendez": 1986,
      "Ġmoindre": 1987,
      "Ġmots": 1988,
      "ĠÃ©tudiants": 1989,
      "mar": 1990,
      "Ġsil": 1991,
      "Ġni": 1992,
      "entendre": 1993,
      "Ġrat": 1994,
      "cieux": 1995,
      "Ġseriez": 1996,
      "Ġmesure": 1997,
      "blioth": 1998,
      "Ġexcuses": 1999,
      "Ġeffr": 2000,
      "Ġbiblioth": 2001,
      "Ġcapable": 2002,
      "Ġsugg": 2003,
      "Ã«l": 2004,
      "dess": 2005,
      "ets": 2006,
      "Ġtasse": 2007,
      "Ġmets": 2008,
      "agn": 2009,
      "ĠrÃ©ussi": 2010,
      "ĠnoÃ«l": 2011,
      "Ġvieille": 2012,
      "Ġmeilleure": 2013,
      "xi": 2014,
      "onte": 2015,
      "Ġbate": 2016,
      "Ã¨ve": 2017,
      "tique": 2018,
      "emb": 2019,
      "illÃ©e": 2020,
      "ĠvÃªtements": 2021,
      "ky": 2022,
      "oubli": 2023,
      "Ã©v": 2024,
      "Ġcam": 2025,
      "Ġhommes": 2026,
      "ĠdÃ©g": 2027,
      "ression": 2028,
      "Ġenvir": 2029,
      "Ġfemmes": 2030,
      "ĠintÃ©ressant": 2031,
      "ĠannÃ©es": 2032,
      "Ġvaut": 2033,
      "Ġmit": 2034,
      "Ġsucc": 2035,
      "Ġremerci": 2036,
      "Ġhor": 2037,
      "Ġhaut": 2038,
      "ĠprÃ©par": 2039,
      "Ġsurprise": 2040,
      "Ġminute": 2041,
      "Ġpluie": 2042,
      "hÃ´pital": 2043,
      "Ġci": 2044,
      "Ġbar": 2045,
      "Ġchiens": 2046,
      "ortÃ©": 2047,
      "Ġanim": 2048,
      "Ġferiez": 2049,
      "Ġaband": 2050,
      "Ġquitter": 2051,
      "ĠbibliothÃ¨que": 2052,
      "Ġcess": 2053,
      "Ġmen": 2054,
      "ĠbÃ¢": 2055,
      "Ġvoici": 2056,
      "Ġembr": 2057,
      "Ġrepas": 2058,
      "acheter": 2059,
      "Ġordinateur": 2060,
      "Ġtelle": 2061,
      "Ġrepos": 2062,
      "irai": 2063,
      "ĠrÃ©g": 2064,
      "olu": 2065,
      "ĠrÃªve": 2066,
      "aff": 2067,
      "od": 2068,
      "Ġsuite": 2069,
      "Ġparl": 2070,
      "Ġhonn": 2071,
      "ĠrÃ©jou": 2072,
      "ĠÃ©quipe": 2073,
      "Ġsembl": 2074,
      "Ġregre": 2075,
      "Ġcourt": 2076,
      "Ġcompris": 2077,
      "Ġsty": 2078,
      "Ġsommeil": 2079,
      "Ġbizarre": 2080,
      "Ġbateau": 2081,
      "iÃ¨res": 2082,
      "Ġliste": 2083,
      "Ġcoin": 2084,
      "Ġpauv": 2085,
      "inÃ©": 2086,
      "Ġtrait": 2087,
      "Ġhors": 2088,
      "Ġserez": 2089,
      "ĠamÃ©ri": 2090,
      "Ġappare": 2091,
      "Ġentend": 2092,
      "Ġimpati": 2093,
      "ĠrÃ©parer": 2094,
      "cÃ©e": 2095,
      "oche": 2096,
      "ta": 2097,
      "ann": 2098,
      "lem": 2099,
      "Ġbas": 2100,
      "ĠrÃ©uss": 2101,
      "ĠÃ©te": 2102,
      "Ġferme": 2103,
      "Ġprison": 2104,
      "essayer": 2105,
      "ĠsuccÃ¨s": 2106,
      "az": 2107,
      "ris": 2108,
      "Ġvendre": 2109,
      "iles": 2110,
      "unes": 2111,
      "Ġprojet": 2112,
      "ĠvolÃ©": 2113,
      "ĠÃ©cole": 2114,
      "ĠcrÃ©": 2115,
      "ĠpayÃ©": 2116,
      "attends": 2117,
      "Ġouvert": 2118,
      "Ġcorre": 2119,
      "Ġplupart": 2120,
      "Ġinform": 2121,
      "ilitÃ©": 2122,
      "Ġba": 2123,
      "Ġsus": 2124,
      "onter": 2125,
      "Ġdiv": 2126,
      "prit": 2127,
      "Ġimpressi": 2128,
      "eusement": 2129,
      "Ġgentil": 2130,
      "ĠgÃ©nÃ©r": 2131,
      "Ġdangereux": 2132,
      "Ġpiano": 2133,
      "vre": 2134,
      "enez": 2135,
      "Ġcu": 2136,
      "Ġface": 2137,
      "Ã©tud": 2138,
      "ĠgoÃ»": 2139,
      "Ġgrosse": 2140,
      "Ġfaute": 2141,
      "ĠriviÃ¨re": 2142,
      "ice": 2143,
      "Ġpor": 2144,
      "Ġpoids": 2145,
      "ĠnÃ©": 2146,
      "oign": 2147,
      "Ġavoc": 2148,
      "Ġpersonn": 2149,
      "autres": 2150,
      "Ġcontac": 2151,
      "Ã©rience": 2152,
      "Ġactu": 2153,
      "Ġmanque": 2154,
      "Ġregardez": 2155,
      "attendre": 2156,
      "ĠinvitÃ©": 2157,
      "ĠarrÃªtez": 2158,
      "Ġmoyen": 2159,
      "oue": 2160,
      "Ġneu": 2161,
      "Ġmens": 2162,
      "Ġrecher": 2163,
      "Ġquels": 2164,
      "Ġdanser": 2165,
      "prise": 2166,
      "ĠrestÃ©": 2167,
      "Ġvenue": 2168,
      "ult": 2169,
      "ĠrÃ¨gles": 2170,
      "Ġlunettes": 2171,
      "opp": 2172,
      "vÃ©n": 2173,
      "Ġjo": 2174,
      "reuse": 2175,
      "Ġjeu": 2176,
      "Ġlar": 2177,
      "Ġrh": 2178,
      "Ġguit": 2179,
      "Ġsecon": 2180,
      "ĠallÃ©e": 2181,
      "convÃ©n": 2182,
      "Ġtenir": 2183,
      "Ġaimez": 2184,
      "Ġnerv": 2185,
      "Ġprit": 2186,
      "Ġparap": 2187,
      "utile": 2188,
      "Ġdonna": 2189,
      "ĠÃ©trange": 2190,
      "ĠbÃ¢ti": 2191,
      "convÃ©nient": 2192,
      "Ġpommes": 2193,
      "Ġsoci": 2194,
      "Ġat": 2195,
      "Ã¨de": 2196,
      "rible": 2197,
      "ĠhÃ´": 2198,
      "Ġfera": 2199,
      "exc": 2200,
      "ĠmÃ©dic": 2201,
      "Ġchange": 2202,
      "ĠtombÃ©": 2203,
      "Ġdormi": 2204,
      "Ġdurant": 2205,
      "Ġcertains": 2206,
      "Ġdanger": 2207,
      "Ġpleuvoir": 2208,
      "dessus": 2209,
      "Ġpouss": 2210,
      "Ġatte": 2211,
      "Ġmin": 2212,
      "Ġmien": 2213,
      "era": 2214,
      "diot": 2215,
      "Ġoncle": 2216,
      "tenu": 2217,
      "ĠregardÃ©": 2218,
      "ĠgagnÃ©": 2219,
      "Ġtoky": 2220,
      "Ġparviens": 2221,
      "Ã©tranger": 2222,
      "Ġtokyo": 2223,
      "Ġform": 2224,
      "sions": 2225,
      "Ġsurv": 2226,
      "ĠrÃ©sult": 2227,
      "Ġendorm": 2228,
      "Ġdirait": 2229,
      "ĠsÃ©rieux": 2230,
      "Ġradio": 2231,
      "Ġsymp": 2232,
      "Ġamoureux": 2233,
      "Ġeffray": 2234,
      "Ġtim": 2235,
      "Ġbu": 2236,
      "orais": 2237,
      "Ġcho": 2238,
      "auche": 2239,
      "oindre": 2240,
      "Ġrestez": 2241,
      "Ġfermer": 2242,
      "Ġposs": 2243,
      "Ġautour": 2244,
      "ĠallÃ©s": 2245,
      "Ġparfait": 2246,
      "des": 2247,
      "mment": 2248,
      "Ġpop": 2249,
      "Ã©ch": 2250,
      "itique": 2251,
      "ari": 2252,
      "Ġpress": 2253,
      "Ġdevenu": 2254,
      "Ġtableau": 2255,
      "Ġpoisson": 2256,
      "cer": 2257,
      "da": 2258,
      "Ġmou": 2259,
      "Ġmess": 2260,
      "Ġlever": 2261,
      "Ġtran": 2262,
      "Ġchats": 2263,
      "Ġaurais": 2264,
      "rice": 2265,
      "alitÃ©": 2266,
      "titut": 2267,
      "ĠgarÃ§ons": 2268,
      "Ġviendra": 2269,
      "Ġfonctionne": 2270,
      "ĠrÃ©jouis": 2271,
      "Ġtel": 2272,
      "Ġmign": 2273,
      "Ġfav": 2274,
      "Ġbord": 2275,
      "Ġgla": 2276,
      "Ġsec": 2277,
      "tÃ©s": 2278,
      "Ġmach": 2279,
      "atique": 2280,
      "Ã©rÃ©e": 2281,
      "ĠconnaÃ®tre": 2282,
      "Ã©crire": 2283,
      "Ġconstr": 2284,
      "Ġcherche": 2285,
      "Ġrappeler": 2286,
      "Ġrecomm": 2287,
      "Ġphotos": 2288,
      "ĠÃ©pous": 2289,
      "Ġconvaincu": 2290,
      "Ġroman": 2291,
      "Ġcli": 2292,
      "Ġaustralie": 2293,
      "Ġble": 2294,
      "iti": 2295,
      "tions": 2296,
      "Ġmarche": 2297,
      "veille": 2298,
      "Ġcomprend": 2299,
      "Ġessaie": 2300,
      "ĠdÃ©test": 2301,
      "Ġsimple": 2302,
      "instant": 2303,
      "Ġproposition": 2304,
      "Ġcheval": 2305,
      "luie": 2306,
      "Ġparapluie": 2307,
      "dans": 2308,
      "quis": 2309,
      "Ġrends": 2310,
      "avion": 2311,
      "asion": 2312,
      "amour": 2313,
      "Ġextr": 2314,
      "Ġviande": 2315,
      "Ġcourant": 2316,
      "imag": 2317,
      "ĠcoÃ»te": 2318,
      "Ġappareil": 2319,
      "oublie": 2320,
      "ĠcassÃ©": 2321,
      "erais": 2322,
      "let": 2323,
      "Ġbonnes": 2324,
      "Ġtriste": 2325,
      "alent": 2326,
      "ira": 2327,
      "lier": 2328,
      "urg": 2329,
      "iver": 2330,
      "Ġattent": 2331,
      "Ġimpos": 2332,
      "Ġpire": 2333,
      "Ġvoyager": 2334,
      "ĠfatiguÃ©e": 2335,
      "ĠdÃ©but": 2336,
      "Ġpapier": 2337,
      "Ġz": 2338,
      "Ġpou": 2339,
      "Ã©ci": 2340,
      "ĠprÃªter": 2341,
      "Ġaviez": 2342,
      "Ġpard": 2343,
      "appeler": 2344,
      "Ġpein": 2345,
      "Ġbout": 2346,
      "dÃ©jeuner": 2347,
      "Ġsentir": 2348,
      "ĠprÃ©fÃ©": 2349,
      "Ġconseils": 2350,
      "ĠÃ©tudiant": 2351,
      "Ġsalle": 2352,
      "ĠclÃ©s": 2353,
      "Ġdessus": 2354,
      "Ġressemble": 2355,
      "gment": 2356,
      "uve": 2357,
      "Ġdoute": 2358,
      "Ġpatron": 2359,
      "oie": 2360,
      "Ġtrans": 2361,
      "Ġidiot": 2362,
      "olie": 2363,
      "appelle": 2364,
      "ĠprÃ©c": 2365,
      "ĠprÃ©p": 2366,
      "nement": 2367,
      "Ġpleut": 2368,
      "ancer": 2369,
      "ĠprÃ©fÃ©rÃ©": 2370,
      "ĠprÃ©senter": 2371,
      "Ġennuy": 2372,
      "Ġrhume": 2373,
      "Ġtranqu": 2374,
      "Ġnature": 2375,
      "Ġfo": 2376,
      "entends": 2377,
      "euses": 2378,
      "cev": 2379,
      "ales": 2380,
      "Ġproche": 2381,
      "Ġdispar": 2382,
      "Ġvoix": 2383,
      "Ġcamp": 2384,
      "ĠspÃ©ci": 2385,
      "Ġsouhaite": 2386,
      "ĠtempÃªte": 2387,
      "Ġpublic": 2388,
      "Ġbase": 2389,
      "ctement": 2390,
      "Ġvend": 2391,
      "Ġrare": 2392,
      "inion": 2393,
      "Ġchante": 2394,
      "Ġasse": 2395,
      "Ġseras": 2396,
      "ĠÃ©cl": 2397,
      "Ġallait": 2398,
      "Ġsupporter": 2399,
      "Ġmariage": 2400,
      "ĠhonnÃªte": 2401,
      "Ġfoot": 2402,
      "pt": 2403,
      "ĠlÃ©": 2404,
      "Ġmur": 2405,
      "Ġfl": 2406,
      "Ġlac": 2407,
      "Ġbons": 2408,
      "ines": 2409,
      "arti": 2410,
      "Ġparles": 2411,
      "ĠÃ©tats": 2412,
      "ĠaidÃ©": 2413,
      "Ġindi": 2414,
      "Ġconsid": 2415,
      "ĠdÃ©pÃª": 2416,
      "Ġpromis": 2417,
      "Ġchemise": 2418,
      "Ġanniversaire": 2419,
      "Ġrespec": 2420,
      "ĠÃ©galement": 2421,
      "Ġpieds": 2422,
      "Ġcanad": 2423,
      "Ġguitare": 2424,
      "ible": 2425,
      "oÃ¹": 2426,
      "raÃ®": 2427,
      "Ġaf": 2428,
      "oite": 2429,
      "ites": 2430,
      "inf": 2431,
      "Ġtuer": 2432,
      "Ġmarier": 2433,
      "Ġmalad": 2434,
      "Ġcompter": 2435,
      "Ġtaxi": 2436,
      "Ġcourir": 2437,
      "Ġpleur": 2438,
      "examen": 2439,
      "ĠdrÃ´le": 2440,
      "Ġsignifie": 2441,
      "Ġpauvre": 2442,
      "aprÃ¨s": 2443,
      "st": 2444,
      "ĠlÃ¢": 2445,
      "Ġvent": 2446,
      "Ġjeunes": 2447,
      "Ġtri": 2448,
      "ĠtuÃ©": 2449,
      "sident": 2450,
      "ĠÃ©criv": 2451,
      "ignorais": 2452,
      "Ġvoyez": 2453,
      "Ġcertaines": 2454,
      "Ġmachine": 2455,
      "irer": 2456,
      "Ġdos": 2457,
      "Ã©li": 2458,
      "Ġcir": 2459,
      "unis": 2460,
      "ĠdÃ©v": 2461,
      "ĠtravaillÃ©": 2462,
      "oyable": 2463,
      "Ġmalheure": 2464,
      "Ġattendu": 2465,
      "Ġcontente": 2466,
      "mÃ©n": 2467,
      "ĠconseillÃ©": 2468,
      "Ġdiscours": 2469,
      "Ġcertainement": 2470,
      "Ġmessage": 2471,
      "Ġtiens": 2472,
      "Ġcer": 2473,
      "Ġnav": 2474,
      "ĠnÃ©g": 2475,
      "univers": 2476,
      "Ġsavons": 2477,
      "ences": 2478,
      "illage": 2479,
      "ĠmariÃ©": 2480,
      "attendais": 2481,
      "Ġconscience": 2482,
      "gan": 2483,
      "orer": 2484,
      "ront": 2485,
      "tres": 2486,
      "Ġsk": 2487,
      "Ġfas": 2488,
      "art": 2489,
      "Ġsucre": 2490,
      "Ġpriv": 2491,
      "Ġchaise": 2492,
      "Ġgri": 2493,
      "iennent": 2494,
      "Ã¨rement": 2495,
      "Ġcru": 2496,
      "Ġparticu": 2497,
      "Ġsemb": 2498,
      "Ġretourner": 2499,
      "Ġsentiment": 2500,
      "Ġcontinuer": 2501,
      "Ġselon": 2502,
      "Ġanimaux": 2503,
      "ĠbÃ¢timent": 2504,
      "ĠmÃ©dica": 2505,
      "aÃ¯": 2506,
      "Ġus": 2507,
      "Ġtaille": 2508,
      "ĠcensÃ©": 2509,
      "Ġsci": 2510,
      "onge": 2511,
      "quÃ©e": 2512,
      "Ġnul": 2513,
      "Ġforte": 2514,
      "isÃ©e": 2515,
      "Ġaugment": 2516,
      "Ġfruit": 2517,
      "Ġgroup": 2518,
      "ĠpassÃ©e": 2519,
      "Ã©cou": 2520,
      "Ġconduis": 2521,
      "Ġcoucher": 2522,
      "Ġappeler": 2523,
      "Ġpropres": 2524,
      "Ġamusant": 2525,
      "Ġenseignant": 2526,
      "Ġmilli": 2527,
      "Ġsusp": 2528,
      "Ġavocat": 2529,
      "Ġimpossible": 2530,
      "Ġoise": 2531,
      "enne": 2532,
      "Ġsang": 2533,
      "ĠmÃ©t": 2534,
      "erte": 2535,
      "Ġlev": 2536,
      "Ġchanc": 2537,
      "Ġmec": 2538,
      "Ãªts": 2539,
      "Ġem": 2540,
      "dedans": 2541,
      "Ġcrains": 2542,
      "Ġatta": 2543,
      "trap": 2544,
      "Ġpromets": 2545,
      "issez": 2546,
      "ĠvÃ©cu": 2547,
      "Ġfacilement": 2548,
      "Ġvivent": 2549,
      "Ġconcert": 2550,
      "Ġvingt": 2551,
      "Ġcalme": 2552,
      "ĠdÃ©range": 2553,
      "Ġayez": 2554,
      "Ġstylo": 2555,
      "Ġpai": 2556,
      "Ġbille": 2557,
      "Ġbut": 2558,
      "ĠinconvÃ©nient": 2559,
      "oyons": 2560,
      "Ġpartout": 2561,
      "venue": 2562,
      "Ġsemblez": 2563,
      "Ġdouche": 2564,
      "Ġerreurs": 2565,
      "Ġconnaissez": 2566,
      "ĠsupposÃ©": 2567,
      "ĠcommenÃ§a": 2568,
      "Ġciel": 2569,
      "ĠrÃ©ussir": 2570,
      "Ġseconde": 2571,
      "mÃ©e": 2572,
      "pl": 2573,
      "esprit": 2574,
      "intÃ©rieur": 2575,
      "Ġsuivre": 2576,
      "Ġhonte": 2577,
      "Ġprogr": 2578,
      "ĠprÃ©sident": 2579,
      "Ġboute": 2580,
      "ĠarrÃªt": 2581,
      "Ġsouvenir": 2582,
      "ĠsoirÃ©e": 2583,
      "Ġvisage": 2584,
      "Ġouvrir": 2585,
      "Ġcouleur": 2586,
      "Ġblanc": 2587,
      "Ġemprunter": 2588,
      "Ġenviron": 2589,
      "ah": 2590,
      "elez": 2591,
      "ges": 2592,
      "icul": 2593,
      "ps": 2594,
      "ouÃ©": 2595,
      "Ġcul": 2596,
      "onom": 2597,
      "usse": 2598,
      "tiÃ©": 2599,
      "andÃ©": 2600,
      "ĠÃ©lÃ¨": 2601,
      "Ġvouliez": 2602,
      "Ġsache": 2603,
      "Ġcrav": 2604,
      "Ġcomporte": 2605,
      "ĠbrÃ»": 2606,
      "Ġcherch": 2607,
      "ĠmariÃ©e": 2608,
      "Ġreviend": 2609,
      "ĠdÃ©cider": 2610,
      "Ġaccomp": 2611,
      "ĠsÃ©jour": 2612,
      "Ġrisque": 2613,
      "Ġbanque": 2614,
      "Ġ30": 2615,
      "hier": 2616,
      "aitement": 2617,
      "Ġjolie": 2618,
      "Ġnorm": 2619,
      "isse": 2620,
      "Ġparole": 2621,
      "onnÃ©e": 2622,
      "Ġgouver": 2623,
      "ĠmoitiÃ©": 2624,
      "appel": 2625,
      "Ġsemaines": 2626,
      "ulaire": 2627,
      "ĠdiffÃ©rence": 2628,
      "expli": 2629,
      "hÃ´tel": 2630,
      "Ġneuf": 2631,
      "lui": 2632,
      "Ġdents": 2633,
      "Ġdoc": 2634,
      "aign": 2635,
      "Ġsors": 2636,
      "itable": 2637,
      "Ã©ter": 2638,
      "onna": 2639,
      "Ġaies": 2640,
      "Ġviol": 2641,
      "ĠÃ©coute": 2642,
      "Ġimpli": 2643,
      "Ġcommun": 2644,
      "ĠmanquÃ©": 2645,
      "ĠdÃ©barr": 2646,
      "Ġdispu": 2647,
      "Ġcopine": 2648,
      "Ġtranquille": 2649,
      "Ġcravate": 2650,
      "ak": 2651,
      "oux": 2652,
      "inqui": 2653,
      "arbre": 2654,
      "Ġchac": 2655,
      "Ġchoue": 2656,
      "Ġavaient": 2657,
      "ĠgÃ©rer": 2658,
      "Ġgauche": 2659,
      "ĠdÃ©mis": 2660,
      "Ġint": 2661,
      "Ġenfin": 2662,
      "Ġdifficul": 2663,
      "Ġseuls": 2664,
      "arriver": 2665,
      "ĠenvoyÃ©": 2666,
      "Ġopinion": 2667,
      "ĠcÃ©lÃ¨": 2668,
      "enseign": 2669,
      "Ġignor": 2670,
      "Ġmorte": 2671,
      "Ġauriez": 2672,
      "Ġmettez": 2673,
      "chÃ©e": 2674,
      "rier": 2675,
      "Ġdieu": 2676,
      "Ġarbre": 2677,
      "Ġappelle": 2678,
      "ordin": 2679,
      "ĠdÃ©tail": 2680,
      "Ġmerveille": 2681,
      "ĠmontrÃ©": 2682,
      "Ġfiche": 2683,
      "empl": 2684,
      "Ġincr": 2685,
      "ĠprÃ©vu": 2686,
      "ĠrÃ©flÃ©chir": 2687,
      "Ġresponsable": 2688,
      "Ġportes": 2689,
      "Ġactuellement": 2690,
      "dÃ©es": 2691,
      "Ġcoute": 2692,
      "qua": 2693,
      "Ġmille": 2694,
      "rib": 2695,
      "apÃ©": 2696,
      "Ġsoud": 2697,
      "impression": 2698,
      "Ġrefus": 2699,
      "ĠcinÃ©m": 2700,
      "lication": 2701,
      "Ġnettoyer": 2702,
      "Ġsilen": 2703,
      "ĠhÃ´tel": 2704,
      "gie": 2705,
      "men": 2706,
      "rob": 2707,
      "Ġlente": 2708,
      "omb": 2709,
      "Ġnew": 2710,
      "Ġreme": 2711,
      "Ã©rop": 2712,
      "asses": 2713,
      "Ġpossi": 2714,
      "umeur": 2715,
      "Ġessayez": 2716,
      "Ġador": 2717,
      "Ġdouleur": 2718,
      "Ġlangues": 2719,
      "Ġsport": 2720,
      "Ġtoile": 2721,
      "ĠÅĵil": 2722,
      "Ġbattre": 2723,
      "Ġreconnaissant": 2724,
      "Ġremercier": 2725,
      "Ġgroupe": 2726,
      "dez": 2727,
      "ufs": 2728,
      "Ġdort": 2729,
      "Ġloi": 2730,
      "Ġmeur": 2731,
      "Ġbain": 2732,
      "intÃ©": 2733,
      "inter": 2734,
      "Ġvoil": 2735,
      "Ġferait": 2736,
      "Ġcompagn": 2737,
      "ick": 2738,
      "Ġvieil": 2739,
      "Ġmontagne": 2740,
      "Ġobtenu": 2741,
      "ĠapprÃ©ciÃ©": 2742,
      "ĠobligÃ©": 2743,
      "Ġhabituellement": 2744,
      "Ġpromenade": 2745,
      "ĠsociÃ©tÃ©": 2746,
      "Ġrarement": 2747,
      "ĠcinÃ©ma": 2748,
      "Ã©roport": 2749,
      "bout": 2750,
      "los": 2751,
      "oque": 2752,
      "oles": 2753,
      "pÃ¨re": 2754,
      "ĠlÃ¨ve": 2755,
      "rerais": 2756,
      "Ġdebout": 2757,
      "ork": 2758,
      "Ġretr": 2759,
      "rÃ©able": 2760,
      "ĠfermÃ©": 2761,
      "Ġlongue": 2762,
      "Ġpromesse": 2763,
      "Ġportait": 2764,
      "Ġgagne": 2765,
      "Ġimportante": 2766,
      "Ġverrou": 2767,
      "Ġfallait": 2768,
      "ĠvÃ©rifier": 2769,
      "ĠamÃ©ric": 2770,
      "Ġdocteur": 2771,
      "iment": 2772,
      "iÃ¨me": 2773,
      "enn": 2774,
      "Ġly": 2775,
      "Ġquant": 2776,
      "cier": 2777,
      "ĠsiÃ¨": 2778,
      "atif": 2779,
      "Ġdisent": 2780,
      "cule": 2781,
      "Ã®mes": 2782,
      "ĠrÃ©pondu": 2783,
      "Ġconfecti": 2784,
      "Ġcelles": 2785,
      "Ġadresse": 2786,
      "Ġmentir": 2787,
      "ĠÃ©chec": 2788,
      "Ġmorce": 2789,
      "Ġfaveur": 2790,
      "Ġafin": 2791,
      "Ġchacun": 2792,
      "gÃ©s": 2793,
      "hn": 2794,
      "na": 2795,
      "ude": 2796,
      "Ġutile": 2797,
      "Ġdent": 2798,
      "Ġnu": 2799,
      "Ġmord": 2800,
      "erait": 2801,
      "Ġfol": 2802,
      "ĠprÃªts": 2803,
      "Ġavions": 2804,
      "Ġrevenu": 2805,
      "ĠdÃ©mÃ©n": 2806,
      "ĠrÃ©ellement": 2807,
      "Ġlib": 2808,
      "Ġmanquer": 2809,
      "extÃ©rieur": 2810,
      "Ġouverte": 2811,
      "import": 2812,
      "ĠrentrÃ©": 2813,
      "Ġblague": 2814,
      "Ġprudente": 2815,
      "Ġconseilla": 2816,
      "Ġennuis": 2817,
      "Ġfallu": 2818,
      "ĠvoilÃł": 2819,
      "atu": 2820,
      "ution": 2821,
      "Ġpomme": 2822,
      "Ġdo": 2823,
      "aies": 2824,
      "Ġtient": 2825,
      "Ġve": 2826,
      "Ġmienne": 2827,
      "istes": 2828,
      "Ġren": 2829,
      "Ġchin": 2830,
      "Ġpars": 2831,
      "ĠdÃ©si": 2832,
      "Ġarme": 2833,
      "Ġcompli": 2834,
      "Ġnote": 2835,
      "Ġoui": 2836,
      "arrÃªt": 2837,
      "entretenir": 2838,
      "Ġcorps": 2839,
      "Ġproduire": 2840,
      "empÃªcher": 2841,
      "ĠgoÃ»t": 2842,
      "Ġgouvernement": 2843,
      "ĠcÃ©lÃ¨bre": 2844,
      "Ġincroyable": 2845,
      "ach": 2846,
      "aÃ©roport": 2847,
      "Ġpont": 2848,
      "Ã©qu": 2849,
      "Ġjoindre": 2850,
      "Ġfond": 2851,
      "Ġbag": 2852,
      "Ġavion": 2853,
      "avis": 2854,
      "ĠdÃ©Ã§u": 2855,
      "amb": 2856,
      "ectu": 2857,
      "Ġcray": 2858,
      "ĠentiÃ¨re": 2859,
      "Ġvide": 2860,
      "Ġconnu": 2861,
      "Ġvisiter": 2862,
      "Ġclaire": 2863,
      "ĠintÃ©ressÃ©": 2864,
      "ondres": 2865,
      "Ġespoir": 2866,
      "Ġvolont": 2867,
      "Ġchoisir": 2868,
      "ĠrÃ©veillÃ©": 2869,
      "Ġmoyens": 2870,
      "Ġorgan": 2871,
      "embr": 2872,
      "Ġnerveux": 2873,
      "Ġglace": 2874,
      "Ġmaladie": 2875,
      "universitÃ©": 2876,
      "Ġbouteille": 2877,
      "Ġchouette": 2878,
      "neu": 2879,
      "Ġ5": 2880,
      "Ġeur": 2881,
      "Ġloc": 2882,
      "Ġlondres": 2883,
      "Ġtot": 2884,
      "Ġjal": 2885,
      "quie": 2886,
      "ĠmÃ©ri": 2887,
      "Ġpare": 2888,
      "Ġpati": 2889,
      "Ġpatient": 2890,
      "Ġfai": 2891,
      "Ġsub": 2892,
      "anter": 2893,
      "Ġrej": 2894,
      "Ġrevenir": 2895,
      "ĠdÃ©li": 2896,
      "Ġdipl": 2897,
      "ange": 2898,
      "Ġmarch": 2899,
      "Ġdise": 2900,
      "Ġgrav": 2901,
      "Ġattends": 2902,
      "Ġeut": 2903,
      "Ġmatch": 2904,
      "Ġconduit": 2905,
      "Ġhabite": 2906,
      "ĠrencontrÃ©s": 2907,
      "ĠprÃ©vois": 2908,
      "Ġsourire": 2909,
      "occuper": 2910,
      "Ġsemblait": 2911,
      "ĠdÃ©missi": 2912,
      "Ġlentement": 2913,
      "Ġdest": 2914,
      "Ġsc": 2915,
      "Ġfrais": 2916,
      "ination": 2917,
      "Ġens": 2918,
      "rig": 2919,
      "Ãªmes": 2920,
      "ĠprotÃ©": 2921,
      "Ġinqui": 2922,
      "Ã´tre": 2923,
      "Ġseront": 2924,
      "Ġperme": 2925,
      "ĠÃ©tudiÃ©": 2926,
      "cteur": 2927,
      "Ġcuisiner": 2928,
      "ĠespÃ©r": 2929,
      "ĠcanapÃ©": 2930,
      "Ġressent": 2931,
      "Ġdivor": 2932,
      "Ġcuri": 2933,
      "Ġjohn": 2934,
      "ĠextrÃªme": 2935,
      "Ġcouteau": 2936,
      "off": 2937,
      "romp": 2938,
      "Ġdomm": 2939,
      "Ġcouv": 2940,
      "Ġpause": 2941,
      "entend": 2942,
      "Ġpourrions": 2943,
      "tir": 2944,
      "ĠrÃ©c": 2945,
      "atiques": 2946,
      "assÃ©e": 2947,
      "Ġbouton": 2948,
      "ĠdÃ©pend": 2949,
      "Ġadore": 2950,
      "Ġparfaitement": 2951,
      "Ġattendez": 2952,
      "ĠsÃ©rieusement": 2953,
      "Ġressemb": 2954,
      "ĠdÃ©couvert": 2955,
      "Ġravi": 2956,
      "ĠprÃ©fÃ©rerais": 2957,
      "Ã©couter": 2958,
      "bes": 2959,
      "dis": 2960,
      "obre": 2961,
      "Ġtrem": 2962,
      "Ġtick": 2963,
      "Ġvienne": 2964,
      "Ġfant": 2965,
      "Ġlaver": 2966,
      "Ġparis": 2967,
      "Ġquelles": 2968,
      "lerai": 2969,
      "Ġamb": 2970,
      "Ġcroy": 2971,
      "Ġseules": 2972,
      "abilitÃ©": 2973,
      "Ġfaisais": 2974,
      "ĠtombÃ©e": 2975,
      "Ġforme": 2976,
      "Ġinstant": 2977,
      "Ġconcent": 2978,
      "Ġterminer": 2979,
      "ĠquittÃ©": 2980,
      "raph": 2981,
      "Ġdirai": 2982,
      "oubliez": 2983,
      "Ġendormi": 2984,
      "tituteur": 2985,
      "Ġnulle": 2986,
      "Ġpre": 2987,
      "Ġpain": 2988,
      "Ġdate": 2989,
      "Ġvillage": 2990,
      "aurai": 2991,
      "Ġmet": 2992,
      "iennes": 2993,
      "Ġquelconque": 2994,
      "ĠidÃ©es": 2995,
      "Ġvoler": 2996,
      "accep": 2997,
      "Ġinquie": 2998,
      "Ġfrance": 2999,
      "olog": 3000,
      "Ġheureuses": 3001,
      "Ġlim": 3002,
      "Ġnouveaux": 3003,
      "Ġsold": 3004,
      "Ġaimeriez": 3005,
      "ĠprÃ©parÃ©": 3006,
      "Ġcontact": 3007,
      "ĠprÃ©parer": 3008,
      "Ġpossib": 3009,
      "ime": 3010,
      "mbre": 3011,
      "oli": 3012,
      "port": 3013,
      "sons": 3014,
      "ĠpÃ©n": 3015,
      "Ġlour": 3016,
      "Ġtend": 3017,
      "ĠprÃªtes": 3018,
      "Ġplac": 3019,
      "asp": 3020,
      "ath": 3021,
      "Ġaimerais": 3022,
      "ĠÃ©ve": 3023,
      "raite": 3024,
      "acle": 3025,
      "Ġvoitures": 3026,
      "Ġperte": 3027,
      "ĠarrivÃ©e": 3028,
      "Ġmanqu": 3029,
      "asseoir": 3030,
      "Ġclair": 3031,
      "ĠdÃ©pri": 3032,
      "Ġhabit": 3033,
      "ĠintÃ©ressante": 3034,
      "ĠrefusÃ©": 3035,
      "ĠmusÃ©e": 3036,
      "Ġannu": 3037,
      "Ġsolution": 3038,
      "ĠagrÃ©able": 3039,
      "ĠattrapÃ©": 3040,
      "Ġpolitique": 3041,
      "apprendre": 3042,
      "Ġtrucs": 3043,
      "affaire": 3044,
      "Ġparlons": 3045,
      "Ġsympa": 3046,
      "ĠpossÃ¨de": 3047,
      "Ġattentiv": 3048,
      "cal": 3049,
      "cine": 3050,
      "noc": 3051,
      "Ġpier": 3052,
      "Ġtir": 3053,
      "Ġnez": 3054,
      "Ġsaou": 3055,
      "Ġjambe": 3056,
      "Ġapporte": 3057,
      "essaie": 3058,
      "Ġcourses": 3059,
      "Ã©rir": 3060,
      "Ã©rique": 3061,
      "Ġmath": 3062,
      "Ġprofon": 3063,
      "aimait": 3064,
      "Ġcapit": 3065,
      "Ġconnaissance": 3066,
      "Ġabsent": 3067,
      "Ġchoisi": 3068,
      "envers": 3069,
      "Ġconvaincre": 3070,
      "ĠÃ©couter": 3071,
      "Ġfourn": 3072,
      "Ġregrette": 3073,
      "Ġmensonge": 3074,
      "ĠextrÃªmement": 3075,
      "mon": 3076,
      "tal": 3077,
      "Ã©quipe": 3078,
      "Ġnage": 3079,
      "Ġfaux": 3080,
      "els": 3081,
      "Ġtrah": 3082,
      "Ġpours": 3083,
      "Ġhuit": 3084,
      "ĠdÃ©mar": 3085,
      "ĠÃ©ner": 3086,
      "ĠapportÃ©": 3087,
      "ayez": 3088,
      "Åĵil": 3089,
      "Ġpleine": 3090,
      "ĠsÃ»rs": 3091,
      "Ġsortie": 3092,
      "ĠprÃ©fÃ©rÃ©e": 3093,
      "Ġservice": 3094,
      "Ġdroite": 3095,
      "Ġattraper": 3096,
      "ĠsuggÃ¨re": 3097,
      "Ġcorrectement": 3098,
      "heur": 3099,
      "oo": 3100,
      "Ġcens": 3101,
      "Ġsoyons": 3102,
      "ern": 3103,
      "Ġpron": 3104,
      "orme": 3105,
      "rie": 3106,
      "cid": 3107,
      "ĠdÃ©Ã§": 3108,
      "jets": 3109,
      "ĠfrÃ¨res": 3110,
      "Ġpeint": 3111,
      "Ġligne": 3112,
      "Ġregarda": 3113,
      "ifique": 3114,
      "Ġaccord": 3115,
      "Ġ19": 3116,
      "Ġsentiments": 3117,
      "Ġsoucie": 3118,
      "Ã©tudier": 3119,
      "Ġdisparu": 3120,
      "ĠmÃ©dicament": 3121,
      "Ġfruits": 3122,
      "Ġpaix": 3123,
      "expliquer": 3124,
      "Ġsilencieux": 3125,
      "ĠprotÃ©ger": 3126,
      "lise": 3127,
      "ycle": 3128,
      "ĠlÃ©g": 3129,
      "Ġtalent": 3130,
      "one": 3131,
      "Ġmam": 3132,
      "omas": 3133,
      "itÃ©e": 3134,
      "elopp": 3135,
      "rique": 3136,
      "Ġremettre": 3137,
      "Ġhau": 3138,
      "Ġhas": 3139,
      "ĠhÃ¢te": 3140,
      "Ġdiri": 3141,
      "Ġoct": 3142,
      "Ġinnoc": 3143,
      "Ġart": 3144,
      "Ġserons": 3145,
      "oph": 3146,
      "Ġpermettre": 3147,
      "Ġcommis": 3148,
      "Ġgrands": 3149,
      "ĠdÃ©cÃ©": 3150,
      "Ġcloche": 3151,
      "Ġthomas": 3152,
      "isÃ©ment": 3153,
      "Ġsigne": 3154,
      "ĠÃ©tudie": 3155,
      "ĠgÃ©ni": 3156,
      "expÃ©rience": 3157,
      "Ġaille": 3158,
      "ĠautorisÃ©": 3159,
      "ĠprÃ©cisÃ©ment": 3160,
      "Ġnaturel": 3161,
      "cevoir": 3162,
      "Ġfootball": 3163,
      "Ġensuite": 3164,
      "Ġhasard": 3165,
      "cte": 3166,
      "Ġpaire": 3167,
      "ĠpÃªcher": 3168,
      "Ã©ner": 3169,
      "Ġenc": 3170,
      "tif": 3171,
      "ĠÃ©tat": 3172,
      "Ġdure": 3173,
      "ĠrÃ©d": 3174,
      "ĠÃ©l": 3175,
      "ĠÃ©m": 3176,
      "Ġtrouvait": 3177,
      "rase": 3178,
      "Ġterrible": 3179,
      "Ġcorde": 3180,
      "Ġobtenir": 3181,
      "Ġconvers": 3182,
      "Ġplaisanter": 3183,
      "Ġsauf": 3184,
      "Ġsoient": 3185,
      "ĠfrappÃ©": 3186,
      "Ġracont": 3187,
      "Ġprintemps": 3188,
      "Ġrecherche": 3189,
      "quisition": 3190,
      "ĠÃ©clat": 3191,
      "Ġcircu": 3192,
      "ĠÃ©lÃ¨ves": 3193,
      "Ġcompagnie": 3194,
      "ĠlycÃ©e": 3195,
      "Ġmorceau": 3196,
      "Ġoctobre": 3197,
      "Ã©te": 3198,
      "Ġlou": 3199,
      "ĠfiÃ¨re": 3200,
      "lex": 3201,
      "Ġbour": 3202,
      "Ġbaiss": 3203,
      "Ġavance": 3204,
      "rif": 3205,
      "allais": 3206,
      "Ġsept": 3207,
      "Ġocc": 3208,
      "Ġdevraient": 3209,
      "lÃ©g": 3210,
      "Ã©ra": 3211,
      "Ã©ration": 3212,
      "Ġsavent": 3213,
      "Ġmangez": 3214,
      "Ġassur": 3215,
      "ĠdÃ©ter": 3216,
      "Ġallum": 3217,
      "ĠoccupÃ©s": 3218,
      "Ġexcel": 3219,
      "Ġmorts": 3220,
      "ĠblessÃ©e": 3221,
      "Ġeffort": 3222,
      "Ġeffectu": 3223,
      "ĠhabituÃ©": 3224,
      "ingue": 3225,
      "Ġvalise": 3226,
      "Ġpermission": 3227,
      "lemand": 3228,
      "Ġlarmes": 3229,
      "excuser": 3230,
      "urgence": 3231,
      "ĠspÃ©cial": 3232,
      "dra": 3233,
      "idÃ©e": 3234,
      "lin": 3235,
      "tÃ©e": 3236,
      "vÃ©e": 3237,
      "Ġcand": 3238,
      "isÃ©s": 3239,
      "Ġpratique": 3240,
      "tume": 3241,
      "lÃ©ment": 3242,
      "ĠÃ©n": 3243,
      "lig": 3244,
      "Ġyork": 3245,
      "ative": 3246,
      "ope": 3247,
      "Ġsombre": 3248,
      "Ġsembles": 3249,
      "Ġvenus": 3250,
      "icycle": 3251,
      "Ġretraite": 3252,
      "Ġconsac": 3253,
      "venus": 3254,
      "Ġphrase": 3255,
      "Ġcoupable": 3256,
      "occ": 3257,
      "Ġchef": 3258,
      "Ġvoisins": 3259,
      "ĠforcÃ©": 3260,
      "ĠdÃ©brou": 3261,
      "ĠinvitÃ©s": 3262,
      "Ġabsolu": 3263,
      "Ġcrime": 3264,
      "Ġaccepter": 3265,
      "Ġexpliquer": 3266,
      "Ġdescend": 3267,
      "Ġimpatient": 3268,
      "inform": 3269,
      "Ġbagages": 3270,
      "Ġcandid": 3271,
      "mÃ¨re": 3272,
      "Ġpis": 3273,
      "Ġput": 3274,
      "Ġtap": 3275,
      "Ġcos": 3276,
      "Ġlave": 3277,
      "Ġbicycle": 3278,
      "Ġromp": 3279,
      "Ġrentre": 3280,
      "ĠprÃ©t": 3281,
      "Ġchine": 3282,
      "Ġaiment": 3283,
      "Ġnouvel": 3284,
      "Ġcombat": 3285,
      "ĠrÃ©par": 3286,
      "ĠsÃ»res": 3287,
      "Ġgrandes": 3288,
      "Ġcouper": 3289,
      "Ġtenez": 3290,
      "Ġrefuse": 3291,
      "Ġmagaz": 3292,
      "Ġfoule": 3293,
      "Ġpapa": 3294,
      "enfant": 3295,
      "ĠÅĵufs": 3296,
      "Ġsauver": 3297,
      "Ġballe": 3298,
      "Ġpeinture": 3299,
      "Ġgrimp": 3300,
      "Ġbicyclette": 3301,
      "lÃ©e": 3302,
      "Ġos": 3303,
      "essi": 3304,
      "Ġfum": 3305,
      "ĠlevÃ©": 3306,
      "ingu": 3307,
      "Ġtrac": 3308,
      "tiez": 3309,
      "ĠgÃ¢": 3310,
      "amÃ©rique": 3311,
      "anger": 3312,
      "lions": 3313,
      "ĠcongÃ©": 3314,
      "Ġamen": 3315,
      "Ġpersu": 3316,
      "Ġexam": 3317,
      "Ġriz": 3318,
      "accomp": 3319,
      "Ġjaponaise": 3320,
      "Ġgrossi": 3321,
      "Ġchaude": 3322,
      "Ġcontrari": 3323,
      "ĠrÃªves": 3324,
      "ĠÃ©coutÃ©": 3325,
      "ĠacceptÃ©": 3326,
      "Ġailles": 3327,
      "ĠrÃ©sultats": 3328,
      "ĠlÃ©gu": 3329,
      "Ġbillet": 3330,
      "ribu": 3331,
      "Ġdommage": 3332,
      "Ġattentivement": 3333,
      "ĠdÃ©termin": 3334,
      "australie": 3335,
      "ib": 3336,
      "Ġur": 3337,
      "ĠpÃ¢": 3338,
      "ĠvÃ´tre": 3339,
      "Ġmai": 3340,
      "Ġmir": 3341,
      "Ġmise": 3342,
      "Ġjeter": 3343,
      "Ġfasses": 3344,
      "inv": 3345,
      "indi": 3346,
      "tiÃ¨re": 3347,
      "cien": 3348,
      "amis": 3349,
      "Ġdevais": 3350,
      "Ġpensent": 3351,
      "Ã»mes": 3352,
      "oto": 3353,
      "ĠentrÃ©": 3354,
      "moire": 3355,
      "aband": 3356,
      "Ġpassez": 3357,
      "Ġcacher": 3358,
      "Ġconnaisse": 3359,
      "Ġimporte": 3360,
      "ĠposÃ©": 3361,
      "ĠjouÃ©": 3362,
      "Ġcomprenez": 3363,
      "Ġchaleur": 3364,
      "Ġvoyons": 3365,
      "Ġmauvaises": 3366,
      "ĠexpÃ©rience": 3367,
      "ĠmariÃ©s": 3368,
      "ĠsÅĵurs": 3369,
      "Ġforce": 3370,
      "Ġ10": 3371,
      "Ġprendra": 3372,
      "ĠÃ©chapp": 3373,
      "ĠamusÃ©": 3374,
      "Ġappartement": 3375,
      "Ġsortez": 3376,
      "Ġoffre": 3377,
      "Ġdistance": 3378,
      "Ġrempl": 3379,
      "Ġprincip": 3380,
      "ĠprivÃ©": 3381,
      "Ġcrayon": 3382,
      "ĠmÃ©rite": 3383,
      "ĠdiplÃ´": 3384,
      "Ġpoursui": 3385,
      "Ġabsolument": 3386,
      "eff": 3387,
      "aimes": 3388,
      "ĠtirÃ©": 3389,
      "Ġsain": 3390,
      "ĠnÃ©e": 3391,
      "ĠmÃ©r": 3392,
      "erci": 3393,
      "ĠfÃ¢": 3394,
      "isation": 3395,
      "Ġlett": 3396,
      "Ġbis": 3397,
      "Ġenne": 3398,
      "Ġpla": 3399,
      "cieuse": 3400,
      "Ġeh": 3401,
      "ĠdÃ©jeun": 3402,
      "ection": 3403,
      "ateurs": 3404,
      "Ġore": 3405,
      "Ġpensait": 3406,
      "Ġprisonn": 3407,
      "Ġmatins": 3408,
      "ĠsupplÃ©ment": 3409,
      "Ġpasseport": 3410,
      "Ġvoisin": 3411,
      "ĠvÃ©ritable": 3412,
      "Ġrefaire": 3413,
      "habitu": 3414,
      "Ġvitesse": 3415,
      "Ġconnaissait": 3416,
      "ĠcontrÃ´le": 3417,
      "Ġboisson": 3418,
      "ĠremarquÃ©": 3419,
      "Ġ20": 3420,
      "Ġsoupe": 3421,
      "Ġchocol": 3422,
      "imagine": 3423,
      "Ġprogram": 3424,
      "ĠsiÃ¨ge": 3425,
      "Ġconversation": 3426,
      "occasion": 3427,
      "feu": 3428,
      "ieu": 3429,
      "oti": 3430,
      "Ġpun": 3431,
      "Ġdom": 3432,
      "Ġbuv": 3433,
      "Ġeng": 3434,
      "endie": 3435,
      "Ġaura": 3436,
      "rimer": 3437,
      "Ġgol": 3438,
      "Ġeau": 3439,
      "ĠhÃ©r": 3440,
      "ĠdÃ©rou": 3441,
      "Ġidio": 3442,
      "Ġmarrant": 3443,
      "raign": 3444,
      "prouv": 3445,
      "Ġarbres": 3446,
      "terre": 3447,
      "Ġvraie": 3448,
      "Ġsame": 3449,
      "Ġexamen": 3450,
      "ĠcommandÃ©": 3451,
      "tru": 3452,
      "Ġpartis": 3453,
      "Ġessaya": 3454,
      "Ġmontrez": 3455,
      "Ġtombe": 3456,
      "Ġimm": 3457,
      "Ġobj": 3458,
      "Ġaccro": 3459,
      "Ġdirais": 3460,
      "ĠcoÃ»t": 3461,
      "ĠrÃ¨gle": 3462,
      "ĠgÃ©nÃ©ralement": 3463,
      "ĠrÃ©sultat": 3464,
      "ĠlÃ¢che": 3465,
      "Ġchinois": 3466,
      "ĠentiÃ¨rement": 3467,
      "Ġinquiet": 3468,
      "Ġmaman": 3469,
      "Ġlettres": 3470,
      "grÃ©": 3471,
      "pes": 3472,
      "ĠpÃ©t": 3473,
      "Ġloup": 3474,
      "Ġcous": 3475,
      "Ġcancer": 3476,
      "Ġvus": 3477,
      "illa": 3478,
      "ita": 3479,
      "itions": 3480,
      "Ġsuici": 3481,
      "tur": 3482,
      "aler": 3483,
      "Ġfaits": 3484,
      "Ġopp": 3485,
      "Ġvoleur": 3486,
      "Ġdevait": 3487,
      "ĠrÃ©vÃ©": 3488,
      "ĠÃ©puis": 3489,
      "ĠmaÃ®": 3490,
      "Ġcroit": 3491,
      "Ġcompos": 3492,
      "Ġveuilles": 3493,
      "Ġdemandez": 3494,
      "Ġcompren": 3495,
      "ctions": 3496,
      "Ġrendit": 3497,
      "ĠintÃ©ressÃ©e": 3498,
      "habite": 3499,
      "Ġentreprise": 3500,
      "Ġchauff": 3501,
      "Ġtourne": 3502,
      "Ġsalaire": 3503,
      "ĠthÃ©or": 3504,
      "Ġchansons": 3505,
      "iendra": 3506,
      "Ġmilieu": 3507,
      "Ġamoureuse": 3508,
      "Ġira": 3509,
      "Ã©pous": 3510,
      "Ġdoivent": 3511,
      "Ġplaindre": 3512,
      "anniversaire": 3513,
      "Ġconstruit": 3514,
      "Ġmalheureuse": 3515,
      "Ġchanceux": 3516,
      "Ġcirculation": 3517,
      "gÃ©es": 3518,
      "hiver": 3519,
      "ru": 3520,
      "zz": 3521,
      "Ġveste": 3522,
      "ilitÃ©s": 3523,
      "Ã¨vre": 3524,
      "its": 3525,
      "Ġchi": 3526,
      "aurait": 3527,
      "ric": 3528,
      "astique": 3529,
      "acquisition": 3530,
      "Ġcrain": 3531,
      "Ġcroyez": 3532,
      "Ġtravaill": 3533,
      "ĠprÃ©cip": 3534,
      "ĠcompÃ©t": 3535,
      "Ã¢ge": 3536,
      "Ġdonnerai": 3537,
      "assurer": 3538,
      "adresse": 3539,
      "Ã©coute": 3540,
      "ĠmÃ©moire": 3541,
      "Ãªtres": 3542,
      "Ġtenu": 3543,
      "Ġreviens": 3544,
      "Ġprenons": 3545,
      "Ġtourner": 3546,
      "ĠÃ©chouÃ©": 3547,
      "Ġraconter": 3548,
      "ĠdiffÃ©rentes": 3549,
      "Ġennuyeux": 3550,
      "Ġassey": 3551,
      "Ġmecs": 3552,
      "traper": 3553,
      "ĠdÃ©barrasser": 3554,
      "ĠdifficultÃ©s": 3555,
      "Ġfaible": 3556,
      "Ã©nergie": 3557,
      "ĠlÃ©gumes": 3558,
      "Ġgolf": 3559,
      "uie": 3560,
      "ulation": 3561,
      "Ġtre": 3562,
      "Ġtien": 3563,
      "Ġtand": 3564,
      "ĠtÃ¢": 3565,
      "Ġtire": 3566,
      "Ġcle": 3567,
      "reur": 3568,
      "Ġach": 3569,
      "Ġjeux": 3570,
      "Ġru": 3571,
      "Ã¨tres": 3572,
      "itiÃ©": 3573,
      "Ġtrou": 3574,
      "Ġgasp": 3575,
      "ĠdÃ©m": 3576,
      "ĠdÃ©part": 3577,
      "ĠamÃ©li": 3578,
      "Ġgratu": 3579,
      "ĠprÃ©occup": 3580,
      "Ġvaleur": 3581,
      "Ġcache": 3582,
      "Ġsupporte": 3583,
      "Ġappro": 3584,
      "ĠdÃ©pla": 3585,
      "Ġpoche": 3586,
      "ĠrÃ©ser": 3587,
      "Ġcartes": 3588,
      "entreprise": 3589,
      "Ġmenteur": 3590,
      "Ġmonter": 3591,
      "Ġmagn": 3592,
      "Ġcuisin": 3593,
      "Ġincap": 3594,
      "Ġgentille": 3595,
      "Ġtraverser": 3596,
      "ĠobligÃ©e": 3597,
      "Ġky": 3598,
      "Ġhorrible": 3599,
      "Ġtimide": 3600,
      "Ġbleu": 3601,
      "Ġskier": 3602,
      "Ġparticulier": 3603,
      "Ġdisputer": 3604,
      "importance": 3605,
      "Ġclairement": 3606,
      "Ġsoldats": 3607,
      "ercice": 3608,
      "Ġsamedi": 3609,
      "Ġtandis": 3610,
      "ader": 3611,
      "hum": 3612,
      "ieur": 3613,
      "Ġvint": 3614,
      "Ġfail": 3615,
      "leterre": 3616,
      "istre": 3617,
      "Ġbague": 3618,
      "itation": 3619,
      "Ã©tudi": 3620,
      "Ġparlent": 3621,
      "Ġauras": 3622,
      "chons": 3623,
      "oires": 3624,
      "Ġmaj": 3625,
      "cool": 3626,
      "aisselle": 3627,
      "ĠcachÃ©": 3628,
      "Ġcontin": 3629,
      "ĠarrivÃ©s": 3630,
      "Ġbouche": 3631,
      "ĠdÃ©tr": 3632,
      "Ġsentez": 3633,
      "Ġexplication": 3634,
      "ĠmatinÃ©e": 3635,
      "Ġcolle": 3636,
      "issent": 3637,
      "Ġblesser": 3638,
      "ĠÃ¢gÃ©": 3639,
      "Ġdisposez": 3640,
      "Ġembarr": 3641,
      "Ġarrivera": 3642,
      "Ġdiscussi": 3643,
      "ĠÃ©levÃ©": 3644,
      "Ġdoigt": 3645,
      "ĠimpressionnÃ©": 3646,
      "Ã©chapp": 3647,
      "Ġcampagne": 3648,
      "Ġnavire": 3649,
      "ĠconfectionnÃ©": 3650,
      "ĠÃ©checs": 3651,
      "embrasser": 3652,
      "ĠespÃ©rons": 3653,
      "ĠÃ©veillÃ©": 3654,
      "Ġcostume": 3655,
      "Ġchocolat": 3656,
      ".\"": 3657,
      "ode": 3658,
      "yp": 3659,
      "Ġdro": 3660,
      "Ã©d": 3661,
      "ĠlÃ¨": 3662,
      "Ġtest": 3663,
      "Ġtirer": 3664,
      "Ġcig": 3665,
      "ilier": 3666,
      "Ġfis": 3667,
      "Ġflic": 3668,
      "Ġroi": 3669,
      "itÃ´t": 3670,
      "arme": 3671,
      "aule": 3672,
      "Ġparie": 3673,
      "avenir": 3674,
      "chant": 3675,
      "onnaie": 3676,
      "Ġtoucher": 3677,
      "allez": 3678,
      "irm": 3679,
      "Ġprodu": 3680,
      "Ġdevient": 3681,
      "Ġalliez": 3682,
      "Ġinti": 3683,
      "Ġdirection": 3684,
      "oya": 3685,
      "assit": 3686,
      "Ġsoul": 3687,
      "Ġcesse": 3688,
      "Ġportefeu": 3689,
      "Ġmidi": 3690,
      "Ġconst": 3691,
      "Ġenvers": 3692,
      "ĠdÃ©clar": 3693,
      "ĠoccupÃ©es": 3694,
      "Ġexcus": 3695,
      "ĠdÃ©cida": 3696,
      "Ġfume": 3697,
      "Ġretourne": 3698,
      "Ġrespect": 3699,
      "Ġfeuilles": 3700,
      "Ġ14": 3701,
      "Ã©glise": 3702,
      "Ġsortit": 3703,
      "Ġsilence": 3704,
      "ĠratÃ©": 3705,
      "ĠcrÃ©dit": 3706,
      "Ã©tudie": 3707,
      "ĠÃ©pouse": 3708,
      "Ġzoo": 3709,
      "Ġcercle": 3710,
      "intÃ©resse": 3711,
      "Ġretrouv": 3712,
      "Ġticket": 3713,
      "ĠpÃ©nÃ©t": 3714,
      "ĠthÃ©orie": 3715,
      "Ġportefeuille": 3716,
      "gue": 3717,
      "iÃ©e": 3718,
      "idÃ©": 3719,
      "ize": 3720,
      "Ġpoup": 3721,
      "Ġpot": 3722,
      "Ġponc": 3723,
      "eug": 3724,
      "Ġboit": 3725,
      "Ġbelles": 3726,
      "Ġprise": 3727,
      "Ġaurez": 3728,
      "Ġmett": 3729,
      "Ġhur": 3730,
      "osse": 3731,
      "Ġdevint": 3732,
      "ĠsongÃ©": 3733,
      "Ġarti": 3734,
      "Ġdemi": 3735,
      "Ġsert": 3736,
      "Ġsaviez": 3737,
      "Ġexemp": 3738,
      "ĠentraÃ®": 3739,
      "Ġpuiss": 3740,
      "ĠÃ©cout": 3741,
      "Ġportable": 3742,
      "issait": 3743,
      "Ġfix": 3744,
      "ception": 3745,
      "Ġservi": 3746,
      "Ġkil": 3747,
      "ĠabandonnÃ©": 3748,
      "Ġsemblant": 3749,
      "Ġinformations": 3750,
      "Ġpousser": 3751,
      "Ġsecr": 3752,
      "ordinaire": 3753,
      "Ġmerveilleux": 3754,
      "Ġtoilettes": 3755,
      "Ġtremble": 3756,
      "information": 3757,
      "Ġpiscine": 3758,
      "Ġbiscu": 3759,
      "Ġponctu": 3760,
      "ia": 3761,
      "lus": 3762,
      "vis": 3763,
      "Ã©ment": 3764,
      "Ġtor": 3765,
      "Ġtoit": 3766,
      "Ġtienne": 3767,
      "Ġcaisse": 3768,
      "quÃ©rir": 3769,
      "ĠnaÃ¯": 3770,
      "ouse": 3771,
      "Ġunique": 3772,
      "ĠchÃ¨re": 3773,
      "Ġaveug": 3774,
      "ĠparaÃ®t": 3775,
      "ĠÃ©tas": 3776,
      "Ġhiver": 3777,
      "Ġproc": 3778,
      "Ġalla": 3779,
      "Ġsurvenu": 3780,
      "Ġyens": 3781,
      "ack": 3782,
      "ĠvidÃ©": 3783,
      "Ġvoie": 3784,
      "Ġvoulaient": 3785,
      "ĠcausÃ©": 3786,
      "ĠrÃ©pÃ©ter": 3787,
      "Ġvues": 3788,
      "Ġpique": 3789,
      "Ġderniers": 3790,
      "Ġprofond": 3791,
      "ĠpiÃ¨ces": 3792,
      "ĠrÃ©serv": 3793,
      "icien": 3794,
      "arrÃªte": 3795,
      "ĠprÃ©sente": 3796,
      "Ġdevenue": 3797,
      "Ġobs": 3798,
      "Ġconvient": 3799,
      "Ġdisposons": 3800,
      "Ġmeilleurs": 3801,
      "Ġfilms": 3802,
      "Ġstation": 3803,
      "ĠÃ©tranger": 3804,
      "ĠsÃ©par": 3805,
      "essaye": 3806,
      "ĠcoÃ»ter": 3807,
      "Ġassister": 3808,
      "ĠrÃ©veiller": 3809,
      "Ġsuivi": 3810,
      "Ġrepro": 3811,
      "Ġjuge": 3812,
      "ĠembrassÃ©": 3813,
      "ĠrÃ©gime": 3814,
      "ĠamÃ©rique": 3815,
      "Ġvendredi": 3816,
      "Ġsurviv": 3817,
      "Ġbaseball": 3818,
      "Ġoiseau": 3819,
      "inquiÃ¨te": 3820,
      "ĠdÃ©tails": 3821,
      "Ġpierre": 3822,
      "Ġurgent": 3823,
      "indiquer": 3824,
      "Ġkyoto": 3825,
      "Ġcontinue": 3826,
      "Ġcigare": 3827,
      "ĠÃ©tasun": 3828,
      "hor": 3829,
      "Ġpose": 3830,
      "Ġpaie": 3831,
      "Ġpneu": 3832,
      "aimer": 3833,
      "Ġcit": 3834,
      "Ġfle": 3835,
      "ourv": 3836,
      "Ã¨le": 3837,
      "inze": 3838,
      "Ġprouver": 3839,
      "Ġaver": 3840,
      "ouvrir": 3841,
      "alcool": 3842,
      "Ġescal": 3843,
      "Ġind": 3844,
      "uise": 3845,
      "Ġbonheur": 3846,
      "Ġsentis": 3847,
      "ĠdÃ©pourv": 3848,
      "Ġouvre": 3849,
      "ĠrÃ©solu": 3850,
      "ĠrencontrÃ©e": 3851,
      "ĠaccusÃ©": 3852,
      "Ġdisposer": 3853,
      "Ġgentilles": 3854,
      "ĠfenÃªtres": 3855,
      "Ġappartient": 3856,
      "ĠtentÃ©": 3857,
      "Ġfermez": 3858,
      "ĠeffrayÃ©": 3859,
      "Ġmignonne": 3860,
      "Ġoiseaux": 3861,
      "Ġfolle": 3862,
      "Ġpreuve": 3863,
      "Ġsaoul": 3864,
      "Ġdirige": 3865,
      "ĠÃ©loign": 3866,
      "Ġidiote": 3867,
      "Ã©pouser": 3868,
      "Ġincapable": 3869,
      "nez": 3870,
      "rage": 3871,
      "Ġpage": 3872,
      "enti": 3873,
      "isez": 3874,
      "Ġrumeur": 3875,
      "intÃ©ress": 3876,
      "Ġchu": 3877,
      "endroit": 3878,
      "Ġcondu": 3879,
      "Ġjambes": 3880,
      "appar": 3881,
      "Ġexi": 3882,
      "Ġveniez": 3883,
      "Ã¢tre": 3884,
      "ication": 3885,
      "Ġlaisserai": 3886,
      "espÃ©": 3887,
      "Ġcourage": 3888,
      "Ġsoule": 3889,
      "Ġpizz": 3890,
      "Ġportez": 3891,
      "Ġbouger": 3892,
      "Ġbrill": 3893,
      "Ġgrandi": 3894,
      "Ġenvis": 3895,
      "exercice": 3896,
      "Ġcoll": 3897,
      "Ġfortune": 3898,
      "ĠobÃ©": 3899,
      "ides": 3900,
      "oncer": 3901,
      "Ġspect": 3902,
      "Ġdiscut": 3903,
      "Ġfonctionner": 3904,
      "Ġlisez": 3905,
      "enfants": 3906,
      "Ġretirer": 3907,
      "ĠcommenÃ§ons": 3908,
      "Ġabandonner": 3909,
      "Ġtraiter": 3910,
      "Ġatteint": 3911,
      "Ġpopulation": 3912,
      "Ġrecommand": 3913,
      "ĠnÃ©goci": 3914,
      "Ġscient": 3915,
      "ĠimpliquÃ©": 3916,
      "Ġrefusa": 3917,
      "olesc": 3918,
      "ĠmathÃ©m": 3919,
      "Ġartiste": 3920,
      "ĠgÃ©nial": 3921,
      "Ġfailli": 3922,
      "Ġdiscussion": 3923,
      "nique": 3924,
      "xim": 3925,
      "ĠpÃª": 3926,
      "Ġdingue": 3927,
      "Ġtar": 3928,
      "Ġcentre": 3929,
      "Ġauss": 3930,
      "Ġmons": 3931,
      "inÃ©e": 3932,
      "Ã©tique": 3933,
      "endorm": 3934,
      "onnel": 3935,
      "rim": 3936,
      "sique": 3937,
      "acitÃ©": 3938,
      "action": 3939,
      "ffre": 3940,
      "Ġdisait": 3941,
      "Ġsaches": 3942,
      "Ġcritique": 3943,
      "abord": 3944,
      "Ġmanges": 3945,
      "Ġpeindre": 3946,
      "ĠÃ©conom": 3947,
      "Ġcourse": 3948,
      "ĠdÃ©sesp": 3949,
      "ĠbrisÃ©": 3950,
      "dÃ©ment": 3951,
      "Ġchausse": 3952,
      "ĠrÃ©pond": 3953,
      "ock": 3954,
      "ĠdÃ©pens": 3955,
      "Ġdifficiles": 3956,
      "Ġtenait": 3957,
      "issons": 3958,
      "Ġcorri": 3959,
      "Ġpolicier": 3960,
      "Ġdispon": 3961,
      "ĠcontrÃ´": 3962,
      "Ġprendrai": 3963,
      "Ġservie": 3964,
      "Ġsoif": 3965,
      "ĠfermÃ©e": 3966,
      "champ": 3967,
      "Ġpanne": 3968,
      "Ġpersonnel": 3969,
      "ĠpleurÃ©": 3970,
      "Ġdentiste": 3971,
      "accepter": 3972,
      "ĠprofondÃ©ment": 3973,
      "Ġoccasion": 3974,
      "Ġmagazine": 3975,
      "Ġexcusez": 3976,
      "ĠmathÃ©matiques": 3977,
      "ĠaussitÃ´t": 3978,
      "cation": 3979,
      "ok": 3980,
      "ron": 3981,
      "Ã©le": 3982,
      "Ġsinc": 3983,
      "Ġnat": 3984,
      "Ġvert": 3985,
      "Ġviennent": 3986,
      "Ġmy": 3987,
      "Ġ?\"": 3988,
      "eus": 3989,
      "Ġbeur": 3990,
      "Ġbatt": 3991,
      "itaire": 3992,
      "auc": 3993,
      "cemment": 3994,
      "chÃ©s": 3995,
      "Ġtouche": 3996,
      "ĠreÃ§": 3997,
      "lÃ©s": 3998,
      "Ġmarre": 3999,
      "Ġmaisons": 4000,
      "Ġcompt": 4001,
      "Ġveuille": 4002,
      "Ġposa": 4003,
      "Ġgars": 4004,
      "Ġcoupe": 4005,
      "Ġpetits": 4006,
      "Ġpetites": 4007,
      "Ġvoudrait": 4008,
      "Ġresterai": 4009,
      "Ġprome": 4010,
      "Ġchangement": 4011,
      "Ġinstru": 4012,
      "Ġoublier": 4013,
      "ĠdiffÃ©rente": 4014,
      "ĠsÃ©rieuse": 4015,
      "ĠcontinuÃ©": 4016,
      "Ġfaudra": 4017,
      "Ġneiger": 4018,
      "Ġsyst": 4019,
      "ĠsauvÃ©": 4020,
      "Ġpantal": 4021,
      "ĠimaginÃ©": 4022,
      "Ġhumeur": 4023,
      "Ġcamion": 4024,
      "Ġreposer": 4025,
      "Ġfassiez": 4026,
      "Ġsoudain": 4027,
      "Ġmeurtre": 4028,
      "Ġgrave": 4029,
      "Ġcouvert": 4030,
      "ĠpossibilitÃ©": 4031,
      "Ã©teindre": 4032,
      "bat": 4033,
      "iments": 4034,
      "rÃªt": 4035,
      "uer": 4036,
      "uction": 4037,
      "ensi": 4038,
      "ĠcassÃ©e": 4039,
      "Ġsand": 4040,
      "quÃ©es": 4041,
      "Ġvir": 4042,
      "Ġvoit": 4043,
      "Ġfous": 4044,
      "entrÃ©e": 4045,
      "ister": 4046,
      "Ġlap": 4047,
      "Ã¨se": 4048,
      "tiv": 4049,
      "Ġmembre": 4050,
      "onnable": 4051,
      "Ġrela": 4052,
      "Ġremis": 4053,
      "Ġaliments": 4054,
      "libat": 4055,
      "ortable": 4056,
      "ĠfrÃ©qu": 4057,
      "Ġamic": 4058,
      "Ġsale": 4059,
      "Ġappelez": 4060,
      "Ġresta": 4061,
      "esses": 4062,
      "Ġassise": 4063,
      "Ġassist": 4064,
      "Ġnotes": 4065,
      "Ġcourrier": 4066,
      "ignit": 4067,
      "ĠdÃ©sir": 4068,
      "illard": 4069,
      "ĠallÃ©es": 4070,
      "ĠprÃ©fÃ©r": 4071,
      "allons": 4072,
      "Ġeffic": 4073,
      "aimez": 4074,
      "ĠcÃ©libat": 4075,
      "ĠresponsabilitÃ©": 4076,
      "ĠexpliquÃ©": 4077,
      "Ġreconnaissante": 4078,
      "Ġimaginer": 4079,
      "ĠgÃ©nÃ©ral": 4080,
      "Ġjoli": 4081,
      "Ġatti": 4082,
      "Ġpopulaire": 4083,
      "Ġparticuli": 4084,
      "Ġefforts": 4085,
      "Ġprogramme": 4086,
      "Ġobjecti": 4087,
      "Ġexemple": 4088,
      "Ġbiscuits": 4089,
      "ĠsystÃ¨me": 4090,
      "honn": 4091,
      "jus": 4092,
      "mÃªmes": 4093,
      "ote": 4094,
      "tin": 4095,
      "tter": 4096,
      "Ã©h": 4097,
      "Ġcouver": 4098,
      "Ġja": 4099,
      "reg": 4100,
      "quÃ©s": 4101,
      "Ġquoti": 4102,
      "Ġquinze": 4103,
      "ĠrÃ©t": 4104,
      "orÃ©": 4105,
      "Ġtraite": 4106,
      "aujourd": 4107,
      "onses": 4108,
      "Ġparess": 4109,
      "Ġpartit": 4110,
      "Ġparvenir": 4111,
      "Ġgarer": 4112,
      "Ġmonte": 4113,
      "ami": 4114,
      "amuser": 4115,
      "Ġprojets": 4116,
      "ĠrÃ©cemment": 4117,
      "eaux": 4118,
      "Ġsurve": 4119,
      "ĠintÃ©": 4120,
      "Ġinutile": 4121,
      "Ã©rature": 4122,
      "Ġappuy": 4123,
      "appro": 4124,
      "Ġtrouves": 4125,
      "Ã¢ce": 4126,
      "ĠrÃ©ponses": 4127,
      "Ġcouramment": 4128,
      "Ã©conom": 4129,
      "Ġmanu": 4130,
      "Ġpartage": 4131,
      "Ġallume": 4132,
      "Ġoccuper": 4133,
      "Ġgarage": 4134,
      "ĠempÃª": 4135,
      "ĠdÃ©pÃªcher": 4136,
      "Ġadolesc": 4137,
      "Ġcoop": 4138,
      "Ġhabitude": 4139,
      "ĠfatiguÃ©s": 4140,
      "Ġvivant": 4141,
      "Ġvenues": 4142,
      "ĠterminÃ©e": 4143,
      "Ġcontrat": 4144,
      "Ġremonter": 4145,
      "Ġreconnu": 4146,
      "Ġenseigne": 4147,
      "ĠÃ©gard": 4148,
      "ĠreprÃ©s": 4149,
      "Ġpoissons": 4150,
      "ĠtempÃ©rature": 4151,
      "000": 4152,
      "Ġsupermar": 4153,
      "Ġsouhaiterais": 4154,
      "Ġtraduire": 4155,
      "Ġimpressionn": 4156,
      "Ġasseoir": 4157,
      "Ġmalheureux": 4158,
      "Ġusage": 4159,
      "Ġemmen": 4160,
      "Ġtotalement": 4161,
      "Ġjaloux": 4162,
      "ĠdÃ©missionner": 4163,
      "ĠfantÃ´": 4164,
      "ĠdÃ©marrer": 4165,
      "Ġhaute": 4166,
      "ĠdÃ©jeunÃ©": 4167,
      "Ġbeurre": 4168,
      "Ġquotid": 4169,
      "ĠsupermarchÃ©": 4170,
      "30": 4171,
      "hÃ©": 4172,
      "ieux": 4173,
      "ni": 4174,
      "ub": 4175,
      "aitez": 4176,
      "ensible": 4177,
      "Ġlog": 4178,
      "Ġcasse": 4179,
      "Ġsage": 4180,
      "quez": 4181,
      "Ġnation": 4182,
      "Ġmeu": 4183,
      "Ġquarti": 4184,
      "oiff": 4185,
      "Ġram": 4186,
      "Ġsud": 4187,
      "Ġchand": 4188,
      "Ġavis": 4189,
      "Ġauquel": 4190,
      "Ġplans": 4191,
      "ĠÃ©tage": 4192,
      "agÃ¨re": 4193,
      "agner": 4194,
      "Ġmondi": 4195,
      "Ġdisiez": 4196,
      "ĠgrÃ¢ce": 4197,
      "Ġbienvenue": 4198,
      "Ġbeaux": 4199,
      "ĠdonnÃ©es": 4200,
      "Ġlaissa": 4201,
      "Ġimprob": 4202,
      "Ġsouti": 4203,
      "Ġautom": 4204,
      "ĠdÃ©tendre": 4205,
      "Ġpartager": 4206,
      "dul": 4207,
      "Ġallong": 4208,
      "Ġridi": 4209,
      "instituteur": 4210,
      "Ġrappelez": 4211,
      "Ġadop": 4212,
      "mbres": 4213,
      "ĠportÃ©": 4214,
      "ĠblessÃ©s": 4215,
      "Ġchanteur": 4216,
      "Ġgardez": 4217,
      "ĠÃ©trangers": 4218,
      "ĠguÃ¨re": 4219,
      "Ġmod": 4220,
      "Ġsauter": 4221,
      "ĠdiscutÃ©": 4222,
      "Ġviendrai": 4223,
      "Ġsuivant": 4224,
      "Ġcopain": 4225,
      "ĠrÃ©alitÃ©": 4226,
      "ĠtrompÃ©": 4227,
      "Ġravie": 4228,
      "Ġintelligente": 4229,
      "Ġplaint": 4230,
      "lemagne": 4231,
      "Ġinnocent": 4232,
      "Ġmagnifique": 4233,
      "Ġtremblement": 4234,
      "espÃ©rais": 4235,
      "ame": 4236,
      "gez": 4237,
      "ident": 4238,
      "obli": 4239,
      "wi": 4240,
      "Ġdor": 4241,
      "quante": 4242,
      "ĠaÃ®": 4243,
      "Ġnag": 4244,
      "ĠvirÃ©": 4245,
      "Ġqueue": 4246,
      "ĠbÃ©n": 4247,
      "Ã¨ter": 4248,
      "tiques": 4249,
      "Ġmembres": 4250,
      "ĠplantÃ©": 4251,
      "ĠÃ©to": 4252,
      "ageux": 4253,
      "Ġprot": 4254,
      "ĠprocÃ©": 4255,
      "Ġdises": 4256,
      "Ġpouviez": 4257,
      "autor": 4258,
      "Ġrestes": 4259,
      "net": 4260,
      "Ġpartici": 4261,
      "Ġvase": 4262,
      "Ġassure": 4263,
      "Ġperdit": 4264,
      "vement": 4265,
      "Ġcompar": 4266,
      "Ġcomplet": 4267,
      "Ġpuissiez": 4268,
      "Ġoublie": 4269,
      "Ġcouru": 4270,
      "Ġnoms": 4271,
      "oreille": 4272,
      "ĠrÃ©pondit": 4273,
      "Ġsortes": 4274,
      "Ġcoups": 4275,
      "Ġclub": 4276,
      "Ġconduite": 4277,
      "ĠprÃ©sence": 4278,
      "ĠmontÃ©": 4279,
      "Ġfich": 4280,
      "ĠfiÃ¨vre": 4281,
      "Ġforc": 4282,
      "Ġfuri": 4283,
      "Ġvivons": 4284,
      "Ġconcer": 4285,
      "Ġcontrar": 4286,
      "Ġprudents": 4287,
      "Ġjournaux": 4288,
      "Ġsuffit": 4289,
      "ĠapprÃ©cie": 4290,
      "incendie": 4291,
      "ĠlumiÃ¨res": 4292,
      "Ġtrompe": 4293,
      "Ġimagination": 4294,
      "Ġpromener": 4295,
      "Ġtimbres": 4296,
      "Ġclim": 4297,
      "Ġcomportement": 4298,
      "Ġdocu": 4299,
      "Ġconcentrer": 4300,
      "Ġencour": 4301,
      "Ġexcellent": 4302,
      "Ġarticle": 4303,
      "Ġpantalon": 4304,
      "Ġsandwi": 4305,
      "Ġimprobable": 4306,
      "ma": 4307,
      "nom": 4308,
      "ule": 4309,
      "Ġcre": 4310,
      "ĠcÃ¢": 4311,
      "Ġcents": 4312,
      "Ġjack": 4313,
      "Ġadul": 4314,
      "Ġjette": 4315,
      "ousse": 4316,
      "Ġfab": 4317,
      "Ġfaite": 4318,
      "Ġbanc": 4319,
      "Ġchances": 4320,
      "Ġparmi": 4321,
      "avance": 4322,
      "ĠauprÃ¨s": 4323,
      "Ġgl": 4324,
      "quette": 4325,
      "Ġivre": 4326,
      "lique": 4327,
      "Ġinvent": 4328,
      "ĠarriÃ¨re": 4329,
      "ards": 4330,
      "Ġsaison": 4331,
      "Ġpouvions": 4332,
      "oyÃ©e": 4333,
      "Ġvicti": 4334,
      "Ġarriva": 4335,
      "ĠÃ©cris": 4336,
      "ĠlaissÃ©e": 4337,
      "adÃ©": 4338,
      "adme": 4339,
      "Ġjoues": 4340,
      "Ġjouez": 4341,
      "Ġjoueur": 4342,
      "Ġbrou": 4343,
      "venues": 4344,
      "Ġessayons": 4345,
      "Ġsentais": 4346,
      "ĠdÃ©pensÃ©": 4347,
      "ĠpoÃ¨me": 4348,
      "illon": 4349,
      "Ġcoffre": 4350,
      "Ġfig": 4351,
      "Ġnourrir": 4352,
      "ĠdisposÃ©": 4353,
      "Ġphotog": 4354,
      "Ġblag": 4355,
      "ĠblÃ¢": 4356,
      "Ġverrai": 4357,
      "ĠdÃ©rangerait": 4358,
      "ĠrÃ©veillÃ©e": 4359,
      "Ġparcour": 4360,
      "Ġressens": 4361,
      "Ġayons": 4362,
      "Ġcesser": 4363,
      "Ġembrasser": 4364,
      "Ġentendue": 4365,
      "ĠÃ©teint": 4366,
      "titutrice": 4367,
      "Ġsuspect": 4368,
      "Ġnormal": 4369,
      "appellerai": 4370,
      "aka": 4371,
      "interromp": 4372,
      "Ġcurieux": 4373,
      "Ġcroyais": 4374,
      "Ġcapitale": 4375,
      "ĠdÃ©Ã§ue": 4376,
      "Ġmaig": 4377,
      "Ġmalheureusement": 4378,
      "irmiÃ¨re": 4379,
      "ĠvidÃ©o": 4380,
      "Ġpizza": 4381,
      "Ġspectacle": 4382,
      "Ġefficace": 4383,
      "cis": 4384,
      "sÃ©": 4385,
      "tons": 4386,
      "Ġais": 4387,
      "Ġpil": 4388,
      "Ġcraign": 4389,
      "Ġsh": 4390,
      "Ġnaiss": 4391,
      "anci": 4392,
      "Ġfleur": 4393,
      "omac": 4394,
      "Ġras": 4395,
      "Ġracc": 4396,
      "Ġrenvers": 4397,
      "Ã©tude": 4398,
      "ĠtraÃ®": 4399,
      "Ġcommerci": 4400,
      "chait": 4401,
      "ĠgÃª": 4402,
      "Ġtex": 4403,
      "Ġrelig": 4404,
      "Ġhar": 4405,
      "Ġhist": 4406,
      "quet": 4407,
      "iration": 4408,
      "Ġallemand": 4409,
      "ĠcongÃ©s": 4410,
      "Ġamour": 4411,
      "ĠrestÃ©e": 4412,
      "lÃ¨rent": 4413,
      "Ġpuisses": 4414,
      "Ġvieilles": 4415,
      "guÃ©": 4416,
      "Ġchamp": 4417,
      "Ġrig": 4418,
      "Ġrende": 4419,
      "Ġrendrai": 4420,
      "Ġraisons": 4421,
      "Ġpromesses": 4422,
      "Ġouvrit": 4423,
      "Ġmoteur": 4424,
      "Ġexcuse": 4425,
      "Ġmontra": 4426,
      "Ġpropri": 4427,
      "ĠdiffÃ©rents": 4428,
      "ĠdÃ®nÃ©": 4429,
      "Ġservir": 4430,
      "Ġordres": 4431,
      "Ġenseignante": 4432,
      "ĠtraversÃ©": 4433,
      "ĠdÃ©ranger": 4434,
      "Ġsommet": 4435,
      "Ġsuffisant": 4436,
      "ĠÃ©lect": 4437,
      "Ġailleurs": 4438,
      "ĠdÃ©couvrir": 4439,
      "Ġsouffle": 4440,
      "ĠempruntÃ©": 4441,
      "Ġmignon": 4442,
      "Ġbleue": 4443,
      "Ġleva": 4444,
      "Ġintention": 4445,
      "Ġpareille": 4446,
      "Ġpatience": 4447,
      "Ġrejoindre": 4448,
      "Ġlourd": 4449,
      "ĠhÃ©ros": 4450,
      "ĠpÃ©tr": 4451,
      "Ġtreize": 4452,
      "ĠpoupÃ©e": 4453,
      "Ġchaussettes": 4454,
      "Ġsandwich": 4455,
      "fois": 4456,
      "hu": 4457,
      "man": 4458,
      "th": 4459,
      "Ġ8": 4460,
      "Ã©ant": 4461,
      "Ġloyer": 4462,
      "Ġcoiff": 4463,
      "Ġvain": 4464,
      "Ġmonnaie": 4465,
      "oient": 4466,
      "Ġfe": 4467,
      "Ġfoi": 4468,
      "isme": 4469,
      "Ġcein": 4470,
      "ĠbÃªte": 4471,
      "Ġenqu": 4472,
      "Ġchic": 4473,
      "Ġparvenu": 4474,
      "chent": 4475,
      "chose": 4476,
      "onnez": 4477,
      "Ġgaz": 4478,
      "ĠhÃ©": 4479,
      "ĠdÃ©ch": 4480,
      "Ġsim": 4481,
      "Ġdurer": 4482,
      "chement": 4483,
      "uteur": 4484,
      "Ã©rence": 4485,
      "Ġgren": 4486,
      "cue": 4487,
      "Ġentier": 4488,
      "essence": 4489,
      "espoir": 4490,
      "ĠderniÃ¨res": 4491,
      "Ġpleure": 4492,
      "Ġmanif": 4493,
      "Ġvisit": 4494,
      "ulter": 4495,
      "ĠcoupÃ©": 4496,
      "Ġrappelles": 4497,
      "Ġadm": 4498,
      "Ġtenue": 4499,
      "utiliser": 4500,
      "ĠforÃªt": 4501,
      "Ġrefuser": 4502,
      "aimais": 4503,
      "Ġdisposes": 4504,
      "ĠgardÃ©": 4505,
      "ĠamusÃ©e": 4506,
      "ĠthÃ©Ã¢tre": 4507,
      "ĠenseignÃ©": 4508,
      "ĠcoÃ»tÃ©": 4509,
      "Ã¯n": 4510,
      "envoyer": 4511,
      "Ġcrimin": 4512,
      "Ġweb": 4513,
      "jouter": 4514,
      "Ġconscient": 4515,
      "Ġpolit": 4516,
      "Ġprudentes": 4517,
      "Ġbarbe": 4518,
      "ĠtraitÃ©": 4519,
      "Ġatteindre": 4520,
      "ĠpressÃ©": 4521,
      "ĠprÃ©pare": 4522,
      "ĠdÃ©pÃªche": 4523,
      "ĠdÃ©velopp": 4524,
      "Ġsemblent": 4525,
      "Ġaugmentation": 4526,
      "ĠprogrÃ¨s": 4527,
      "Ġviolon": 4528,
      "ĠamÃ©ricain": 4529,
      "Ġvolontaire": 4530,
      "ologie": 4531,
      "Ġtendance": 4532,
      "Ġrompu": 4533,
      "ĠfumÃ©e": 4534,
      "Ġpoursuiv": 4535,
      "Ġmonsieur": 4536,
      "ĠcÃ©libataire": 4537,
      "Ġquotidienne": 4538,
      "Ġquartier": 4539,
      "Ġparticiper": 4540,
      "ĠcontrariÃ©": 4541,
      "Ġjackson": 4542,
      "cen": 4543,
      "hi": 4544,
      "lir": 4545,
      "ox": 4546,
      "uÃ©": 4547,
      "vres": 4548,
      "ĠpÃ©ri": 4549,
      "Ġsin": 4550,
      "Ġnord": 4551,
      "Ġvendu": 4552,
      "ĠmÃª": 4553,
      "ĠmÃªmes": 4554,
      "Ġquar": 4555,
      "anou": 4556,
      "omage": 4557,
      "Ġbais": 4558,
      "Ã¨tes": 4559,
      "Ġenreg": 4560,
      "ori": 4561,
      "Ġavenir": 4562,
      "Ġplat": 4563,
      "Ġplaign": 4564,
      "rite": 4565,
      "Ġgui": 4566,
      "Ġremb": 4567,
      "ĠdÃ©rob": 4568,
      "Ġsieste": 4569,
      "angleterre": 4570,
      "Ġair": 4571,
      "Ġdeviner": 4572,
      "ĠrÃ©si": 4573,
      "ĠrÃ©cup": 4574,
      "ĠÃ©prouv": 4575,
      "onnement": 4576,
      "Ã»t": 4577,
      "Ġfromage": 4578,
      "gnÃ©": 4579,
      "Ġcra": 4580,
      "Ġtravailles": 4581,
      "oyÃ©s": 4582,
      "ĠmalgrÃ©": 4583,
      "Ġenfance": 4584,
      "Ġpuissions": 4585,
      "Ġarrives": 4586,
      "assa": 4587,
      "assez": 4588,
      "ducation": 4589,
      "ancÃ©": 4590,
      "ĠempÃªcher": 4591,
      "Ġphar": 4592,
      "Ġcherches": 4593,
      "Ġcherchez": 4594,
      "Ġadv": 4595,
      "Ġtomba": 4596,
      "ĠcoÃ¯n": 4597,
      "ĠfatiguÃ©es": 4598,
      "Ġfiers": 4599,
      "Ġcapables": 4600,
      "oncÃ©": 4601,
      "Ġremise": 4602,
      "Ġmode": 4603,
      "Ġsouris": 4604,
      "oixante": 4605,
      "Ġsatisfaite": 4606,
      "Ġvalises": 4607,
      "Ġmortes": 4608,
      "ĠrÃ©alisÃ©": 4609,
      "Ġbanan": 4610,
      "Ġsouffre": 4611,
      "Ġsouper": 4612,
      "Ġregretter": 4613,
      "Ġimpatiente": 4614,
      "Ġcontacter": 4615,
      "ĠÃ©crivain": 4616,
      "Ġemm": 4617,
      "ĠdifficultÃ©": 4618,
      "emploi": 4619,
      "Ġsoudaine": 4620,
      "losion": 4621,
      "ĠdÃ©sire": 4622,
      "ĠcompliquÃ©": 4623,
      "Ġeurope": 4624,
      "Ġrejoin": 4625,
      "raphe": 4626,
      "ĠdÃ©primÃ©": 4627,
      "ĠdÃ©cÃ©dÃ©": 4628,
      "Ġcolline": 4629,
      "ĠcontrÃ´ler": 4630,
      "ĠreprÃ©sent": 4631,
      "Ġbrouillard": 4632,
      "Ġnaissance": 4633,
      "cture": 4634,
      "cins": 4635,
      "dÃ©s": 4636,
      "dition": 4637,
      "fond": 4638,
      "her": 4639,
      "moin": 4640,
      "ption": 4641,
      "uf": 4642,
      "uler": 4643,
      "ouille": 4644,
      "Ġtat": 4645,
      "Ġtante": 4646,
      "Ġmic": 4647,
      "entrer": 4648,
      "euble": 4649,
      "Ġuns": 4650,
      "itue": 4651,
      "Ġenle": 4652,
      "Ã©taire": 4653,
      "Ã©taient": 4654,
      "Ġaurions": 4655,
      "chiez": 4656,
      "Ġplantes": 4657,
      "ouvre": 4658,
      "mpe": 4659,
      "Ġhyp": 4660,
      "alif": 4661,
      "amÃ©li": 4662,
      "Ġprov": 4663,
      "Ġproxim": 4664,
      "Ġesprit": 4665,
      "act": 4666,
      "Ġinjus": 4667,
      "Ġserp": 4668,
      "Ġtravaillez": 4669,
      "Ġferions": 4670,
      "Ġcommettre": 4671,
      "Ġpassa": 4672,
      "Ġbonjour": 4673,
      "Ġimpression": 4674,
      "Ġposter": 4675,
      "Ġcommand": 4676,
      "Ġcourte": 4677,
      "Ġlongs": 4678,
      "attention": 4679,
      "Ġriches": 4680,
      "Ġrendue": 4681,
      "Ġraisonnable": 4682,
      "obile": 4683,
      "ĠÃ©tudiante": 4684,
      "erreurs": 4685,
      "Ġparfaite": 4686,
      "Ġfutur": 4687,
      "Ġinsp": 4688,
      "Ġinstituteur": 4689,
      "Ġvivez": 4690,
      "ĠrentrÃ©e": 4691,
      "ĠmÃ©decins": 4692,
      "ĠprÃ©sentÃ©": 4693,
      "Ġchatte": 4694,
      "session": 4695,
      "ĠgÃ©nie": 4696,
      "Ġfautes": 4697,
      "iendrai": 4698,
      "Ġapparence": 4699,
      "Ġreprod": 4700,
      "Ã¯s": 4701,
      "ĠretirÃ©": 4702,
      "Ġdistingu": 4703,
      "ĠautorisÃ©e": 4704,
      "Ġrempla": 4705,
      "Ġdescendre": 4706,
      "Ġsuggest": 4707,
      "Ġenvirons": 4708,
      "Ġcessez": 4709,
      "ĠrÃ©gler": 4710,
      "Ġsympath": 4711,
      "Ġpoulet": 4712,
      "Ġpardonner": 4713,
      "Ġcanadien": 4714,
      "ennemi": 4715,
      "ordinateur": 4716,
      "ennuy": 4717,
      "ĠdÃ©mÃ©nagÃ©": 4718,
      "Ġambiti": 4719,
      "Ġtiroir": 4720,
      "Ġassurance": 4721,
      "ĠÃ©norme": 4722,
      "Ġclef": 4723,
      "Ġflics": 4724,
      "Ġescaliers": 4725,
      "ĠprÃ©fÃ©rable": 4726,
      "hÃ©si": 4727,
      "Ġceinture": 4728,
      "ĠproximitÃ©": 4729,
      "humeur": 4730,
      "rure": 4731,
      "Ġ6": 4732,
      "Ġ:": 4733,
      "Ġdress": 4734,
      "Ġdame": 4735,
      "aid": 4736,
      "aiment": 4737,
      "Ã©l": 4738,
      "Ġtelles": 4739,
      "ĠcÃ©rÃ©": 4740,
      "Ġvaisselle": 4741,
      "Ġmous": 4742,
      "ĠmÃ©tÃ©": 4743,
      "erver": 4744,
      "Ġpatr": 4745,
      "Ġfirent": 4746,
      "entraÃ®": 4747,
      "ombre": 4748,
      "ĠillÃ©g": 4749,
      "Ġrasse": 4750,
      "Ġroses": 4751,
      "ind": 4752,
      "ĠprÃªtÃ©": 4753,
      "Ġparte": 4754,
      "tice": 4755,
      "aviez": 4756,
      "ĠÃ©tant": 4757,
      "Ġrelation": 4758,
      "ĠdÃ©l": 4759,
      "Ġsite": 4760,
      "ama": 4761,
      "ecte": 4762,
      "atte": 4763,
      "ĠÃ©par": 4764,
      "urÃ©": 4765,
      "ive": 4766,
      "Ġarmes": 4767,
      "terie": 4768,
      "Ġdemie": 4769,
      "Ġdissi": 4770,
      "Ġsable": 4771,
      "gnes": 4772,
      "Ġcrise": 4773,
      "ĠcrÃ¨me": 4774,
      "Ġtravaillent": 4775,
      "Ġancien": 4776,
      "ĠtrouvÃ©e": 4777,
      "Ġmangent": 4778,
      "Ġmalch": 4779,
      "Ġpassait": 4780,
      "ĠdeuxiÃ¨me": 4781,
      "Ġlaisses": 4782,
      "Ġcourri": 4783,
      "ĠcomprÃ©h": 4784,
      "Ġregardes": 4785,
      "Ġessaye": 4786,
      "Ġphy": 4787,
      "obtenir": 4788,
      "Ġterr": 4789,
      "Ġterme": 4790,
      "Ġprofessi": 4791,
      "Ġouvrez": 4792,
      "ĠhabillÃ©": 4793,
      "loge": 4794,
      "Ġdouz": 4795,
      "Ġfamilier": 4796,
      "Ġcinquante": 4797,
      "Ġblanche": 4798,
      "Ġconnaissais": 4799,
      "Ġ100": 4800,
      "ĠÃ©chou": 4801,
      "ĠprÃ©voyez": 4802,
      "Ġgueu": 4803,
      "attendrai": 4804,
      "ĠrencontrÃ©es": 4805,
      "Ġproduits": 4806,
      "ĠfonctionnÃ©": 4807,
      "Ġcrier": 4808,
      "Ġcopie": 4809,
      "Ġfrappa": 4810,
      "Ġraconte": 4811,
      "Ġperds": 4812,
      "Ġignore": 4813,
      "Ġanimal": 4814,
      "Ġlarge": 4815,
      "Ġminuit": 4816,
      "Ġformulaire": 4817,
      "ĠÃ©clair": 4818,
      "ĠlÃ©ger": 4819,
      "article": 4820,
      "ĠÃ©crivez": 4821,
      "Ġski": 4822,
      "Ġreviendra": 4823,
      "enseigner": 4824,
      "ĠdotÃ©": 4825,
      "achÃ¨te": 4826,
      "Ġlimite": 4827,
      "Ġpratiquement": 4828,
      "Ġennemi": 4829,
      "Ġoppos": 4830,
      "ricitÃ©": 4831,
      "Ġhistoires": 4832,
      "Ġsimil": 4833,
      "ĠcoÃ¯ncid": 4834,
      "ates": 4835,
      "cles": 4836,
      "cens": 4837,
      "lou": 4838,
      "lait": 4839,
      "Â»": 4840,
      "Ġ9": 4841,
      "Ġital": 4842,
      "Ġpoign": 4843,
      "Ã©f": 4844,
      "Ã©cu": 4845,
      "Ġcard": 4846,
      "Ġsaut": 4847,
      "Ġsienne": 4848,
      "Ġsoixante": 4849,
      "once": 4850,
      "Ġap": 4851,
      "Ġnatif": 4852,
      "Ġviennes": 4853,
      "Ġmaire": 4854,
      "ĠfÃ©": 4855,
      "estomac": 4856,
      "teau": 4857,
      "Ġbaign": 4858,
      "Ġsup": 4859,
      "Ã©tagÃ¨re": 4860,
      "ĠchÃ¢teau": 4861,
      "auff": 4862,
      "tim": 4863,
      "ave": 4864,
      "ĠtouchÃ©": 4865,
      "Ġrel": 4866,
      "Ġreje": 4867,
      "ĠdÃ©col": 4868,
      "allemagne": 4869,
      "ectÃ©": 4870,
      "attraper": 4871,
      "ĠvotÃ©": 4872,
      "Ġalent": 4873,
      "Ġallions": 4874,
      "chette": 4875,
      "Ã®le": 4876,
      "ĠprÃ©nom": 4877,
      "Ġtrouva": 4878,
      "Ġferons": 4879,
      "Ġferas": 4880,
      "Ġliqu": 4881,
      "ĠÃ©cras": 4882,
      "igne": 4883,
      "Ġfranchement": 4884,
      "ĠfranÃ§aise": 4885,
      "ĠdÃ©ton": 4886,
      "Ġpartons": 4887,
      "ĠconsidÃ©": 4888,
      "Ġsentie": 4889,
      "ĠconfÃ©rence": 4890,
      "accus": 4891,
      "Ġrappel": 4892,
      "obs": 4893,
      "Ġterrif": 4894,
      "ĠprÃ©fÃ¨res": 4895,
      "Ġexpert": 4896,
      "Ġfacture": 4897,
      "Ġouvrage": 4898,
      "Ġpoints": 4899,
      "ĠexcitÃ©": 4900,
      "ĠappelÃ©e": 4901,
      "ĠblessÃ©es": 4902,
      "ĠdÃ©bat": 4903,
      "ĠÃ©trangÃ¨re": 4904,
      "Ġsouri": 4905,
      "lications": 4906,
      "ĠdÃ©rangÃ©": 4907,
      "Ġfrapper": 4908,
      "Ġretire": 4909,
      "Ġpleuvra": 4910,
      "Ġjuger": 4911,
      "Ġinternet": 4912,
      "ĠrÃ©aliser": 4913,
      "Ġplainte": 4914,
      "Ġcamar": 4915,
      "ĠdÃ©goÃ»": 4916,
      "ĠimpressionnÃ©e": 4917,
      "Ġnerveuse": 4918,
      "Ġclients": 4919,
      "Ġrespecter": 4920,
      "Ġfassions": 4921,
      "Ġsembla": 4922,
      "ĠmÃ©dicaments": 4923,
      "ĠmÃ©th": 4924,
      "Ġnuages": 4925,
      "arrÃªta": 4926,
      "Ġdestin": 4927,
      "Ġapportez": 4928,
      "cidents": 4929,
      "Ġexamens": 4930,
      "ĠcontrariÃ©e": 4931,
      "Ġbuvez": 4932,
      "Ġchauffeur": 4933,
      "Ġaveugle": 4934,
      "Ġgentillesse": 4935,
      "Ġserviette": 4936,
      "Ġmeubles": 4937,
      "Ġchandail": 4938,
      "Ġbaiser": 4939,
      "herbe": 4940,
      "bri": 4941,
      "cent": 4942,
      "Ġ4": 4943,
      "Ġpel": 4944,
      "Ġdan": 4945,
      "Ġdors": 4946,
      "Ġlo": 4947,
      "Ġlin": 4948,
      "Ġtaux": 4949,
      "Ġcla": 4950,
      "ĠsonnÃ©": 4951,
      "Ġjume": 4952,
      "reuses": 4953,
      "quin": 4954,
      "ĠmÃ©c": 4955,
      "oigne": 4956,
      "eures": 4957,
      "Ġunivers": 4958,
      "Ġlab": 4959,
      "Ġrang": 4960,
      "Ã¨ce": 4961,
      "armÃ©e": 4962,
      "Ġprati": 4963,
      "oritÃ©": 4964,
      "ust": 4965,
      "auriez": 4966,
      "Ġparoles": 4967,
      "aver": 4968,
      "avions": 4969,
      "Ġgel": 4970,
      "Ġgor": 4971,
      "Ġtech": 4972,
      "Ġrecevoir": 4973,
      "Ġheur": 4974,
      "ĠdÃ©pos": 4975,
      "agnes": 4976,
      "irurg": 4977,
      "Ġprocu": 4978,
      "Ġdiable": 4979,
      "ĠÃ©lÃ©g": 4980,
      "Ġsurp": 4981,
      "ortun": 4982,
      "Ġing": 4983,
      "Ġintr": 4984,
      "uiss": 4985,
      "Ã©rant": 4986,
      "Ġsachiez": 4987,
      "ottes": 4988,
      "Ġsavaient": 4989,
      "Ġdirectement": 4990,
      "ĠexprÃ¨s": 4991,
      "Ġtrouvent": 4992,
      "Ġjustice": 4993,
      "Ġmalin": 4994,
      "ordre": 4995,
      "Ã´tres": 4996,
      "Ġpossession": 4997,
      "Ġjouait": 4998,
      "Ġfinanci": 4999,
      "ĠtroisiÃ¨me": 5000,
      "Ġconstit": 5001,
      "ĠmÃ©n": 5002,
      "ĠmÃ©pr": 5003,
      "Ġconfortable": 5004,
      "Ġpoches": 5005,
      "Ġconseille": 5006,
      "Ġforts": 5007,
      "uves": 5008,
      "quip": 5009,
      "Ġsurpren": 5010,
      "Ġtableaux": 5011,
      "apprÃ©cierais": 5012,
      "ĠÃ¢gÃ©e": 5013,
      "Ġvivait": 5014,
      "Ġconclus": 5015,
      "ĠÃ©poque": 5016,
      "Ġutilis": 5017,
      "ĠutilisÃ©": 5018,
      "ĠemployÃ©": 5019,
      "Ġquitte": 5020,
      "ieds": 5021,
      "Ġsouhaitez": 5022,
      "ĠrÃªver": 5023,
      "Ġabsence": 5024,
      "Ġimportantes": 5025,
      "Ġretira": 5026,
      "ĠfermÃ©s": 5027,
      "ĠrÃ©flÃ©chis": 5028,
      "Ġrisques": 5029,
      "Ġrempli": 5030,
      "Ġrater": 5031,
      "oublierai": 5032,
      "Ġmenac": 5033,
      "Ġparlait": 5034,
      "ĠrecommandÃ©": 5035,
      "ĠÃ©pousÃ©": 5036,
      "Ġconvaincue": 5037,
      "Ġbillets": 5038,
      "issement": 5039,
      "ĠÃ©coutez": 5040,
      "Ġmerveilleuse": 5041,
      "Ġremets": 5042,
      "Ġretrouver": 5043,
      "ĠquantitÃ©": 5044,
      "ĠdÃ©mÃ©nager": 5045,
      "neuf": 5046,
      "ĠdÃ©licieux": 5047,
      "Ġcapitaine": 5048,
      "ĠÃ©nervÃ©": 5049,
      "ĠcensÃ©e": 5050,
      "ĠracontÃ©": 5051,
      "ĠÃ©clata": 5052,
      "Ġlouer": 5053,
      "ĠrÃ©parÃ©": 5054,
      "Ġosaka": 5055,
      "ĠÃ©chappÃ©": 5056,
      "Ġsaint": 5057,
      "Ġoreilles": 5058,
      "ĠsupplÃ©mentaire": 5059,
      "Ã©chapper": 5060,
      "Ġdisponible": 5061,
      "ĠparticuliÃ¨rement": 5062,
      "Ã©conomie": 5063,
      "Ġmondiale": 5064,
      "Ġprotest": 5065,
      "Ġblagues": 5066,
      "ĠaisÃ©": 5067,
      "Ġdistinguer": 5068,
      "Ġpatronne": 5069,
      "ĠcoÃ¯ncidence": 5070,
      "Ġliquide": 5071,
      "..": 5072,
      "bum": 5073,
      "ctes": 5074,
      "gts": 5075,
      "ionn": 5076,
      "ju": 5077,
      "lant": 5078,
      "umer": 5079,
      "vÃ©s": 5080,
      "Ġcd": 5081,
      "Ġsonne": 5082,
      "Ġvilles": 5083,
      "anches": 5084,
      "ĠÃ´": 5085,
      "estre": 5086,
      "ĠleÃ§on": 5087,
      "Ġlecture": 5088,
      "Ġbri": 5089,
      "Ġron": 5090,
      "Ã¨ner": 5091,
      "orig": 5092,
      "usÃ©e": 5093,
      "Ã©tage": 5094,
      "ĠcomitÃ©": 5095,
      "choir": 5096,
      "onnÃ¨rent": 5097,
      "agÃ©e": 5098,
      "angÃ©": 5099,
      "Ġaidez": 5100,
      "Ġmarteau": 5101,
      "Ġanti": 5102,
      "ĠrestÃ©s": 5103,
      "Ġonze": 5104,
      "Ġpartiel": 5105,
      "Ġparticip": 5106,
      "Ġpasses": 5107,
      "Ġcontents": 5108,
      "Ġlicen": 5109,
      "Ġdemandes": 5110,
      "Ġvieill": 5111,
      "Ġbruy": 5112,
      "onges": 5113,
      "Ġsouvenez": 5114,
      "ĠdÃ©tend": 5115,
      "Ġconsulter": 5116,
      "Ġpul": 5117,
      "Ġsentait": 5118,
      "Ġsentit": 5119,
      "Ġapproche": 5120,
      "aiderai": 5121,
      "Ġproches": 5122,
      "issant": 5123,
      "utilise": 5124,
      "ĠchantÃ©": 5125,
      "Ġpassera": 5126,
      "idence": 5127,
      "ĠinvitÃ©e": 5128,
      "ĠremÃ¨de": 5129,
      "Ġrouges": 5130,
      "Ġverti": 5131,
      "ĠÃ©trangÃ¨res": 5132,
      "Ġmoder": 5133,
      "Ġmourut": 5134,
      "ĠobligÃ©s": 5135,
      "Ġsoign": 5136,
      "ĠdÃ©faut": 5137,
      "ĠÃ©viter": 5138,
      "Ġromans": 5139,
      "ĠrÃ©flÃ©chi": 5140,
      "Ġirons": 5141,
      "ĠsupposÃ©e": 5142,
      "Ġsortons": 5143,
      "Ġsuperbe": 5144,
      "apprends": 5145,
      "Ġpauvres": 5146,
      "Ġcorrect": 5147,
      "Ġchangements": 5148,
      "Ġmouchoir": 5149,
      "ĠprÃ©fÃ©rez": 5150,
      "Ġpleurait": 5151,
      "Ġchanceuse": 5152,
      "Ġreviendrai": 5153,
      "Ġmordu": 5154,
      "achÃ¨ter": 5155,
      "entendis": 5156,
      "ĠpossibilitÃ©s": 5157,
      "Ġannuler": 5158,
      "ĠannulÃ©": 5159,
      "Ġfournir": 5160,
      "monie": 5161,
      "ĠamenÃ©": 5162,
      "Ġpersuader": 5163,
      "ĠdiplÃ´mÃ©": 5164,
      "Ġprisonniers": 5165,
      "habituer": 5166,
      "Ġ201": 5167,
      "ĠloupÃ©": 5168,
      "ĠÃ©puisÃ©": 5169,
      "Ġasseyez": 5170,
      "ĠtÃ¢che": 5171,
      "Ġcuisinier": 5172,
      "Ã©tudiants": 5173,
      "Ġconstamment": 5174,
      "Ġexige": 5175,
      "Ġtarte": 5176,
      "endormir": 5177,
      "Ġsurveiller": 5178,
      "Ġridicule": 5179,
      "Ġconcerne": 5180,
      "Ġinjuste": 5181,
      "gique": 5182,
      "gies": 5183,
      "hous": 5184,
      "huit": 5185,
      "ias": 5186,
      "jection": 5187,
      "pendant": 5188,
      "Ġps": 5189,
      "Ġdrap": 5190,
      "esc": 5191,
      "Ġlois": 5192,
      "Ġsensible": 5193,
      "oide": 5194,
      "Ġfile": 5195,
      "ombe": 5196,
      "lettes": 5197,
      "Ġlampe": 5198,
      "Ġbasse": 5199,
      "Ġrob": 5200,
      "Ġrues": 5201,
      "inconvÃ©nient": 5202,
      "Ġsuc": 5203,
      "ormer": 5204,
      "order": 5205,
      "orient": 5206,
      "Ġchirurg": 5207,
      "sept": 5208,
      "Ġparla": 5209,
      "Ġaurons": 5210,
      "Ġplomb": 5211,
      "Ġgam": 5212,
      "Ġtouchez": 5213,
      "Ġreven": 5214,
      "Ġhall": 5215,
      "allemand": 5216,
      "Ġpensiez": 5217,
      "Ġoh": 5218,
      "Ġaie": 5219,
      "ĠÃ©qu": 5220,
      "Ġfroide": 5221,
      "Ġcroir": 5222,
      "opri": 5223,
      "Ġbienvenu": 5224,
      "ĠbeautÃ©": 5225,
      "Ġdirecteur": 5226,
      "Ġentra": 5227,
      "Ġfaisaient": 5228,
      "Ġvenait": 5229,
      "Ġperp": 5230,
      "Ġcauser": 5231,
      "Ġconnue": 5232,
      "ĠarrivÃ©es": 5233,
      "Ġdemandais": 5234,
      "Ġposez": 5235,
      "ades": 5236,
      "Ġjouons": 5237,
      "Ã©cris": 5238,
      "Ã©cart": 5239,
      "Ġbouge": 5240,
      "Ġmatern": 5241,
      "Ġride": 5242,
      "Ġrendent": 5243,
      "Ġrendra": 5244,
      "Ġpromit": 5245,
      "illÃ¨re": 5246,
      "Ġmeilleures": 5247,
      "ĠtÃ©lÃ©phoner": 5248,
      "aleine": 5249,
      "uvre": 5250,
      "Ġexcit": 5251,
      "Ġforces": 5252,
      "Ġchevaux": 5253,
      "ĠÃ¢gÃ©es": 5254,
      "ĠÃ©paule": 5255,
      "emporter": 5256,
      "emprun": 5257,
      "Ġconnaissent": 5258,
      "Ġconnaissons": 5259,
      "Ġcontrac": 5260,
      "Ġsolaire": 5261,
      "Ġembau": 5262,
      "Ġagit": 5263,
      "Ġsourit": 5264,
      "Ġattendons": 5265,
      "Ġdessert": 5266,
      "Ġoffens": 5267,
      "Ġoffert": 5268,
      "Ġtenter": 5269,
      "Ġcadeaux": 5270,
      "Ġcharm": 5271,
      "Ġinterromp": 5272,
      "Ġdoigts": 5273,
      "Ġhorreur": 5274,
      "ĠcessÃ©": 5275,
      "Ġinformation": 5276,
      "Ġmensonges": 5277,
      "ĠdÃ©testent": 5278,
      "Ġrespecte": 5279,
      "ĠarrÃªtÃ©e": 5280,
      "ĠÃ©lÃ¨ve": 5281,
      "Ġremettez": 5282,
      "Ġincroyablement": 5283,
      "ĠvolontÃ©": 5284,
      "Ġmarchand": 5285,
      "ĠscÃ¨ne": 5286,
      "raphie": 5287,
      "Ġlourde": 5288,
      "lexe": 5289,
      "Ġeffectuer": 5290,
      "ĠprÃ©tend": 5291,
      "Ġgrossier": 5292,
      "Ġmiroir": 5293,
      "abandonner": 5294,
      "Ġplafond": 5295,
      "Ġpuni": 5296,
      "Ġcousin": 5297,
      "Ġtravaillons": 5298,
      "ĠdÃ©truit": 5299,
      "ĠpÃ©nÃ©trer": 5300,
      "Ġcigarette": 5301,
      "Ġfleuve": 5302,
      "ĠdÃ©pourvu": 5303,
      "Ġscientifique": 5304,
      "ĠpÃªche": 5305,
      "Ġjaune": 5306,
      "Ġlogique": 5307,
      "Ġquotidiennement": 5308,
      "Ġsoudainement": 5309,
      "Ġrassemb": 5310,
      "Ġgueule": 5311,
      "censeur": 5312,
      "ĠfÃ©lic": 5313,
      "ĠingÃ©n": 5314,
      "housias": 5315,
      "bon": 5316,
      "ber": 5317,
      "drai": 5318,
      "gÃ©t": 5319,
      "iÃ©s": 5320,
      "ibles": 5321,
      "ket": 5322,
      "lau": 5323,
      "lam": 5324,
      "ow": 5325,
      "ser": 5326,
      "table": 5327,
      "Ġpes": 5328,
      "ouff": 5329,
      "Ġtente": 5330,
      "Ġsitue": 5331,
      "Ġamp": 5332,
      "Ġaper": 5333,
      "Ġajouter": 5334,
      "Ġmiens": 5335,
      "ĠfÃ»mes": 5336,
      "esti": 5337,
      "Ġpassi": 5338,
      "ourdi": 5339,
      "Ġlav": 5340,
      "ĠlavÃ©": 5341,
      "ĠrÃ´le": 5342,
      "ina": 5343,
      "ĠtuÃ©s": 5344,
      "Ġpartez": 5345,
      "cement": 5346,
      "Ġcommer": 5347,
      "chauff": 5348,
      "Ġhe": 5349,
      "resp": 5350,
      "ĠrÃ©v": 5351,
      "Ġsurf": 5352,
      "ĠindÃ©": 5353,
      "Ġconte": 5354,
      "endrez": 5355,
      "ĠfraÃ®": 5356,
      "Ã©rÃ©s": 5357,
      "ĠserrÃ©": 5358,
      "ots": 5359,
      "lÃ¨ve": 5360,
      "Ġfaisiez": 5361,
      "Ã¢t": 5362,
      "Ġconten": 5363,
      "Ġlignes": 5364,
      "Ġarrivent": 5365,
      "Ġcommande": 5366,
      "Ġcourut": 5367,
      "ignorer": 5368,
      "Ġaccidents": 5369,
      "Ã©cl": 5370,
      "ĠtÃ©moin": 5371,
      "ĠmatÃ©ri": 5372,
      "Ġlongues": 5373,
      "ĠdÃ©cour": 5374,
      "ĠvisitÃ©": 5375,
      "obÃ©": 5376,
      "Ġmontrerai": 5377,
      "ĠexpÃ©ri": 5378,
      "ĠpiÃ¨ge": 5379,
      "Ġimage": 5380,
      "ĠtÃ©lÃ©phonÃ©": 5381,
      "Ġaffam": 5382,
      "issue": 5383,
      "Ġrencontres": 5384,
      "Ġfiable": 5385,
      "Ġinviter": 5386,
      "Ġstri": 5387,
      "Ġsigner": 5388,
      "ĠsÃ»rement": 5389,
      "adorerais": 5390,
      "Ġverres": 5391,
      "ĠplanÃ¨te": 5392,
      "Ġgentils": 5393,
      "Ġreconnais": 5394,
      "Ġarriverait": 5395,
      "Ġfoudre": 5396,
      "ĠsautÃ©": 5397,
      "Ġsauve": 5398,
      "essayais": 5399,
      "Ġcontinua": 5400,
      "Ġcontinuez": 5401,
      "Ġchoisis": 5402,
      "ĠapprÃ©cier": 5403,
      "Ġpapiers": 5404,
      "Ġstupides": 5405,
      "ĠhabituÃ©e": 5406,
      "occupe": 5407,
      "Ġcharge": 5408,
      "Ġmoral": 5409,
      "Ġperdue": 5410,
      "Ġtromper": 5411,
      "Ġcambri": 5412,
      "ĠÃ©teins": 5413,
      "ĠÃ©teindre": 5414,
      "ĠhÃ´pital": 5415,
      "Ã©chec": 5416,
      "ĠconsidÃ©rÃ©": 5417,
      "Ġaccompli": 5418,
      "Ġviolence": 5419,
      "ĠinquiÃ¨te": 5420,
      "offe": 5421,
      "Ġplaces": 5422,
      "Ġtalentu": 5423,
      "Ġbaisser": 5424,
      "Ġmyst": 5425,
      "Ġinstructions": 5426,
      "Ġobjectif": 5427,
      "Ġparesseux": 5428,
      "ĠallongÃ©": 5429,
      "ĠÃ©toiles": 5430,
      "Ġquarante": 5431,
      "Ġrembours": 5432,
      "Ġmalchanc": 5433,
      "Ġdanse": 5434,
      "af": 5435,
      "ament": 5436,
      "die": 5437,
      "itement": 5438,
      "lit": 5439,
      "otÃ©": 5440,
      "ym": 5441,
      "Ġ7": 5442,
      "Ġpeau": 5443,
      "Ġpomp": 5444,
      "Ã©reux": 5445,
      "Ġcuire": 5446,
      "ĠsÃ¨": 5447,
      "Ġniv": 5448,
      "Ġmouv": 5449,
      "Ġmirent": 5450,
      "ĠmÃ¨tres": 5451,
      "Ġquas": 5452,
      "ĠÃ®": 5453,
      "isÃ©es": 5454,
      "Ġbel": 5455,
      "Ġrose": 5456,
      "Ġramen": 5457,
      "Ġralent": 5458,
      "inte": 5459,
      "Ġpark": 5460,
      "Ġparaiss": 5461,
      "Ġparlais": 5462,
      "Ġgaler": 5463,
      "ĠdÃ©cev": 5464,
      "agers": 5465,
      "atrice": 5466,
      "Ġvoter": 5467,
      "Ġvoleurs": 5468,
      "Ġdevine": 5469,
      "Ġalbum": 5470,
      "ĠÃ©lu": 5471,
      "Ġinhabitu": 5472,
      "dire": 5473,
      "Ã©rateur": 5474,
      "Ġapplau": 5475,
      "applique": 5476,
      "Ġenter": 5477,
      "ĠprÃ©venu": 5478,
      "ĠprÃ©venir": 5479,
      "Ġvirer": 5480,
      "abs": 5481,
      "Ġvoient": 5482,
      "Ġmesures": 5483,
      "Ġpassage": 5484,
      "Ġpassagers": 5485,
      "assur": 5486,
      "Ġimpuiss": 5487,
      "Ġcourageux": 5488,
      "Ġact": 5489,
      "Ġacteur": 5490,
      "Ġbros": 5491,
      "Ġacheta": 5492,
      "ĠpayÃ©e": 5493,
      "ĠmÃ©chant": 5494,
      "Ġapprend": 5495,
      "Ġapprouv": 5496,
      "Ġemplettes": 5497,
      "ĠvoyagÃ©": 5498,
      "ĠclÃ´": 5499,
      "Ġabe": 5500,
      "allait": 5501,
      "Ġtrouverais": 5502,
      "Ġexplications": 5503,
      "ĠcollÃ¨": 5504,
      "ifier": 5505,
      "Ġrever": 5506,
      "Ġcroiss": 5507,
      "Ġportent": 5508,
      "ĠprÃ©sents": 5509,
      "Ġmontagnes": 5510,
      "Ġcommencez": 5511,
      "ĠdouÃ©": 5512,
      "ĠvÃ©hi": 5513,
      "ĠvÃ©gÃ©t": 5514,
      "Ġfortes": 5515,
      "ĠretournÃ©": 5516,
      "habiller": 5517,
      "Ġentretenir": 5518,
      "Ġdisposais": 5519,
      "Ġsalade": 5520,
      "idÃ©es": 5521,
      "Ġheureusement": 5522,
      "Ġagir": 5523,
      "ĠsÃ©v": 5524,
      "essayez": 5525,
      "ĠrÃ©frig": 5526,
      "ĠÃ©gal": 5527,
      "Ġaimons": 5528,
      "Ġchoisissez": 5529,
      "Ġmagasins": 5530,
      "Ġferma": 5531,
      "Ġfourchette": 5532,
      "Ġordinateurs": 5533,
      "Ã©poque": 5534,
      "Ġsignification": 5535,
      "Ġsouhaiter": 5536,
      "Ġtraduit": 5537,
      "Ġbarb": 5538,
      "Ġentendit": 5539,
      "Ġactuelle": 5540,
      "excuse": 5541,
      "ĠeffrayÃ©e": 5542,
      "Ġsecours": 5543,
      "Ġtransf": 5544,
      "Ġcanadienne": 5545,
      "Ġtrico": 5546,
      "Ġcruel": 5547,
      "Ġmillions": 5548,
      "Ġculture": 5549,
      "Ġcherchais": 5550,
      "Ġcommuni": 5551,
      "Ġfolles": 5552,
      "Ġliber": 5553,
      "Ġlocuteur": 5554,
      "Ġpreuves": 5555,
      "Ġprofonde": 5556,
      "Ġplaisanterie": 5557,
      "ĠconsacrÃ©": 5558,
      "Ġmiracle": 5559,
      "ĠmÃ©rit": 5560,
      "ĠfÃ¢chÃ©": 5561,
      "ĠachÃ¨te": 5562,
      "ĠamÃ©liorÃ©": 5563,
      "iaque": 5564,
      "ĠnaÃ¯f": 5565,
      "ĠcoÃ»tera": 5566,
      "Ġaverti": 5567,
      "appartient": 5568,
      "Ġdiscutons": 5569,
      "Ġcorriger": 5570,
      "honnÃªte": 5571,
      "Ġfurieux": 5572,
      "Ġdocument": 5573,
      "Ġfabri": 5574,
      "admets": 5575,
      "ĠblÃ¢mer": 5576,
      "Ġcourriel": 5577,
      "Ġphysique": 5578,
      "Ġdouzaine": 5579,
      "Ġlicenci": 5580,
      "Ġ2013": 5581,
      "Ġniveau": 5582,
      "rud": 5583,
      "roid": 5584,
      "uff": 5585,
      "ych": 5586,
      "Ġurgence": 5587,
      "aides": 5588,
      "Ã©ducation": 5589,
      "Ġlent": 5590,
      "Ġti": 5591,
      "Ġtit": 5592,
      "Ġcis": 5593,
      "Ġcat": 5594,
      "Ġcasser": 5595,
      "Ġscol": 5596,
      "Ġvente": 5597,
      "Ġmas": 5598,
      "Ġpat": 5599,
      "ana": 5600,
      "ĠfÃªtes": 5601,
      "entendu": 5602,
      "aises": 5603,
      "isions": 5604,
      "Ġball": 5605,
      "Ġrit": 5606,
      "iteur": 5607,
      "arc": 5608,
      "Ġchoc": 5609,
      "Ġpourv": 5610,
      "char": 5611,
      "Ãªtu": 5612,
      "dem": 5613,
      "Ġha": 5614,
      "aly": 5615,
      "alarme": 5616,
      "agir": 5617,
      "Ġsep": 5618,
      "Ġquelcon": 5619,
      "ĠidÃ©": 5620,
      "Ġdiam": 5621,
      "diez": 5622,
      "Ġgro": 5623,
      "gner": 5624,
      "apacitÃ©": 5625,
      "Ġapporter": 5626,
      "ota": 5627,
      "Ġenthousias": 5628,
      "Ġparties": 5629,
      "Ġvaches": 5630,
      "Ġattitude": 5631,
      "encre": 5632,
      "Ġconnait": 5633,
      "Ġarrivez": 5634,
      "emm": 5635,
      "emmen": 5636,
      "icile": 5637,
      "Ġlaissons": 5638,
      "espace": 5639,
      "Ġaccue": 5640,
      "admi": 5641,
      "Ġsoucis": 5642,
      "Ġjouent": 5643,
      "Ã©cout": 5644,
      "Ġfinit": 5645,
      "Ġmanques": 5646,
      "ĠmaniÃ¨res": 5647,
      "Ġconsom": 5648,
      "ĠdÃ©cl": 5649,
      "ĠmÃ©d": 5650,
      "Ġvisa": 5651,
      "Ġabat": 5652,
      "imm": 5653,
      "Ġpoil": 5654,
      "Ġaiderai": 5655,
      "ifiques": 5656,
      "Ġpression": 5657,
      "issante": 5658,
      "Ġmenteuse": 5659,
      "Ġblessure": 5660,
      "Ġchanteuse": 5661,
      "Ġentrepr": 5662,
      "Ġsales": 5663,
      "Ġconcours": 5664,
      "Ġ16": 5665,
      "Ġcontraire": 5666,
      "Ġexact": 5667,
      "ĠcÃ´te": 5668,
      "Ġlangage": 5669,
      "Ġplaisante": 5670,
      "Ġmangea": 5671,
      "Ġmangeons": 5672,
      "Ġinflu": 5673,
      "ĠinfirmiÃ¨re": 5674,
      "Ġaimait": 5675,
      "Ġtypes": 5676,
      "ĠnÃ©cessaires": 5677,
      "incapacitÃ©": 5678,
      "Ġoptions": 5679,
      "Ġcharger": 5680,
      "Ġinterdit": 5681,
      "Ġsortis": 5682,
      "oiseau": 5683,
      "ĠrisquÃ©": 5684,
      "Ġcentaines": 5685,
      "ĠautorisÃ©s": 5686,
      "ĠsuggÃ©": 5687,
      "ĠpubliÃ©": 5688,
      "Ġsatisfaits": 5689,
      "Ġtraduction": 5690,
      "Ġdescends": 5691,
      "Ġaimerait": 5692,
      "Ġrattraper": 5693,
      "agnol": 5694,
      "Ġremercie": 5695,
      "Ġhauteur": 5696,
      "Ġimpatience": 5697,
      "ĠcuillÃ¨re": 5698,
      "Ġattir": 5699,
      "imagin": 5700,
      "Ġtransp": 5701,
      "Ġindiff": 5702,
      "Ġcanada": 5703,
      "Ġscience": 5704,
      "Ġjalouse": 5705,
      "Ġpareil": 5706,
      "Ġdestination": 5707,
      "ĠdivorcÃ©": 5708,
      "ĠallumÃ©": 5709,
      "ĠdÃ©brouillÃ©": 5710,
      "Ġtapis": 5711,
      "ĠprÃ©tendu": 5712,
      "accompagner": 5713,
      "ribuÃ©": 5714,
      "ĠdÃ©terminÃ©": 5715,
      "ĠpÃ¢le": 5716,
      "ĠsupplÃ©mentaires": 5717,
      "Ġdomicile": 5718,
      "ĠmaÃ®tr": 5719,
      "Ġasseyons": 5720,
      "ĠlÃ¨vres": 5721,
      "Ġhurler": 5722,
      "ĠÃ©tasuniens": 5723,
      "Ġconducteur": 5724,
      "ĠobÃ©ir": 5725,
      "ĠrÃ©ponds": 5726,
      "aucune": 5727,
      "Ġamical": 5728,
      "ĠpÃ©riode": 5729,
      "ĠrÃ©cupÃ©rer": 5730,
      "Ġsuggestion": 5731,
      "Ġambitieux": 5732,
      "ĠmÃ©tÃ©o": 5733,
      "ĠillÃ©gal": 5734,
      "Ġdissim": 5735,
      "Ġsimilaire": 5736,
      "ĠsupÃ©ri": 5737,
      "ĠmÃ©thode": 5738,
      "ĠsucrÃ©": 5739,
      "Ġmaternelle": 5740,
      "ĠÃ®le": 5741,
      "ĠrÃ©frigÃ©rateur": 5742,
      "ĠlibertÃ©": 5743,
      "Ġciseaux": 5744,
      "Ġquelconques": 5745,
      "ctron": 5746,
      "lle": 5747,
      "lor": 5748,
      "neur": 5749,
      "oler": 5750,
      "oÃ¯s": 5751,
      "ville": 5752,
      "vard": 5753,
      "ĠpÃ©r": 5754,
      "escal": 5755,
      "outu": 5756,
      "Ġtas": 5757,
      "Ġtail": 5758,
      "Ġcuit": 5759,
      "Ġsonna": 5760,
      "Ġjoin": 5761,
      "Ġjoy": 5762,
      "quelles": 5763,
      "Ġaj": 5764,
      "Ġvague": 5765,
      "Ġmun": 5766,
      "ĠmÃ¢": 5767,
      "ĠqualitÃ©": 5768,
      "Ġqualif": 5769,
      "Ġpattes": 5770,
      "Ġpaquet": 5771,
      "ili": 5772,
      "anÃ§a": 5773,
      "Ġunes": 5774,
      "Ġrenv": 5775,
      "itif": 5776,
      "Ã©toffe": 5777,
      "Ġavert": 5778,
      "Ġavancer": 5779,
      "Ġpourraient": 5780,
      "Ġparliez": 5781,
      "tiens": 5782,
      "tive": 5783,
      "chon": 5784,
      "chÃ©es": 5785,
      "onnant": 5786,
      "ricul": 5787,
      "ĠgÃ¢te": 5788,
      "Ġrequ": 5789,
      "ĠdÃ©te": 5790,
      "ĠdÃ©lic": 5791,
      "agissait": 5792,
      "uies": 5793,
      "attrap": 5794,
      "Ġastu": 5795,
      "Ġvole": 5796,
      "Ġaient": 5797,
      "lÃ©ph": 5798,
      "ĠrÃ©di": 5799,
      "ĠrÃ©col": 5800,
      "Ġsurm": 5801,
      "acquÃ©rir": 5802,
      "Ġindis": 5803,
      "ĠmatiÃ¨re": 5804,
      "Ġdemeure": 5805,
      "Ã§ait": 5806,
      "apporter": 5807,
      "ĠentrÃ©e": 5808,
      "Ġanci": 5809,
      "autom": 5810,
      "abilitÃ©s": 5811,
      "Ġmalentendu": 5812,
      "ĠpassÃ©es": 5813,
      "Ġassieds": 5814,
      "Ġtax": 5815,
      "Ã´ts": 5816,
      "ĠdÃ©saccord": 5817,
      "addition": 5818,
      "Åĵufs": 5819,
      "Ġmanche": 5820,
      "gument": 5821,
      "Ġallais": 5822,
      "ĠachevÃ©": 5823,
      "venait": 5824,
      "ĠdÃ©cla": 5825,
      "ĠmÃ©ch": 5826,
      "ĠgarÃ©": 5827,
      "Ġcouple": 5828,
      "Ġconfond": 5829,
      "Ġconditions": 5830,
      "Ġprofit": 5831,
      "Ġfactures": 5832,
      "Ġpointe": 5833,
      "Ġdoulou": 5834,
      "Ġdevenus": 5835,
      "ĠforcÃ©e": 5836,
      "Ġforcer": 5837,
      "Ġeffet": 5838,
      "Ġretourn": 5839,
      "Ġinsc": 5840,
      "Ġdisposent": 5841,
      "Ġproduise": 5842,
      "ĠÃ©pic": 5843,
      "Ġinvitation": 5844,
      "Ġdisput": 5845,
      "ĠsignÃ©": 5846,
      "Ġincor": 5847,
      "Ġservez": 5848,
      "ĠamusÃ©s": 5849,
      "Ġmoque": 5850,
      "Ġordre": 5851,
      "Ġboissons": 5852,
      "ĠrÃªv": 5853,
      "Ġattendent": 5854,
      "ĠÃ©goÃ¯s": 5855,
      "Ġraf": 5856,
      "Ġcalmes": 5857,
      "Ġviendras": 5858,
      "Ġfausse": 5859,
      "Ġsuivez": 5860,
      "Ġsurprises": 5861,
      "ĠobligÃ©es": 5862,
      "Ġattrape": 5863,
      "ĠdÃ©fi": 5864,
      "Ġtentative": 5865,
      "enfu": 5866,
      "Ġpleuvait": 5867,
      "Ġpann": 5868,
      "Ġpanier": 5869,
      "ĠchargÃ©": 5870,
      "ĠnettoyÃ©": 5871,
      "Ġressour": 5872,
      "Ġnoirs": 5873,
      "Ġtraduis": 5874,
      "ĠsuggÃ©rÃ©": 5875,
      "odeur": 5876,
      "ĠinformÃ©": 5877,
      "Ġatter": 5878,
      "Ġtels": 5879,
      "Ġmignons": 5880,
      "Ġclient": 5881,
      "Ġpoule": 5882,
      "Ġmilliers": 5883,
      "ĠbrÃ»lÃ©": 5884,
      "ĠsÃ©journer": 5885,
      "Ġdispute": 5886,
      "Ġadorent": 5887,
      "intÃ©rÃªt": 5888,
      "ĠsiÃ¨cle": 5889,
      "Ġchinoise": 5890,
      "Ġressenti": 5891,
      "Ġressemblent": 5892,
      "Ġtickets": 5893,
      "Ġtrahi": 5894,
      "Ġprononcer": 5895,
      "ĠrÃ©duire": 5896,
      "Ġexcell": 5897,
      "ĠgrossiÃ¨re": 5898,
      "ĠdÃ©terminer": 5899,
      "ĠdÃ©roulÃ©": 5900,
      "humour": 5901,
      "Ġcollecti": 5902,
      "Ġdrogue": 5903,
      "Ġkilom": 5904,
      "ĠsecrÃ¨te": 5905,
      "Ġreprocher": 5906,
      "Ġenvisager": 5907,
      "Ġrecommanda": 5908,
      "ĠdÃ©penser": 5909,
      "Ã©lect": 5910,
      "Ġnatale": 5911,
      "Ġlapin": 5912,
      "ĠfantÃ´mes": 5913,
      "Ġsoutien": 5914,
      "Ġdorment": 5915,
      "Ġclimat": 5916,
      "Ġadultes": 5917,
      "ĠcÃ©rÃ©monie": 5918,
      "Ġalentours": 5919,
      "Ġpull": 5920,
      "Ġpsych": 5921,
      "Ġquasiment": 5922,
      "Ġgalerie": 5923,
      "ĠvÃ©gÃ©tar": 5924,
      "Ġballon": 5925,
      "deur": 5926,
      "his": 5927,
      "heures": 5928,
      "igu": 5929,
      "ji": 5930,
      "lie": 5931,
      "Ġpus": 5932,
      "Ã©an": 5933,
      "Ã©tez": 5934,
      "Ġtendu": 5935,
      "Ġcab": 5936,
      "Ġsm": 5937,
      "Ġsaign": 5938,
      "Ġjaz": 5939,
      "Ġjoie": 5940,
      "quent": 5941,
      "ertes": 5942,
      "anitÃ©": 5943,
      "estation": 5944,
      "isa": 5945,
      "istr": 5946,
      "Ġber": 5947,
      "Ġbass": 5948,
      "Ġbaisse": 5949,
      "Ġrenf": 5950,
      "Ã©tit": 5951,
      "Ã©tang": 5952,
      "Ã©tions": 5953,
      "aules": 5954,
      "Ġpourrai": 5955,
      "cieuses": 5956,
      "Ġgou": 5957,
      "ĠgÃ©": 5958,
      "Ġgants": 5959,
      "Ġred": 5960,
      "Ġretenir": 5961,
      "tesse": 5962,
      "Ġhos": 5963,
      "ĠdansÃ©": 5964,
      "Ġident": 5965,
      "amuse": 5966,
      "ater": 5967,
      "Ġdiriez": 5968,
      "Ġaliment": 5969,
      "ĠÃ©co": 5970,
      "Ġesc": 5971,
      "ĠsurvÃ©": 5972,
      "Ġsurveille": 5973,
      "Ġdiss": 5974,
      "Ġdisais": 5975,
      "Ġpensons": 5976,
      "Ġfron": 5977,
      "ĠamitiÃ©": 5978,
      "dif": 5979,
      "Ã©rent": 5980,
      "Ġgram": 5981,
      "Ġcommentaire": 5982,
      "otÃ©e": 5983,
      "Ġexpos": 5984,
      "Ġtrouvez": 5985,
      "Ġvache": 5986,
      "Ġlibres": 5987,
      "inet": 5988,
      "ĠÃ©crite": 5989,
      "Ã©cut": 5990,
      "Ġmiel": 5991,
      "Ġpleuve": 5992,
      "Ġbrosse": 5993,
      "ĠdÃ©tour": 5994,
      "ĠdÃ©tendu": 5995,
      "Ġregardait": 5996,
      "ĠachetÃ©e": 5997,
      "ctive": 5998,
      "Ġconsomm": 5999,
      "Ġenvoyer": 6000,
      "expos": 6001,
      "Ġpaye": 6002,
      "ĠdÃ©cro": 6003,
      "ĠmÃ©m": 6004,
      "Ġgarant": 6005,
      "Ġappren": 6006,
      "Ġapprends": 6007,
      "ĠrÃ©pondez": 6008,
      "Ġemporter": 6009,
      "ĠemportÃ©": 6010,
      "ulte": 6011,
      "atta": 6012,
      "ocÃ©an": 6013,
      "ĠcherchÃ©": 6014,
      "Ġcondam": 6015,
      "Ġcondition": 6016,
      "ĠpoÃ¨te": 6017,
      "Ġtermes": 6018,
      "Ġexprimer": 6019,
      "Ġcode": 6020,
      "ĠrÃ©sol": 6021,
      "Ġcarb": 6022,
      "ĠretardÃ©": 6023,
      "ĠcouchÃ©": 6024,
      "Ġdoux": 6025,
      "Ġdouble": 6026,
      "Ġgrosses": 6027,
      "ĠintÃ©ressÃ©s": 6028,
      "Ġaccent": 6029,
      "Ġinst": 6030,
      "Ġinstitutrice": 6031,
      "apprÃ©cient": 6032,
      "Ġpolici": 6033,
      "cepti": 6034,
      "ĠtournÃ©": 6035,
      "Ġsalon": 6036,
      "Ġconcern": 6037,
      "ĠÃ©paules": 6038,
      "Ġgardes": 6039,
      "Ġutilise": 6040,
      "ĠemployÃ©s": 6041,
      "Ġquitta": 6042,
      "Ġincons": 6043,
      "Ġinconn": 6044,
      "ĠamusÃ©es": 6045,
      "ĠespÃ¨re": 6046,
      "ĠcÃ´tÃ©s": 6047,
      "Ġagressi": 6048,
      "ĠrÃ©flex": 6049,
      "ĠfaÃ§ons": 6050,
      "Ġoffici": 6051,
      "Ġsecrets": 6052,
      "Ġsoins": 6053,
      "ĠÃ©vident": 6054,
      "Ġpoison": 6055,
      "ĠÃ©coulÃ©": 6056,
      "Ġorig": 6057,
      "Ġjupe": 6058,
      "Ġpani": 6059,
      "ĠsupposÃ©s": 6060,
      "Ġresponsables": 6061,
      "ĠÃ©levÃ©s": 6062,
      "Ã©paule": 6063,
      "ĠmentionnÃ©": 6064,
      "ĠvÃ©rifiÃ©": 6065,
      "ĠrÃ©ussite": 6066,
      "Ġstyle": 6067,
      "Ġcorrecte": 6068,
      "Ġpersonnelle": 6069,
      "ĠinvitÃ©es": 6070,
      "ĠpoussÃ©": 6071,
      "Ġmiennes": 6072,
      "Ġendormie": 6073,
      "ĠchoquÃ©": 6074,
      "ĠpossÃ©": 6075,
      "ĠmouillÃ©": 6076,
      "ĠprÃªterai": 6077,
      "ĠconsidÃ¨re": 6078,
      "raÃ®ch": 6079,
      "Ġpleura": 6080,
      "Ġfascin": 6081,
      "ĠmÃ©tro": 6082,
      "ĠbrÃ»le": 6083,
      "Ġcherchait": 6084,
      "ĠsÃ©journÃ©": 6085,
      "inquiÃ©ter": 6086,
      "ĠamÃ©ricains": 6087,
      "Ġlibrai": 6088,
      "Ġ50": 6089,
      "Ġpermet": 6090,
      "Ġpermett": 6091,
      "Ġdivorcer": 6092,
      "Ġfantastique": 6093,
      "Ġterriblement": 6094,
      "Ġcandidature": 6095,
      "Ġintime": 6096,
      "ĠdÃ©clarÃ©": 6097,
      "ĠrÃ©servation": 6098,
      "entiel": 6099,
      "Ġpromettez": 6100,
      "ĠfrÃ©quence": 6101,
      "Ġassistance": 6102,
      "Ġemmener": 6103,
      "ĠmodÃ¨le": 6104,
      "oblige": 6105,
      "ĠinventÃ©": 6106,
      "Ġvictime": 6107,
      "Ġparcourir": 6108,
      "ĠrenversÃ©": 6109,
      "huile": 6110,
      "Ġsympathique": 6111,
      "Ġprofessionnel": 6112,
      "ĠpoignÃ©e": 6113,
      "Ġcardiaque": 6114,
      "ĠdÃ©tonation": 6115,
      "obsc": 6116,
      "Ġjumeaux": 6117,
      "Ġsurprenant": 6118,
      "origine": 6119,
      "Ġmoderne": 6120,
      "Ġmarchandises": 6121,
      "Ġcommerce": 6122,
      "ĠclÃ´ture": 6123,
      "admire": 6124,
      "Ġressources": 6125,
      "Ã©lectricitÃ©": 6126,
      "Ġjazz": 6127,
      "ĠsurvÃ©cu": 6128,
      "hir": 6129,
      "iant": 6130,
      "ls": 6131,
      "ly": 6132,
      "och": 6133,
      "vaisselle": 6134,
      "york": 6135,
      "Ġours": 6136,
      "Ġpy": 6137,
      "Ġpur": 6138,
      "ĠdotÃ©e": 6139,
      "Ã©prouv": 6140,
      "Ġciv": 6141,
      "Ġcauche": 6142,
      "Ġste": 6143,
      "Ġsoli": 6144,
      "ondu": 6145,
      "Ġna": 6146,
      "Ġnue": 6147,
      "Ġnoire": 6148,
      "Ġnana": 6149,
      "ĠmÃ¨ne": 6150,
      "Ġdette": 6151,
      "Ġjeta": 6152,
      "Ġfan": 6153,
      "omis": 6154,
      "iseur": 6155,
      "Ġlace": 6156,
      "Ġbe": 6157,
      "Ġbol": 6158,
      "Ġrand": 6159,
      "ores": 6160,
      "Ã©tat": 6161,
      "Ġchaises": 6162,
      "autÃ©": 6163,
      "Ġparten": 6164,
      "Ġplant": 6165,
      "Ġplastique": 6166,
      "onnerai": 6167,
      "ries": 6168,
      "Ġgosse": 6169,
      "Ġgym": 6170,
      "Ġsuisse": 6171,
      "Ġreb": 6172,
      "Ġher": 6173,
      "agez": 6174,
      "Ġseau": 6175,
      "ascenseur": 6176,
      "Ġmontez": 6177,
      "irais": 6178,
      "ĠdurÃ©": 6179,
      "Ġot": 6180,
      "Ġdevra": 6181,
      "ĠdevinÃ©": 6182,
      "ĠrÃ©gu": 6183,
      "ĠrÃ©chauff": 6184,
      "Ġcontient": 6185,
      "tÃ©es": 6186,
      "tern": 6187,
      "Ġserions": 6188,
      "Ġserrure": 6189,
      "Ġdirect": 6190,
      "Ġbesoins": 6191,
      "Ġtrouvais": 6192,
      "Ġong": 6193,
      "Ġvies": 6194,
      "tence": 6195,
      "Ġparlerai": 6196,
      "Ġvenais": 6197,
      "Ġpassons": 6198,
      "Ġassie": 6199,
      "encer": 6200,
      "Ġcomporter": 6201,
      "Ġenfil": 6202,
      "ĠarrivÃ¨rent": 6203,
      "assÃ©es": 6204,
      "ĠrÃ©pÃ©t": 6205,
      "ĠrÃ©pand": 6206,
      "ĠrÃ©put": 6207,
      "Ġposition": 6208,
      "adap": 6209,
      "Ġboutique": 6210,
      "ĠtÃ©lÃ©char": 6211,
      "Ġregardant": 6212,
      "Ġappropri": 6213,
      "ulaires": 6214,
      "Ġphras": 6215,
      "Ġconfir": 6216,
      "Ġconfront": 6217,
      "phab": 6218,
      "Ġadmis": 6219,
      "illir": 6220,
      "Ġtrouveras": 6221,
      "Ġcollier": 6222,
      "Ġrevienne": 6223,
      "Ġpoing": 6224,
      "Ġmoto": 6225,
      "Ġdoutes": 6226,
      "Ġdouze": 6227,
      "Ġgagn": 6228,
      "Ġsurprendre": 6229,
      "Ġfamilles": 6230,
      "Ġcorresp": 6231,
      "Ġrespirer": 6232,
      "Ġprenne": 6233,
      "Ġpreniez": 6234,
      "Ġtouristes": 6235,
      "Ġcaptu": 6236,
      "Ġsalu": 6237,
      "Ġsalut": 6238,
      "Ġ18": 6239,
      "ĠmÃ©decine": 6240,
      "Ġroug": 6241,
      "Ġdira": 6242,
      "Ġprudence": 6243,
      "Ġmoquer": 6244,
      "Ġenseigner": 6245,
      "Ġsoucier": 6246,
      "explosion": 6247,
      "Ġabsente": 6248,
      "Ġaimable": 6249,
      "iendrait": 6250,
      "Ġviendrait": 6251,
      "ĠassistÃ©": 6252,
      "Ġsacs": 6253,
      "Ġreprendre": 6254,
      "Ġjournaliste": 6255,
      "ĠoffensÃ©": 6256,
      "Ġconvainc": 6257,
      "Ġfrappe": 6258,
      "ĠboÃ®tes": 6259,
      "ĠfermÃ©es": 6260,
      "ĠcÃ©lÃ©": 6261,
      "ĠchargÃ©e": 6262,
      "ĠresponsabilitÃ©s": 6263,
      "Ġbataille": 6264,
      "ĠÃ©lectron": 6265,
      "Ġpollu": 6266,
      "Ġexpliqua": 6267,
      "Ġremarqu": 6268,
      "Ġhumain": 6269,
      "Ġhumains": 6270,
      "Ġeffront": 6271,
      "Ã¨vement": 6272,
      "ĠcamÃ©ra": 6273,
      "Ġmenace": 6274,
      "Ġpersonnellement": 6275,
      "Ġneuve": 6276,
      "Ġpresser": 6277,
      "Ġattentif": 6278,
      "Ġcamper": 6279,
      "Ġsembler": 6280,
      "ĠaugmentÃ©": 6281,
      "Ġsouvenirs": 6282,
      "Ġnormale": 6283,
      "Ġmeurt": 6284,
      "ĠamÃ©ricaine": 6285,
      "ennuie": 6286,
      "ĠorganisÃ©": 6287,
      "ĠdÃ©missionnÃ©": 6288,
      "offre": 6289,
      "Ġtendit": 6290,
      "Ġplacard": 6291,
      "Ġpronon": 6292,
      "eloppe": 6293,
      "ĠdÃ©brouiller": 6294,
      "Ġcandidat": 6295,
      "ingues": 6296,
      "Ġamener": 6297,
      "ĠpersuadÃ©": 6298,
      "Ġvoisinage": 6299,
      "ĠengagÃ©": 6300,
      "ĠsuicidÃ©": 6301,
      "Ġopportun": 6302,
      "Ġgratuit": 6303,
      "ĠprÃ©occupe": 6304,
      "Ġponctuel": 6305,
      "ĠfrÃ©quent": 6306,
      "ĠintÃ©rÃªt": 6307,
      "ĠempÃªchÃ©": 6308,
      "Ġfichier": 6309,
      "Ġpilote": 6310,
      "Ġharvard": 6311,
      "ĠpÃ©trin": 6312,
      "ĠenquÃªte": 6313,
      "Ġcriminel": 6314,
      "Ġenregistre": 6315,
      "ĠrejetÃ©": 6316,
      "Ġpelouse": 6317,
      "ĠheurtÃ©": 6318,
      "Ġsoigneusement": 6319,
      "ĠfraÃ®che": 6320,
      "ĠgÃ¢teaux": 6321,
      "automne": 6322,
      "ĠrafraÃ®ch": 6323,
      "Ġpanneau": 6324,
      "Ġexcellente": 6325,
      "ĠkilomÃ¨tres": 6326,
      "Ġlibrairie": 6327,
      "Ġcauchemar": 6328,
      "Ġphrases": 6329,
      "adi": 6330,
      "cons": 6331,
      "gÃ¨ne": 6332,
      "mÃ©s": 6333,
      "ril": 6334,
      "ving": 6335,
      "Ġoses": 6336,
      "Ġ000": 6337,
      "Ġpousse": 6338,
      "Ġlancer": 6339,
      "ĠlanÃ§a": 6340,
      "Ġscep": 6341,
      "Ġsonner": 6342,
      "Ġsites": 6343,
      "Ġjum": 6344,
      "Ġjoign": 6345,
      "quatre": 6346,
      "Ġmass": 6347,
      "ermÃ©": 6348,
      "Ġdettes": 6349,
      "Ġpag": 6350,
      "Ġfar": 6351,
      "Ġfain": 6352,
      "Ġunif": 6353,
      "Ġlas": 6354,
      "Ġbud": 6355,
      "Ġbul": 6356,
      "Ġboite": 6357,
      "Ġbombe": 6358,
      "Ġrum": 6359,
      "Ġrusse": 6360,
      "Ġrock": 6361,
      "Ã¨tre": 6362,
      "Ã¨nes": 6363,
      "Ġsuit": 6364,
      "Ġpros": 6365,
      "orn": 6366,
      "orde": 6367,
      "organ": 6368,
      "Ã©tiez": 6369,
      "Ġchim": 6370,
      "Ġpartes": 6371,
      "Ġparven": 6372,
      "tiers": 6373,
      "avaient": 6374,
      "ription": 6375,
      "ĠgÃ©rant": 6376,
      "Ġretenu": 6377,
      "Ġhil": 6378,
      "ĠdÃ©n": 6379,
      "ĠdÃ©ver": 6380,
      "ĠdÃ©cevoir": 6381,
      "ositÃ©": 6382,
      "ash": 6383,
      "Ġsiff": 6384,
      "Ġdigne": 6385,
      "europe": 6386,
      "anges": 6387,
      "Ġvote": 6388,
      "Ġmars": 6389,
      "urr": 6390,
      "opÃ©": 6391,
      "Ã®n": 6392,
      "appelles": 6393,
      "ĠexÃ©cu": 6394,
      "Ġentour": 6395,
      "auteur": 6396,
      "ĠprÃ©venue": 6397,
      "essai": 6398,
      "Ġpartirai": 6399,
      "abe": 6400,
      "Ġmalheur": 6401,
      "Ġassurer": 6402,
      "Ġperf": 6403,
      "Ġenfui": 6404,
      "Ġdemandai": 6405,
      "Ġfauteu": 6406,
      "ĠouÃ¯": 6407,
      "ĠdonnÃ©e": 6408,
      "ĠimpÃ´ts": 6409,
      "ĠrÃ©pare": 6410,
      "Ġcourus": 6411,
      "ĠdÃ©sert": 6412,
      "Ã©crit": 6413,
      "Ġessaies": 6414,
      "Ġbougies": 6415,
      "arrivera": 6416,
      "Ġprises": 6417,
      "Ġregardais": 6418,
      "Ġlongu": 6419,
      "ulance": 6420,
      "itez": 6421,
      "Ġabas": 6422,
      "Ġconditi": 6423,
      "Ġadress": 6424,
      "Ġadmettre": 6425,
      "istance": 6426,
      "illons": 6427,
      "Ġchambres": 6428,
      "Ġprofiter": 6429,
      "Ġexplos": 6430,
      "Ġconseiller": 6431,
      "Ġentendues": 6432,
      "ĠportÃ©e": 6433,
      "ĠÃ©tudies": 6434,
      "ĠÃ©tudiez": 6435,
      "Ġvoisine": 6436,
      "issage": 6437,
      "Ġmentent": 6438,
      "Ġcommencent": 6439,
      "Ġdevenues": 6440,
      "Ġchemises": 6441,
      "Ġnourr": 6442,
      "Ġnourri": 6443,
      "Ġmusicien": 6444,
      "Ġmission": 6445,
      "Ġprennent": 6446,
      "Ġtournez": 6447,
      "ĠcapacitÃ©": 6448,
      "ĠÃ©poux": 6449,
      "Ġconfiant": 6450,
      "Ġverriez": 6451,
      "Ġamuser": 6452,
      "Ġmoti": 6453,
      "Ġsourd": 6454,
      "ĠÃ©tudes": 6455,
      "Ġrepose": 6456,
      "ĠrÃ©veille": 6457,
      "Ġreproche": 6458,
      "ĠtÃ©lÃ©viseur": 6459,
      "Ġoffrir": 6460,
      "Ġtyphon": 6461,
      "ĠfiertÃ©": 6462,
      "Ġtenta": 6463,
      "Ġretirez": 6464,
      "Ġrome": 6465,
      "Ġinterpr": 6466,
      "Ġsatisfaites": 6467,
      "Ġrattrap": 6468,
      "dessous": 6469,
      "ĠdÃ©guis": 6470,
      "Ġregrett": 6471,
      "Ġentendus": 6472,
      "annÃ©es": 6473,
      "Ġbasket": 6474,
      "Ġguitar": 6475,
      "Ġchangea": 6476,
      "Ġatteignit": 6477,
      "Ġendormis": 6478,
      "ĠchoquÃ©e": 6479,
      "Ġconstruction": 6480,
      "Ġzone": 6481,
      "Ġpardon": 6482,
      "ĠpublicitÃ©": 6483,
      "Ġafrique": 6484,
      "ĠpauvretÃ©": 6485,
      "enseignant": 6486,
      "ĠignorÃ©": 6487,
      "Ġadorable": 6488,
      "Ġmeurent": 6489,
      "ĠverrouillÃ©e": 6490,
      "udemment": 6491,
      "Ġcrayons": 6492,
      "Ġfaibles": 6493,
      "Ġpermettez": 6494,
      "Ġdivorce": 6495,
      "Ġcroyait": 6496,
      "ĠcensÃ©s": 6497,
      "ĠlÃ©gÃ¨rement": 6498,
      "Ġhautement": 6499,
      "Ġinnocence": 6500,
      "ophone": 6501,
      "Ġnaturelle": 6502,
      "ĠÃ©mo": 6503,
      "ĠbaissÃ©": 6504,
      "Ġoccas": 6505,
      "ĠeffectuÃ©": 6506,
      "Ġconsacrer": 6507,
      "Ġdescendit": 6508,
      "Ġremplir": 6509,
      "Ġprisonnier": 6510,
      "ĠrÃ©vÃ©la": 6511,
      "ĠtÃ¢ches": 6512,
      "Ġclefs": 6513,
      "ĠrÃ©serve": 6514,
      "ĠrÃ©server": 6515,
      "humanitÃ©": 6516,
      "ĠembarrassÃ©": 6517,
      "Ġdrogu": 6518,
      "ĠsoulagÃ©": 6519,
      "Ġcitoy": 6520,
      "Ġchuch": 6521,
      "Ġsoulever": 6522,
      "Ġbrillant": 6523,
      "Ġscientifiques": 6524,
      "ĠsincÃ¨re": 6525,
      "aucun": 6526,
      "ĠfantÃ´me": 6527,
      "ĠadoptÃ©": 6528,
      "Ġassurez": 6529,
      "Ġtexte": 6530,
      "Ġferez": 6531,
      "Ġgrenier": 6532,
      "Ġpharma": 6533,
      "Ġserpents": 6534,
      "Ġsauta": 6535,
      "Ġcamarades": 6536,
      "Ġgorge": 6537,
      "ĠdÃ©poser": 6538,
      "Ġsurpoids": 6539,
      "Ġintrod": 6540,
      "quipage": 6541,
      "Ġperplexe": 6542,
      "Ġexcitant": 6543,
      "Ġhein": 6544,
      "Ã©clair": 6545,
      "ĠmystÃ¨re": 6546,
      "Ġactrice": 6547,
      "honnÃªtetÃ©": 6548,
      "Ġattirante": 6549,
      "ĠÃ©goÃ¯ste": 6550,
      "enfuir": 6551,
      "ĠmÃ©mor": 6552,
      "Ġpoliciers": 6553,
      "obscuritÃ©": 6554,
      "Ġsteak": 6555,
      "ĠcÃ©lÃ©b": 6556,
      "ĠdÃ©verrou": 6557,
      "bÃ©c": 6558,
      "ip": 6559,
      "ionne": 6560,
      "imÃ©": 6561,
      "ker": 6562,
      "maire": 6563,
      "mine": 6564,
      "nation": 6565,
      "ran": 6566,
      "shir": 6567,
      "Ġpous": 6568,
      "Ġpendu": 6569,
      "Ġpist": 6570,
      "Ġdon": 6571,
      "Ġdau": 6572,
      "ouest": 6573,
      "Ġlus": 6574,
      "Ġlux": 6575,
      "Ġtaire": 6576,
      "Ġtal": 6577,
      "Ġtint": 6578,
      "Ġcot": 6579,
      "Ġcoc": 6580,
      "Ġsien": 6581,
      "Ġsaurais": 6582,
      "reint": 6583,
      "Ġnou": 6584,
      "ĠnÃ©s": 6585,
      "Ġnuc": 6586,
      "Ġvan": 6587,
      "ĠvÃ©cut": 6588,
      "Ġmand": 6589,
      "erie": 6590,
      "ĠjetÃ©": 6591,
      "Ġjetez": 6592,
      "ilÃ©": 6593,
      "Ġfre": 6594,
      "Ġfuite": 6595,
      "entions": 6596,
      "isent": 6597,
      "tection": 6598,
      "Ġbav": 6599,
      "Ġblo": 6600,
      "Ã¨mes": 6601,
      "itables": 6602,
      "intes": 6603,
      "Ġench": 6604,
      "arrang": 6605,
      "Ġprouv": 6606,
      "Ġprudemment": 6607,
      "ortes": 6608,
      "ĠchÃ´": 6609,
      "ĠchaÃ®": 6610,
      "Ġchass": 6611,
      "Ġchasse": 6612,
      "Ġparvenue": 6613,
      "Ġauraient": 6614,
      "chite": 6615,
      "onnelle": 6616,
      "rira": 6617,
      "cie": 6618,
      "ĠgÃ©rÃ©": 6619,
      "Ġteint": 6620,
      "Ġrecu": 6621,
      "Ġrequis": 6622,
      "ĠhaÃ¯": 6623,
      "ĠdÃ©je": 6624,
      "alÃ©": 6625,
      "alisÃ©": 6626,
      "agÃ¨res": 6627,
      "assique": 6628,
      "atÃ©": 6629,
      "Ġprotection": 6630,
      "Ġodeur": 6631,
      "Ġdeviennent": 6632,
      "ĠrÃ©el": 6633,
      "sier": 6634,
      "orta": 6635,
      "orth": 6636,
      "Ġinse": 6637,
      "Ġfrites": 6638,
      "Ġsaisi": 6639,
      "dix": 6640,
      "Ġpouvaient": 6641,
      "Ġgras": 6642,
      "agea": 6643,
      "Ġcriti": 6644,
      "Ġcroient": 6645,
      "Ġexig": 6646,
      "oyÃ©es": 6647,
      "Ġtrouvons": 6648,
      "Ġjustif": 6649,
      "Ġferont": 6650,
      "Ġcommet": 6651,
      "Ġvenons": 6652,
      "get": 6653,
      "Ġdemanderai": 6654,
      "Ġout": 6655,
      "Ġdonnes": 6656,
      "assÃ©s": 6657,
      "ignez": 6658,
      "Ġjoueurs": 6659,
      "Åĵuvre": 6660,
      "Ġallant": 6661,
      "Ġconserver": 6662,
      "ĠdÃ©cor": 6663,
      "ĠmÃ©di": 6664,
      "Ġclar": 6665,
      "Ġclassique": 6666,
      "ĠdÃ©pit": 6667,
      "ĠdÃ©pense": 6668,
      "Ġrich": 6669,
      "Ġrendrait": 6670,
      "accorder": 6671,
      "Ġaddit": 6672,
      "Ġadvenu": 6673,
      "Ġouvri": 6674,
      "ĠhabillÃ©e": 6675,
      "Ġcouche": 6676,
      "Ġappellerai": 6677,
      "ĠintÃ©ressantes": 6678,
      "Ġnourris": 6679,
      "Ġfuji": 6680,
      "Ġretourna": 6681,
      "Ġaccus": 6682,
      "Ġtrouverez": 6683,
      "Ġprennes": 6684,
      "Ġvivants": 6685,
      "Ġconclu": 6686,
      "Ġfeuille": 6687,
      "Ġstress": 6688,
      "ĠutilitÃ©": 6689,
      "Ġcontrain": 6690,
      "Ġincomp": 6691,
      "Ġincendie": 6692,
      "Ġverrais": 6693,
      "ĠprÃ©voir": 6694,
      "Ġmodif": 6695,
      "Ġgentlem": 6696,
      "Ġangleterre": 6697,
      "Ġsaurait": 6698,
      "ĠsÃ©p": 6699,
      "Ġsource": 6700,
      "Ġtraversa": 6701,
      "Ġjouet": 6702,
      "Ġendroits": 6703,
      "attendait": 6704,
      "Ġanglaise": 6705,
      "Ġraff": 6706,
      "Ġcalcu": 6707,
      "Ġcalcul": 6708,
      "Ġsuivante": 6709,
      "Ġdessin": 6710,
      "ĠcriÃ©": 6711,
      "ĠopÃ©ration": 6712,
      "ĠdÃ©fin": 6713,
      "Ġchangera": 6714,
      "Ġtentation": 6715,
      "oÃ»t": 6716,
      "ĠÃ©vanou": 6717,
      "Ġacceptable": 6718,
      "Ġorange": 6719,
      "Ġjuin": 6720,
      "Ġnettoie": 6721,
      "Ġdistrait": 6722,
      "Ġballes": 6723,
      "Ġbatterie": 6724,
      "Ġconscien": 6725,
      "Ġpolie": 6726,
      "Ġvalait": 6727,
      "Ġprince": 6728,
      "ĠsoupÃ§": 6729,
      "Ġnia": 6730,
      "ĠcoincÃ©": 6731,
      "ĠpressÃ©e": 6732,
      "Ġfavori": 6733,
      "Ġconstruire": 6734,
      "ĠÃ©pouser": 6735,
      "imaginer": 6736,
      "Ġtranquilles": 6737,
      "ĠdÃ©pÃªchez": 6738,
      "ĠlÃ¢chez": 6739,
      "Ġcircons": 6740,
      "Ġceris": 6741,
      "Ġnavigu": 6742,
      "Ġusa": 6743,
      "Ġfortement": 6744,
      "Ġmillion": 6745,
      "Ġaccomplir": 6746,
      "important": 6747,
      "ĠdÃ©sirez": 6748,
      "Ġpatients": 6749,
      "Ġpatiente": 6750,
      "Ġdiplom": 6751,
      "rigez": 6752,
      "Ġsoldat": 6753,
      "Ġmanquez": 6754,
      "ĠdÃ©primÃ©e": 6755,
      "Ġpierres": 6756,
      "ĠrÃ©duit": 6757,
      "ĠÃ©clatÃ©": 6758,
      "ligence": 6759,
      "Ġdescendez": 6760,
      "Ġgrimper": 6761,
      "ĠfÃ¢chÃ©e": 6762,
      "Ġsuicider": 6763,
      "ĠcompÃ©tition": 6764,
      "Ġgaspiller": 6765,
      "ĠamÃ©liorer": 6766,
      "Ġgratuitement": 6767,
      "Ġkilos": 6768,
      "ĠsecrÃ©taire": 6769,
      "Ġcigarettes": 6770,
      "Ġbrillante": 6771,
      "Ġpromettre": 6772,
      "tivitÃ©": 6773,
      "approche": 6774,
      "Ġmanuel": 6775,
      "ĠcomparÃ©": 6776,
      "ĠcÃ¢lin": 6777,
      "Ġraccour": 6778,
      "Ġreligion": 6779,
      "thme": 6780,
      "Ġvisiteurs": 6781,
      "ĠdÃ©robÃ©": 6782,
      "Ġadvienne": 6783,
      "Ġbanane": 6784,
      "Ġmicro": 6785,
      "Ġhypoth": 6786,
      "amÃ©liorer": 6787,
      "ennuyer": 6788,
      "hÃ©sitez": 6789,
      "ĠÃ©chouer": 6790,
      "Ġitalie": 6791,
      "Ġpratiquer": 6792,
      "Ġtechn": 6793,
      "Ġprocurer": 6794,
      "ĠbriÃ¨vement": 6795,
      "Ġmalchanceux": 6796,
      "immeuble": 6797,
      "Ġjoyeux": 6798,
      "Ġincorre": 6799,
      "ĠcondamnÃ©": 6800,
      "Ġinconsci": 6801,
      "ĠrÃ©putation": 6802,
      "Ġpagaille": 6803,
      "Ġbudget": 6804,
      "Ã®nmes": 6805,
      "essaierai": 6806,
      "Ġlongueur": 6807,
      "ĠconditionnÃ©": 6808,
      "ĠnuclÃ©": 6809,
      "ĠdÃ©jeune": 6810,
      "Ġgentleman": 6811,
      "bler": 6812,
      "iz": 6813,
      "land": 6814,
      "lande": 6815,
      "mie": 6816,
      "mage": 6817,
      "oter": 6818,
      "ple": 6819,
      "rÃ©t": 6820,
      "rants": 6821,
      "rÃ¨rent": 6822,
      "tÃ¨rent": 6823,
      "ythme": 6824,
      "Ġoign": 6825,
      "ĠpÃ©": 6826,
      "Ġpoi": 6827,
      "ĠpitiÃ©": 6828,
      "Ġdingues": 6829,
      "aigne": 6830,
      "Ġlut": 6831,
      "ĠlancÃ©": 6832,
      "Ġlaid": 6833,
      "Ġtig": 6834,
      "Ġtira": 6835,
      "Ġtiennent": 6836,
      "Ġcue": 6837,
      "Ġjure": 6838,
      "ontiers": 6839,
      "Ġaraign": 6840,
      "Ġnier": 6841,
      "ĠnoyÃ©": 6842,
      "ĠnÃ´tre": 6843,
      "ĠvÃ´tres": 6844,
      "Ġmu": 6845,
      "Ġmaux": 6846,
      "Ġjeun": 6847,
      "Ġjeans": 6848,
      "Ġjeudi": 6849,
      "Ġfal": 6850,
      "Ġfie": 6851,
      "ĠflÃ¨": 6852,
      "lette": 6853,
      "leure": 6854,
      "istence": 6855,
      "tembre": 6856,
      "Ġray": 6857,
      "Ġrythme": 6858,
      "Ġtomates": 6859,
      "inaire": 6860,
      "ara": 6861,
      "arg": 6862,
      "arriÃ¨re": 6863,
      "Ġprinc": 6864,
      "oritÃ©s": 6865,
      "Ġtraitement": 6866,
      "ĠchÃ¨que": 6867,
      "Ġparvenus": 6868,
      "Ġlesquelles": 6869,
      "Ġmex": 6870,
      "ĠÃ©tendu": 6871,
      "ĠÃ©tonnÃ©": 6872,
      "ouvrit": 6873,
      "ouvrez": 6874,
      "Ġrepar": 6875,
      "Ġrejet": 6876,
      "Ġrevenus": 6877,
      "Ġhy": 6878,
      "ĠhÃ©s": 6879,
      "aliste": 6880,
      "agi": 6881,
      "agent": 6882,
      "assion": 6883,
      "ĠÃªtres": 6884,
      "ator": 6885,
      "Ġprog": 6886,
      "Ġprover": 6887,
      "Ġaig": 6888,
      "ĠaidÃ©e": 6889,
      "ĠÃ©vÃ©": 6890,
      "lab": 6891,
      "ĠinÃ©v": 6892,
      "Ġsonger": 6893,
      "Ġargument": 6894,
      "atives": 6895,
      "atifs": 6896,
      "uisait": 6897,
      "uisit": 6898,
      "cope": 6899,
      "Ġamer": 6900,
      "Ġsaisis": 6901,
      "dieux": 6902,
      "Ġseraient": 6903,
      "opinion": 6904,
      "Ġbienvenus": 6905,
      "ortez": 6906,
      "Ġentrez": 6907,
      "Ġanxi": 6908,
      "ĠprÃ©cÃ©": 6909,
      "ĠprÃ©cieux": 6910,
      "rÃ©es": 6911,
      "Ġvict": 6912,
      "tenue": 6913,
      "Ġpartiez": 6914,
      "Ġfaisant": 6915,
      "Ġallergique": 6916,
      "Ġpassent": 6917,
      "Ġassass": 6918,
      "Ġcompose": 6919,
      "Ġcompare": 6920,
      "Ġcompassion": 6921,
      "ĠbondÃ©": 6922,
      "ĠcontÃ©": 6923,
      "ormÃ©ment": 6924,
      "ĠrÃ©pu": 6925,
      "Ġpost": 6926,
      "Ġactions": 6927,
      "tro": 6928,
      "errement": 6929,
      "Ã©criv": 6930,
      "Åĵuf": 6931,
      "Ġessuy": 6932,
      "ĠtÃ©moi": 6933,
      "Ġboue": 6934,
      "Ġbron": 6935,
      "Ġbrit": 6936,
      "Ġmanip": 6937,
      "Ġarrog": 6938,
      "Ġregardent": 6939,
      "Ġchaleure": 6940,
      "areil": 6941,
      "ĠconsÃ©qu": 6942,
      "venant": 6943,
      "ĠpayÃ©s": 6944,
      "ĠdÃ©crire": 6945,
      "ĠmÃ©l": 6946,
      "Ġsupplie": 6947,
      "institutrice": 6948,
      "Ġrendons": 6949,
      "Ġpromo": 6950,
      "image": 6951,
      "Ġchangent": 6952,
      "objet": 6953,
      "obilier": 6954,
      "Ġtermine": 6955,
      "Ġexpri": 6956,
      "ĠrÃ©sister": 6957,
      "Ġautrefois": 6958,
      "Ġrevue": 6959,
      "Ġaffreuse": 6960,
      "Ġportail": 6961,
      "ĠcoulÃ©": 6962,
      "Ġcouleurs": 6963,
      "Ġcommences": 6964,
      "ĠlittÃ©": 6965,
      "ĠintÃ©ressÃ©es": 6966,
      "usses": 6967,
      "Ġconnaissiez": 6968,
      "Ġendomm": 6969,
      "mission": 6970,
      "Ġobst": 6971,
      "ĠbiÃ¨res": 6972,
      "Ġdisposition": 6973,
      "Ġoublia": 6974,
      "Ġtourna": 6975,
      "Ġvive": 6976,
      "Ġimportance": 6977,
      "idable": 6978,
      "Ġstatu": 6979,
      "Ġemployer": 6980,
      "Ġquittez": 6981,
      "ĠÂ».": 6982,
      "ommÃ©e": 6983,
      "Ġgenoux": 6984,
      "Ġenseignants": 6985,
      "Ġrepouss": 6986,
      "Ġinformer": 6987,
      "Ġjouets": 6988,
      "Ġvolontiers": 6989,
      "Ġviendrais": 6990,
      "ĠversÃ©": 6991,
      "Ġcontentes": 6992,
      "Ġdessous": 6993,
      "Ġoffrit": 6994,
      "ographe": 6995,
      "ĠdÃ©fun": 6996,
      "igme": 6997,
      "ĠÅĵuf": 6998,
      "Ġtempor": 6999,
      "Ġirait": 7000,
      "Ġiras": 7001,
      "Ġweekend": 7002,
      "Ġbattu": 7003,
      "Ġperdez": 7004,
      "Ġdroits": 7005,
      "Ġremarquer": 7006,
      "Ã©trange": 7007,
      "Ġignorer": 7008,
      "Ġdescendu": 7009,
      "Ġpianiste": 7010,
      "Ġhumide": 7011,
      "oublier": 7012,
      "Ã©vidence": 7013,
      "ĠprÃ©parÃ©e": 7014,
      "Ġcible": 7015,
      "Ġmenu": 7016,
      "Ġavocats": 7017,
      "ĠpersonnalitÃ©": 7018,
      "ĠformÃ©": 7019,
      "Ġformidable": 7020,
      "ĠhonnÃªtetÃ©": 7021,
      "Ġmurs": 7022,
      "Ġcanadiens": 7023,
      "ĠnÃ©gligent": 7024,
      "Ġaugmente": 7025,
      "Ã©coutes": 7026,
      "Ġconduisez": 7027,
      "Ġmillionnaire": 7028,
      "ĠmÃ©tier": 7029,
      "Ġattaque": 7030,
      "ĠattaquÃ©": 7031,
      "ĠarrÃªtons": 7032,
      "Ġaccompagner": 7033,
      "ĠimpliquÃ©e": 7034,
      "Ġintentions": 7035,
      "ĠadorÃ©": 7036,
      "Ġmorceaux": 7037,
      "Ġespoirs": 7038,
      "ĠorganisÃ©e": 7039,
      "Ġlocal": 7040,
      "ĠmÃ©ritez": 7041,
      "Ġgravement": 7042,
      "Ġcurieuse": 7043,
      "Ġressembles": 7044,
      "olique": 7045,
      "ĠcensÃ©es": 7046,
      "ĠdÃ©Ã§us": 7047,
      "rifiÃ©": 7048,
      "Ġmagazines": 7049,
      "Ġremplissez": 7050,
      "Ġpoursuivre": 7051,
      "ĠmÃ©rites": 7052,
      "Ġennemis": 7053,
      "Ġdomaine": 7054,
      "ĠmaÃ®tre": 7055,
      "Ġcraint": 7056,
      "Ġcraindre": 7057,
      "ĠprÃ©cipit": 7058,
      "ĠcompÃ©tent": 7059,
      "Ġtremp": 7060,
      "ĠdÃ©placer": 7061,
      "ĠretrouvÃ©": 7062,
      "ĠentraÃ®nÃ©": 7063,
      "Ġtortu": 7064,
      "ĠnaÃ¯ve": 7065,
      "Ġprofondeur": 7066,
      "Ġindiv": 7067,
      "ĠdÃ©sespÃ©rÃ©": 7068,
      "Ġnatation": 7069,
      "honneur": 7070,
      "Ġadolescents": 7071,
      "ĠcoopÃ©ration": 7072,
      "Ġvictimes": 7073,
      "Ġmaigre": 7074,
      "Ġraccro": 7075,
      "ĠtraÃ®ner": 7076,
      "ĠpÃ©trole": 7077,
      "oxy": 7078,
      "ĠrÃ©sid": 7079,
      "Ġbananes": 7080,
      "Ġtatou": 7081,
      "ĠdÃ©lai": 7082,
      "ĠrelÃ¢": 7083,
      "Ġloge": 7084,
      "Ġgamin": 7085,
      "Ġcharmant": 7086,
      "ĠsÃ¨che": 7087,
      "Ġmouvement": 7088,
      "ĠdÃ©cevant": 7089,
      "ĠvÃ©hicule": 7090,
      "Ġscolaire": 7091,
      "Ġseptembre": 7092,
      "emmener": 7093,
      "ĠindiffÃ©rent": 7094,
      "Ġajoute": 7095,
      "Ġhospital": 7096,
      "ĠfrontiÃ¨re": 7097,
      "Ġgrammaire": 7098,
      "Ġconcernant": 7099,
      "Ġpyj": 7100,
      "Ġongles": 7101,
      "Ġrumeurs": 7102,
      "Ġpoussi": 7103,
      "Ġluxe": 7104,
      "ĠchÃ´mage": 7105,
      "Ġexigences": 7106,
      "Ġcirconst": 7107,
      "ĠhypothÃ¨se": 7108,
      "Ġoignons": 7109,
      "Ġjeunesse": 7110,
      "Ġprincesse": 7111,
      ".Â»": 7112,
      "amp": 7113,
      "cents": 7114,
      "fie": 7115,
      "gation": 7116,
      "ionnÃ©": 7117,
      "lles": 7118,
      "mos": 7119,
      "monnaie": 7120,
      "non": 7121,
      "nÃ©s": 7122,
      "ola": 7123,
      "pÃ©": 7124,
      "ram": 7125,
      "ronter": 7126,
      "tait": 7127,
      "trait": 7128,
      "tout": 7129,
      "vier": 7130,
      "valent": 7131,
      "wa": 7132,
      "Ġer": 7133,
      "Ġpure": 7134,
      "ĠpÃ¨se": 7135,
      "ession": 7136,
      "Ã©que": 7137,
      "eng": 7138,
      "enver": 7139,
      "Ġagent": 7140,
      "Ġnus": 7141,
      "ĠniÃ©": 7142,
      "Ġmeurs": 7143,
      "Ġquart": 7144,
      "Ġfiez": 7145,
      "Ġfout": 7146,
      "Ġfaille": 7147,
      "Ġfrig": 7148,
      "aison": 7149,
      "eut": 7150,
      "Ġbre": 7151,
      "Ġband": 7152,
      "Ġbande": 7153,
      "Ġbaleine": 7154,
      "ĠbÅĵuf": 7155,
      "Ġranger": 7156,
      "Ã¨ques": 7157,
      "arant": 7158,
      "usion": 7159,
      "Ġtroup": 7160,
      "ĠavisÃ©": 7161,
      "Ġavril": 7162,
      "auraient": 7163,
      "Ġtuy": 7164,
      "Ġpourras": 7165,
      "endrai": 7166,
      "endue": 7167,
      "endrier": 7168,
      "tien": 7169,
      "Ġplaire": 7170,
      "Ġplong": 7171,
      "Ġplats": 7172,
      "Ġpluies": 7173,
      "ouvant": 7174,
      "Ġho": 7175,
      "Ġhu": 7176,
      "Ġhais": 7177,
      "ĠdÃ©coup": 7178,
      "alphab": 7179,
      "oser": 7180,
      "irait": 7181,
      "ames": 7182,
      "amie": 7183,
      "amies": 7184,
      "atter": 7185,
      "atoire": 7186,
      "Ġaida": 7187,
      "Ġdevin": 7188,
      "Ġdevras": 7189,
      "ĠalitÃ©": 7190,
      "ĠrÃ©ception": 7191,
      "ĠÃ©du": 7192,
      "ĠÃ©lÃ©ph": 7193,
      "liquer": 7194,
      "Ġmarque": 7195,
      "Ġyen": 7196,
      "ailles": 7197,
      "ĠamÃ¨ne": 7198,
      "Ã©rÃ©es": 7199,
      "Ġservent": 7200,
      "aper": 7201,
      "ensable": 7202,
      "opÃ©ra": 7203,
      "Ġtravailleurs": 7204,
      "appareil": 7205,
      "Ġentends": 7206,
      "ĠentrÃ©s": 7207,
      "Ġrestons": 7208,
      "ĠmangÃ©e": 7209,
      "Ġmaladi": 7210,
      "Ġtrains": 7211,
      "Ġcad": 7212,
      "Ġcaus": 7213,
      "Ġenfreint": 7214,
      "Ġpuisque": 7215,
      "Ġnoter": 7216,
      "Ġdonnent": 7217,
      "assant": 7218,
      "Ġimpoli": 7219,
      "espagne": 7220,
      "ĠdÃ©sag": 7221,
      "ĠdÃ©sorient": 7222,
      "ĠacquÃ©rir": 7223,
      "adress": 7224,
      "Ġjouais": 7225,
      "Ġessai": 7226,
      "Ġfinie": 7227,
      "titude": 7228,
      "ĠarrÃª": 7229,
      "Ġsouven": 7230,
      "Ġsouvient": 7231,
      "ĠdÃ©ten": 7232,
      "Ġpartent": 7233,
      "Ġallumer": 7234,
      "Ġsoirs": 7235,
      "udes": 7236,
      "Ġenvoyez": 7237,
      "Ġenvoya": 7238,
      "ĠdÃ©cÃ¨s": 7239,
      "ĠmÃ©prise": 7240,
      "Ġsuppli": 7241,
      "ulÃ©e": 7242,
      "Ġconfondu": 7243,
      "Ġrestera": 7244,
      "idemment": 7245,
      "allai": 7246,
      "Ġouvertes": 7247,
      "Ġcook": 7248,
      "iciens": 7249,
      "Ġrevient": 7250,
      "Ġcoule": 7251,
      "Ġcouler": 7252,
      "Ġcoudre": 7253,
      "Ġdormait": 7254,
      "Ġrencontriez": 7255,
      "ĠproposÃ©": 7256,
      "Ġsurprend": 7257,
      "estement": 7258,
      "Ġblessures": 7259,
      "Ġeffor": 7260,
      "Ġeffecti": 7261,
      "Ġretournez": 7262,
      "Ġaccoutu": 7263,
      "Ġmises": 7264,
      "ĠdisposÃ©e": 7265,
      "Ġtourn": 7266,
      "olet": 7267,
      "Ġimportants": 7268,
      "Ġinvest": 7269,
      "cinq": 7270,
      "Ġgarderai": 7271,
      "Ġutiles": 7272,
      "ĠÃ©changÃ©": 7273,
      "Ġrouler": 7274,
      "Ġexacte": 7275,
      "Ġserveur": 7276,
      "ĠprÃ©voit": 7277,
      "Ġdangers": 7278,
      "Ġespion": 7279,
      "Ġemboute": 7280,
      "Ġfondu": 7281,
      "Ġagis": 7282,
      "ĠrÃªvÃ©": 7283,
      "Ġattendit": 7284,
      "ĠrÃ©fu": 7285,
      "ĠÃ©gar": 7286,
      "ĠÃ©glise": 7287,
      "ouverture": 7288,
      "exprimer": 7289,
      "Ġabsor": 7290,
      "Ġcalmer": 7291,
      "ĠaimÃ©e": 7292,
      "Ġapparent": 7293,
      "Ġfonctionn": 7294,
      "Ġsatisfaire": 7295,
      "Ġsuivie": 7296,
      "Ġreprises": 7297,
      "envir": 7298,
      "Ġcrimes": 7299,
      "Ġmiles": 7300,
      "ĠfrappÃ©e": 7301,
      "Ġfallut": 7302,
      "ĠbÃ©bÃ©s": 7303,
      "Ġcasquette": 7304,
      "ĠsauvÃ©e": 7305,
      "Ġjaponaises": 7306,
      "Ġinterro": 7307,
      "ĠprÃ©fÃ¨rerais": 7308,
      "grÃ©s": 7309,
      "Ġtrompes": 7310,
      "Ġremarques": 7311,
      "Ġremarqua": 7312,
      "Ġ25": 7313,
      "Ġdangereuse": 7314,
      "Ġsouffrir": 7315,
      "Ġsouhaites": 7316,
      "ĠsoupÃ©": 7317,
      "Ġplaintes": 7318,
      "ĠvÃ©rifie": 7319,
      "Ã©viter": 7320,
      "Ġhorloge": 7321,
      "Ġmena": 7322,
      "affaires": 7323,
      "Ġparlaient": 7324,
      "Ġstylos": 7325,
      "ĠÃ©teignez": 7326,
      "ĠgoÃ»te": 7327,
      "Ġmoyenne": 7328,
      "Ġrecherchent": 7329,
      "Ġsecondes": 7330,
      "Ġministre": 7331,
      "Ġsurvivre": 7332,
      "ĠeffrayÃ©s": 7333,
      "Ġtimbre": 7334,
      "Ġbordel": 7335,
      "Ġrecommande": 7336,
      "Ġrecommencer": 7337,
      "Ġcomprendrais": 7338,
      "Ġextra": 7339,
      "Ġpeinte": 7340,
      "ĠindiquÃ©": 7341,
      "ĠconsidÃ©ration": 7342,
      "Ġtrib": 7343,
      "ĠÃ©crivit": 7344,
      "ĠprivÃ©e": 7345,
      "ĠemmÃ©n": 7346,
      "Ġbouteilles": 7347,
      "ĠarrÃªta": 7348,
      "ĠsÃ©journ": 7349,
      "Ġnormalement": 7350,
      "appelait": 7351,
      "enseigne": 7352,
      "ĠverrouillÃ©": 7353,
      "Ġverrouiller": 7354,
      "Ġvein": 7355,
      "Ġcompliment": 7356,
      "Ġfonds": 7357,
      "Ġeurent": 7358,
      "ĠeuropÃ©": 7359,
      "ĠdÃ©licieuse": 7360,
      "ĠinquiÃ©tez": 7361,
      "ĠcuriositÃ©": 7362,
      "ĠrÃ©comp": 7363,
      "accepte": 7364,
      "Ġinquiets": 7365,
      "ologue": 7366,
      "ĠÃ©veillÃ©e": 7367,
      "Ġhabits": 7368,
      "Ġmaths": 7369,
      "ĠdÃ©marrÃ©": 7370,
      "ĠlÃ©gal": 7371,
      "Ġplaisanteries": 7372,
      "Ġraconta": 7373,
      "Ġtracasse": 7374,
      "Ġexaminer": 7375,
      "ribuer": 7376,
      "ibi": 7377,
      "ĠrÃ©vÃ©lÃ©": 7378,
      "ĠrÃ©servÃ©": 7379,
      "ĠcuisiniÃ¨re": 7380,
      "Ġintimi": 7381,
      "Ġponctuelle": 7382,
      "Ġsurvivants": 7383,
      "intÃ©ressant": 7384,
      "ĠdÃ©penses": 7385,
      "Ġdisponibles": 7386,
      "Ġlapins": 7387,
      "Ġcouverture": 7388,
      "ĠrÃ©tab": 7389,
      "Ġallumette": 7390,
      "ĠimpressionnÃ©s": 7391,
      "ĠaÃ®nÃ©": 7392,
      "ĠforcÃ©s": 7393,
      "Ġadulte": 7394,
      "Ġcommercial": 7395,
      "Ġcommerciale": 7396,
      "ĠpropriÃ©tÃ©": 7397,
      "Ġsinon": 7398,
      "ĠrÃ©side": 7399,
      "Ġphares": 7400,
      "Ġmicr": 7401,
      "indust": 7402,
      "ĠcomprÃ©hensi": 7403,
      "ĠÃ©crasÃ©": 7404,
      "ĠmÃ©can": 7405,
      "Ġlabeur": 7406,
      "Ġconclusion": 7407,
      "Ġvertige": 7408,
      "Ġplombier": 7409,
      "ĠoffensÃ©e": 7410,
      "ĠaperÃ§u": 7411,
      "Ġstrict": 7412,
      "Ġrembourser": 7413,
      "assurance": 7414,
      "ĠlicenciÃ©": 7415,
      "Ġdiamant": 7416,
      "Ġconsommer": 7417,
      "ĠdÃ©clen": 7418,
      "Ġabattu": 7419,
      "ĠsuggÃ©rer": 7420,
      "ĠrenvoyÃ©": 7421,
      "Ġsurmonter": 7422,
      "Ġrenfor": 7423,
      "Ġherbes": 7424,
      "ĠÃ©lectronique": 7425,
      "vingt": 7426,
      "ĠfainÃ©ant": 7427,
      "Ġabasourdi": 7428,
      "Ġpharmacie": 7429,
      "shirt": 7430,
      "Ġdauph": 7431,
      "Ġouvriers": 7432,
      "Ġbritann": 7433,
      "ĠlittÃ©ra": 7434,
      "valentin": 7435,
      "Ã©quemment": 7436,
      "ĠÃ©lÃ©phants": 7437,
      "Ġmaladies": 7438,
      "ba": 7439,
      "bib": 7440,
      "don": 7441,
      "del": 7442,
      "hy": 7443,
      "idu": 7444,
      "lons": 7445,
      "otes": 7446,
      "tile": 7447,
      "teurs": 7448,
      "va": 7449,
      "Ġis": 7450,
      "Ġdus": 7451,
      "ouiller": 7452,
      "Ã©dÃ©": 7453,
      "ension": 7454,
      "Ġlien": 7455,
      "Ġtab": 7456,
      "ĠtolÃ©": 7457,
      "Ġtiers": 7458,
      "Ġcord": 7459,
      "Ġsaine": 7460,
      "Ġstr": 7461,
      "ĠsoÃ»": 7462,
      "Ġsensi": 7463,
      "onf": 7464,
      "onde": 7465,
      "quant": 7466,
      "Ġvends": 7467,
      "Ġmout": 7468,
      "ĠdegrÃ©s": 7469,
      "illi": 7470,
      "ane": 7471,
      "anim": 7472,
      "Ġfeux": 7473,
      "Ġfoir": 7474,
      "ĠfÃ»t": 7475,
      "Ġ?Â»": 7476,
      "isage": 7477,
      "Ġrag": 7478,
      "Ġrati": 7479,
      "Ġrass": 7480,
      "itations": 7481,
      "itive": 7482,
      "Ġenr": 7483,
      "Ġence": 7484,
      "orent": 7485,
      "ormes": 7486,
      "Ã©to": 7487,
      "aud": 7488,
      "aucher": 7489,
      "ĠparaÃ®tre": 7490,
      "ende": 7491,
      "Ġpluv": 7492,
      "ĠpliÃ©": 7493,
      "rirai": 7494,
      "cif": 7495,
      "ciation": 7496,
      "cieusement": 7497,
      "ĠÃ©tab": 7498,
      "ĠÃ©tern": 7499,
      "Ġgal": 7500,
      "ĠgÃ¨re": 7501,
      "mponnÃ¨rent": 7502,
      "Ġtoubib": 7503,
      "ĠdÃ©gu": 7504,
      "ago": 7505,
      "astron": 7506,
      "iront": 7507,
      "Ġdanseur": 7508,
      "Ġoly": 7509,
      "Ġdevrez": 7510,
      "Ġdeviendra": 7511,
      "Ġalice": 7512,
      "Ġmarron": 7513,
      "Ġsurvenir": 7514,
      "aces": 7515,
      "Ġsonge": 7516,
      "Ġarra": 7517,
      "ĠarmÃ©e": 7518,
      "Ġarna": 7519,
      "Ã©sil": 7520,
      "Ġdisque": 7521,
      "Ġdistr": 7522,
      "Ã»te": 7523,
      "Ġfrustr": 7524,
      "ĠfrÃ©quemment": 7525,
      "diction": 7526,
      "Ġgron": 7527,
      "ĠgrÃ¨ve": 7528,
      "Ġgratte": 7529,
      "Ã®t": 7530,
      "Ã®tres": 7531,
      "Ġtravaillais": 7532,
      "oyait": 7533,
      "aisses": 7534,
      "Ġanaly": 7535,
      "ttent": 7536,
      "Ġrestait": 7537,
      "Ġtrouvaient": 7538,
      "Ġvides": 7539,
      "tenez": 7540,
      "Ġjusque": 7541,
      "Ġjustesse": 7542,
      "Ġvoies": 7543,
      "Ġattendant": 7544,
      "Ġpasserai": 7545,
      "Ġperde": 7546,
      "Ġcomptes": 7547,
      "Ġcomptez": 7548,
      "ĠprobabilitÃ©": 7549,
      "Ġcaches": 7550,
      "Ã¢ts": 7551,
      "Ġarrivait": 7552,
      "ĠarrivÃ¢mes": 7553,
      "ĠÃ©car": 7554,
      "ĠdÃ©sas": 7555,
      "adm": 7556,
      "Ġsouli": 7557,
      "Ġcompromis": 7558,
      "Ġnomme": 7559,
      "ĠpiquÃ©": 7560,
      "Ġretrait": 7561,
      "Ġbranche": 7562,
      "Ġbrave": 7563,
      "ĠbrÃ©sil": 7564,
      "ĠpartagÃ©": 7565,
      "Ġregardons": 7566,
      "Ġregardiez": 7567,
      "Ġavantage": 7568,
      "ĠdÃ©cisions": 7569,
      "Ġvisible": 7570,
      "ulti": 7571,
      "Ġcoupa": 7572,
      "Ġvoyiez": 7573,
      "phÃ¨re": 7574,
      "ĠdÃ©passe": 7575,
      "Ġaboyer": 7576,
      "ĠderniÃ¨rement": 7577,
      "Ġpoker": 7578,
      "ĠpoÃ¨mes": 7579,
      "ĠtombÃ©es": 7580,
      "Ġexplosion": 7581,
      "Ġfaciles": 7582,
      "Ġrecru": 7583,
      "ministr": 7584,
      "Ġcarottes": 7585,
      "ĠÃ©tudiantes": 7586,
      "ĠexcÃ¨s": 7587,
      "ĠvÃ©ritables": 7588,
      "Ġmentez": 7589,
      "Ġmonta": 7590,
      "Ġdurs": 7591,
      "ĠcommencÃ¨rent": 7592,
      "Ġdouce": 7593,
      "Ġproposer": 7594,
      "ĠfiÃ¨res": 7595,
      "ĠdÃ©cid": 7596,
      "ĠdÃ©cidÃ©e": 7597,
      "Ġdevenait": 7598,
      "Ġchantes": 7599,
      "Ġparfum": 7600,
      "Ġobjets": 7601,
      "Ġinsist": 7602,
      "apprÃ©cier": 7603,
      "Ġoubliez": 7604,
      "Ġvivaient": 7605,
      "iditÃ©": 7606,
      "Ġ15": 7607,
      "Ġemplois": 7608,
      "ĠprÃ©senta": 7609,
      "Ġverte": 7610,
      "Ġversion": 7611,
      "Ġplaisantes": 7612,
      "Ġsolitaire": 7613,
      "ĠguÃ©ri": 7614,
      "Ġmoqu": 7615,
      "ĠespÃ¨ce": 7616,
      "ĠordonnÃ©": 7617,
      "Ġagi": 7618,
      "Ġsauce": 7619,
      "Ġsaura": 7620,
      "Ġsouciez": 7621,
      "ĠsÃ©d": 7622,
      "Ġreporter": 7623,
      "ĠsÃ©rieuses": 7624,
      "ouverte": 7625,
      "Ġprofesseurs": 7626,
      "Ġvolant": 7627,
      "ĠvolÃ©e": 7628,
      "Ġradi": 7629,
      "ĠneigÃ©": 7630,
      "ĠrÃ©veil": 7631,
      "Ġrepris": 7632,
      "ĠstupÃ©f": 7633,
      "Ġopin": 7634,
      "Ġoption": 7635,
      "ĠdÃ©fait": 7636,
      "ĠdÃ©fense": 7637,
      "ĠÅĵuv": 7638,
      "ĠÃ©vitÃ©": 7639,
      "Ġgagnera": 7640,
      "Ġracon": 7641,
      "Ġromant": 7642,
      "Ġcommencement": 7643,
      "Ġoranges": 7644,
      "Ġdiminu": 7645,
      "Ġlundis": 7646,
      "ĠirrÃ©": 7647,
      "Ġinternation": 7648,
      "Ġdistrib": 7649,
      "Ġfusil": 7650,
      "ĠÃ©levÃ©e": 7651,
      "Ġvalable": 7652,
      "approuv": 7653,
      "coln": 7654,
      "Ġayant": 7655,
      "Ġaimerions": 7656,
      "Ã©vanou": 7657,
      "ĠdÃ©gÃ¢ts": 7658,
      "Ġhoraire": 7659,
      "ĠcoincÃ©e": 7660,
      "Ġapparemment": 7661,
      "Ġentendez": 7662,
      "annonce": 7663,
      "Ġfermement": 7664,
      "Ġporc": 7665,
      "ĠbÃ¢timents": 7666,
      "Ġmince": 7667,
      "Ġfavor": 7668,
      "ĠglacÃ©e": 7669,
      "ĠdÃ©testais": 7670,
      "ĠdÃ©testait": 7671,
      "ĠdÃ©butant": 7672,
      "ĠzÃ©ro": 7673,
      "ĠspÃ©cialitÃ©": 7674,
      "ĠÃ©tatsun": 7675,
      "Ġindique": 7676,
      "Ġrespectu": 7677,
      "ĠrespectÃ©": 7678,
      "infirmiÃ¨re": 7679,
      "Ġusine": 7680,
      "Ġsanglot": 7681,
      "Ġcherchent": 7682,
      "Ġaccompag": 7683,
      "Ġremett": 7684,
      "Ġcompagnon": 7685,
      "ĠdÃ©mÃ©nage": 7686,
      "Ġveiller": 7687,
      "ambition": 7688,
      "ĠtotalitÃ©": 7689,
      "Ġscand": 7690,
      "ĠespÃ©rait": 7691,
      "Ġdommages": 7692,
      "Ġcouvre": 7693,
      "ĠrÃ©cente": 7694,
      "ĠrÃ©clam": 7695,
      "Ġressemblait": 7696,
      "Ġlimites": 7697,
      "Ġhabitent": 7698,
      "ook": 7699,
      "ĠdÃ©cÃ©dÃ©e": 7700,
      "ĠgÃ©niale": 7701,
      "Ġbourg": 7702,
      "Ġtaper": 7703,
      "Ġrompre": 7704,
      "Ġgrimpe": 7705,
      "ĠcontrariÃ©s": 7706,
      "ĠcontrariÃ©es": 7707,
      "inviter": 7708,
      "abandonne": 7709,
      "Ġprincipal": 7710,
      "Ġoreiller": 7711,
      "ĠdÃ©roule": 7712,
      "Ġobjection": 7713,
      "Ġchauffage": 7714,
      "ruption": 7715,
      "Ġtravaillait": 7716,
      "Ġhorriblement": 7717,
      "ĠmajoritÃ©": 7718,
      "Ġproducti": 7719,
      "Ġsoulage": 7720,
      "Ġmettons": 7721,
      "ĠprocÃ¨s": 7722,
      "horreur": 7723,
      "Ġpneus": 7724,
      "ĠsoulevÃ©": 7725,
      "Ġserviettes": 7726,
      "ĠsincÃ¨rement": 7727,
      "Ġattirant": 7728,
      "Ġobjectifs": 7729,
      "ĠemmenÃ©": 7730,
      "ĠbÃ©nÃ©f": 7731,
      "ĠprocÃ©der": 7732,
      "Ġdocuments": 7733,
      "Ġgliss": 7734,
      "Ġfigure": 7735,
      "Ġphotographie": 7736,
      "Ġmaigri": 7737,
      "ĠpropriÃ©taire": 7738,
      "Ġmanifestement": 7739,
      "Ġguide": 7740,
      "ĠcramponnÃ¨rent": 7741,
      "ĠemmÃ¨ne": 7742,
      "Ġrejoint": 7743,
      "Ġinspiration": 7744,
      "ĠopposÃ©": 7745,
      "ĠconsidÃ©rer": 7746,
      "Ġsemblables": 7747,
      "Ġlincoln": 7748,
      "...": 7749,
      "Ã¨nerai": 7750,
      "ĠparticipÃ©": 7751,
      "Ġchirurgien": 7752,
      "Ġrideau": 7753,
      "Ġsurface": 7754,
      "ĠexpÃ©riences": 7755,
      "ĠaffamÃ©": 7756,
      "Ġtalentueux": 7757,
      "Ġinhabituel": 7758,
      "ĠenterrÃ©": 7759,
      "Ġtitre": 7760,
      "ĠidÃ©al": 7761,
      "Ġentreprises": 7762,
      "Ġinfluence": 7763,
      "ĠsupÃ©rieur": 7764,
      "ĠdÃ©clarez": 7765,
      "ĠmÃ©chante": 7766,
      "Ġdouloureux": 7767,
      "ĠrÃ©flexion": 7768,
      "Ã©prouve": 7769,
      "Ġsolide": 7770,
      "ĠrandonnÃ©e": 7771,
      "Ġcorrespond": 7772,
      "Ġpollution": 7773,
      "Ġprononciation": 7774,
      "Ġsceptique": 7775,
      "ĠÃ©motions": 7776,
      "bÃ©cile": 7777,
      "Ġpistolet": 7778,
      "ĠchaÃ®ne": 7779,
      "chitecte": 7780,
      "orthographe": 7781,
      "Ġinsectes": 7782,
      "Ġoutils": 7783,
      "Ġrichesse": 7784,
      "ĠincompÃ©t": 7785,
      "Ġpromotion": 7786,
      "Ġtatouage": 7787,
      "Ġpyjama": 7788,
      "Ġfrigo": 7789,
      "ĠhuÃ®tres": 7790,
      "Ġeffectivement": 7791,
      "Ġmoutons": 7792,
      "Ġolymp": 7793,
      "bons": 7794,
      "ceur": 7795,
      "lend": 7796,
      "mÃ©es": 7797,
      "pin": 7798,
      "rages": 7799,
      "roite": 7800,
      "tresse": 7801,
      "upp": 7802,
      "vÃ©es": 7803,
      "xophone": 7804,
      "yme": 7805,
      "Ġdin": 7806,
      "aidiez": 7807,
      "ouÃ©e": 7808,
      "Ã©reuse": 7809,
      "Ġlion": 7810,
      "Ġtais": 7811,
      "Ġcic": 7812,
      "Ġsir": 7813,
      "Ġsing": 7814,
      "quit": 7815,
      "Ġvar": 7816,
      "Ġvins": 7817,
      "Ġventre": 7818,
      "ĠvÃªtu": 7819,
      "Ġmail": 7820,
      "erve": 7821,
      "Ġpacif": 7822,
      "ano": 7823,
      "anÃ§": 7824,
      "Ġflot": 7825,
      "ome": 7826,
      "Ġquere": 7827,
      "uns": 7828,
      "Ġcependant": 7829,
      "Ġlatin": 7830,
      "Ġboi": 7831,
      "ĠbÃ»": 7832,
      "Ġbra": 7833,
      "itter": 7834,
      "ĠestimÃ©": 7835,
      "armes": 7836,
      "arpe": 7837,
      "Ġsueur": 7838,
      "orange": 7839,
      "Ġtruite": 7840,
      "Ġtristes": 7841,
      "Ġchasser": 7842,
      "seau": 7843,
      "aurions": 7844,
      "Ġtua": 7845,
      "Ġtue": 7846,
      "Ġpourra": 7847,
      "Ġpourpar": 7848,
      "antÃ©e": 7849,
      "tic": 7850,
      "tiÃ¨res": 7851,
      "ontÃ©": 7852,
      "onnÃ©s": 7853,
      "rimin": 7854,
      "cite": 7855,
      "cide": 7856,
      "Ġgre": 7857,
      "Ġreli": 7858,
      "Ġreine": 7859,
      "ĠremÃ©": 7860,
      "Ġrecon": 7861,
      "Ġhont": 7862,
      "ĠhantÃ©e": 7863,
      "alle": 7864,
      "astr": 7865,
      "ires": 7866,
      "ppe": 7867,
      "Ġirez": 7868,
      "Ġpensions": 7869,
      "ects": 7870,
      "lers": 7871,
      "atti": 7872,
      "Ġprovis": 7873,
      "Ġassi": 7874,
      "Ġailes": 7875,
      "ĠaidÃ©s": 7876,
      "Ġdeviens": 7877,
      "Ġdevrons": 7878,
      "ĠÃ©b": 7879,
      "ĠÃ©vent": 7880,
      "Ġmarcha": 7881,
      "Ġsurmen": 7882,
      "urÃ©e": 7883,
      "Ġpeuple": 7884,
      "illet": 7885,
      "Ġiniti": 7886,
      "Ġvoulions": 7887,
      "uisent": 7888,
      "Ġdisons": 7889,
      "Ġpensa": 7890,
      "ĠpensÃ©es": 7891,
      "Ġfront": 7892,
      "Ġfrac": 7893,
      "Ã©rons": 7894,
      "Ġserm": 7895,
      "Ġsachant": 7896,
      "Ġsaxophone": 7897,
      "Ġgris": 7898,
      "enser": 7899,
      "Ġapplication": 7900,
      "appuy": 7901,
      "Ġexempl": 7902,
      "ĠanÃ©ant": 7903,
      "ĠrestÃ©es": 7904,
      "ĠprÃ©cieuse": 7905,
      "Ġpartira": 7906,
      "Ġvoulut": 7907,
      "Ġmaligne": 7908,
      "Ġcommets": 7909,
      "Ġperman": 7910,
      "Ġtache": 7911,
      "ĠÃ©criture": 7912,
      "Ġdemandait": 7913,
      "ices": 7914,
      "ĠlaissÃ©s": 7915,
      "Ġimpit": 7916,
      "Ġimprud": 7917,
      "Ġcourts": 7918,
      "Ġacte": 7919,
      "Ġacquis": 7920,
      "Ġfinis": 7921,
      "Ġfinissons": 7922,
      "Ġbouc": 7923,
      "Ġbriser": 7924,
      "Ġarranger": 7925,
      "ĠarrangÃ©": 7926,
      "dule": 7927,
      "Ġsimples": 7928,
      "ĠenvoyÃ©e": 7929,
      "ancÃ©e": 7930,
      "Ġempire": 7931,
      "ultÃ©": 7932,
      "attendu": 7933,
      "Ġcoupez": 7934,
      "ĠcoupÃ©e": 7935,
      "ĠsensÃ©": 7936,
      "ocat": 7937,
      "Ġclin": 7938,
      "Ġrendes": 7939,
      "Ġrendus": 7940,
      "Ġrappro": 7941,
      "Ġadme": 7942,
      "ĠtombÃ©s": 7943,
      "allume": 7944,
      "Ġtrouverai": 7945,
      "Ġdifficilement": 7946,
      "ĠmariÃ©es": 7947,
      "Ġhabiter": 7948,
      "Ġautrement": 7949,
      "Ġrevint": 7950,
      "ĠtÃ©lÃ©phonique": 7951,
      "Ġaffai": 7952,
      "Ġaffecte": 7953,
      "ĠcarriÃ¨re": 7954,
      "ĠÃ©tudions": 7955,
      "Ġtarder": 7956,
      "Ġdouceur": 7957,
      "Ġtravaillerons": 7958,
      "Ġrefroid": 7959,
      "accordÃ¨rent": 7960,
      "Ġinsupp": 7961,
      "ĠannoncÃ©": 7962,
      "ĠannulÃ©e": 7963,
      "habille": 7964,
      "Ġrespiration": 7965,
      "Ġbible": 7966,
      "Ġpoliment": 7967,
      "Ġmagie": 7968,
      "Ġvitre": 7969,
      "Ġconcurr": 7970,
      "ĠÃ©pais": 7971,
      "ĠÃ©pouvant": 7972,
      "empirer": 7973,
      "Ġ11": 7974,
      "Ġstopp": 7975,
      "Ġpouvoirs": 7976,
      "Ġutilisez": 7977,
      "Ġcuisines": 7978,
      "Ġremu": 7979,
      "Ġamusez": 7980,
      "Ġsentirez": 7981,
      "Ġespagnol": 7982,
      "Ġgenou": 7983,
      "Ġsourc": 7984,
      "essayerai": 7985,
      "ĠreportÃ©": 7986,
      "ĠgÃ©nÃ©reux": 7987,
      "Ġabsents": 7988,
      "ĠdÃ©rangÃ©e": 7989,
      "Ġchoisit": 7990,
      "ĠapprÃ©cient": 7991,
      "Ġsatisfais": 7992,
      "Ġdessiner": 7993,
      "envie": 7994,
      "enveloppe": 7995,
      "Ġcrie": 7996,
      "Ġattrapa": 7997,
      "ĠarrÃªtÃ©s": 7998,
      "occuperai": 7999
    },
    "merges": [
      [
        "Ġ",
        "p"
      ],
      [
        "Ġ",
        "d"
      ],
      [
        "a",
        "i"
      ],
      [
        "e",
        "s"
      ],
      [
        "o",
        "u"
      ],
      [
        "Ã",
        "©"
      ],
      [
        "e",
        "n"
      ],
      [
        "Ġ",
        "l"
      ],
      [
        "Ġ",
        "t"
      ],
      [
        "Ġ",
        "c"
      ],
      [
        "Ġ",
        "s"
      ],
      [
        "Ġ",
        "j"
      ],
      [
        "r",
        "e"
      ],
      [
        "o",
        "n"
      ],
      [
        "q",
        "u"
      ],
      [
        "Ġ",
        "a"
      ],
      [
        "Ġ",
        "n"
      ],
      [
        "Ġ",
        "v"
      ],
      [
        "Ġ",
        "m"
      ],
      [
        "e",
        "r"
      ],
      [
        "Ġ",
        "qu"
      ],
      [
        "Ġd",
        "e"
      ],
      [
        "Ġp",
        "a"
      ],
      [
        "Ġj",
        "e"
      ],
      [
        "ou",
        "s"
      ],
      [
        "i",
        "l"
      ],
      [
        "o",
        "i"
      ],
      [
        "a",
        "n"
      ],
      [
        "Ġ",
        "Ã"
      ],
      [
        "Ġ",
        "f"
      ],
      [
        "en",
        "t"
      ],
      [
        "o",
        "m"
      ],
      [
        "l",
        "e"
      ],
      [
        "es",
        "t"
      ],
      [
        "Ġqu",
        "e"
      ],
      [
        "Ġpa",
        "s"
      ],
      [
        "ai",
        "s"
      ],
      [
        "u",
        "n"
      ],
      [
        "Ġ",
        "?"
      ],
      [
        "e",
        "u"
      ],
      [
        "i",
        "s"
      ],
      [
        "ĠÃ",
        "ł"
      ],
      [
        "t",
        "e"
      ],
      [
        "Ġ",
        "un"
      ],
      [
        "Ġn",
        "e"
      ],
      [
        "Ġl",
        "e"
      ],
      [
        "Ġc",
        "e"
      ],
      [
        "ou",
        "r"
      ],
      [
        "Ġl",
        "a"
      ],
      [
        "Ġv",
        "ous"
      ],
      [
        "Ġ",
        "b"
      ],
      [
        "Ġ",
        "il"
      ],
      [
        "ai",
        "t"
      ],
      [
        "Ġ",
        "r"
      ],
      [
        "e",
        "z"
      ],
      [
        "Ã",
        "¨"
      ],
      [
        "i",
        "t"
      ],
      [
        "Ġt",
        "om"
      ],
      [
        "i",
        "n"
      ],
      [
        "Ġ",
        "est"
      ],
      [
        "e",
        "l"
      ],
      [
        "Ġ",
        "en"
      ],
      [
        "a",
        "r"
      ],
      [
        "Ġs",
        "u"
      ],
      [
        "Ġp",
        "r"
      ],
      [
        "o",
        "r"
      ],
      [
        "u",
        "s"
      ],
      [
        "Ã©",
        "t"
      ],
      [
        "Ġt",
        "r"
      ],
      [
        "Ġc",
        "h"
      ],
      [
        "m",
        "ent"
      ],
      [
        "Ġa",
        "v"
      ],
      [
        "t",
        "re"
      ],
      [
        "s",
        "e"
      ],
      [
        "a",
        "u"
      ],
      [
        "Ġt",
        "u"
      ],
      [
        "Ġp",
        "our"
      ],
      [
        "Ġn",
        "ous"
      ],
      [
        "on",
        "s"
      ],
      [
        "Ġpa",
        "r"
      ],
      [
        "an",
        "t"
      ],
      [
        "eu",
        "x"
      ],
      [
        "t",
        "u"
      ],
      [
        "el",
        "le"
      ],
      [
        "en",
        "d"
      ],
      [
        "m",
        "e"
      ],
      [
        "t",
        "i"
      ],
      [
        "a",
        "v"
      ],
      [
        "on",
        "t"
      ],
      [
        "c",
        "e"
      ],
      [
        "Ġa",
        "u"
      ],
      [
        "Ġl",
        "es"
      ],
      [
        "Ġm",
        "e"
      ],
      [
        "Ġun",
        "e"
      ],
      [
        "Ġc",
        "om"
      ],
      [
        "c",
        "h"
      ],
      [
        "Ġp",
        "l"
      ],
      [
        "on",
        "n"
      ],
      [
        "r",
        "i"
      ],
      [
        "c",
        "i"
      ],
      [
        "Ã",
        "ª"
      ],
      [
        "Ġ",
        "Ã©t"
      ],
      [
        "Ġ",
        "g"
      ],
      [
        "ou",
        "v"
      ],
      [
        "ai",
        "re"
      ],
      [
        "v",
        "ous"
      ],
      [
        "m",
        "p"
      ],
      [
        "Ġt",
        "ou"
      ],
      [
        "i",
        "en"
      ],
      [
        "ai",
        "n"
      ],
      [
        "Ġsu",
        "is"
      ],
      [
        "Ġt",
        "e"
      ],
      [
        "Ġ",
        "e"
      ],
      [
        "Ġ",
        "re"
      ],
      [
        "Ã©",
        "e"
      ],
      [
        "d",
        "e"
      ],
      [
        "t",
        "es"
      ],
      [
        "oi",
        "r"
      ],
      [
        "Ġ",
        "h"
      ],
      [
        "Ġd",
        "Ã©"
      ],
      [
        "an",
        "s"
      ],
      [
        "a",
        "l"
      ],
      [
        "o",
        "s"
      ],
      [
        "oi",
        "s"
      ],
      [
        "a",
        "g"
      ],
      [
        "Ġs",
        "e"
      ],
      [
        "qu",
        "e"
      ],
      [
        "Ã¨",
        "re"
      ],
      [
        "a",
        "s"
      ],
      [
        "Ġf",
        "aire"
      ],
      [
        "ĠÃ",
        "ª"
      ],
      [
        "Ġ",
        "elle"
      ],
      [
        "i",
        "e"
      ],
      [
        "Ġm",
        "on"
      ],
      [
        "Ġque",
        "l"
      ],
      [
        "§",
        "a"
      ],
      [
        "Ġ",
        "!"
      ],
      [
        "i",
        "r"
      ],
      [
        "ĠÃ",
        "§a"
      ],
      [
        "p",
        "p"
      ],
      [
        "Ġs",
        "i"
      ],
      [
        "r",
        "es"
      ],
      [
        "Ġd",
        "ans"
      ],
      [
        "Ġ",
        "i"
      ],
      [
        "a",
        "m"
      ],
      [
        "Ġp",
        "en"
      ],
      [
        "Ġpl",
        "us"
      ],
      [
        "Ġd",
        "es"
      ],
      [
        "u",
        "i"
      ],
      [
        "l",
        "es"
      ],
      [
        "e",
        "c"
      ],
      [
        "l",
        "er"
      ],
      [
        "Ġqu",
        "i"
      ],
      [
        "a",
        "t"
      ],
      [
        "Ġf",
        "ait"
      ],
      [
        "Ã¨",
        "s"
      ],
      [
        "Ġpr",
        "o"
      ],
      [
        "Ġd",
        "u"
      ],
      [
        "Ġtou",
        "t"
      ],
      [
        "Ġd",
        "i"
      ],
      [
        "Ġ",
        "o"
      ],
      [
        "an",
        "d"
      ],
      [
        "eu",
        "r"
      ],
      [
        "Ġa",
        "s"
      ],
      [
        "an",
        "g"
      ],
      [
        "Ġv",
        "eux"
      ],
      [
        "Ġv",
        "o"
      ],
      [
        "Ġ",
        "ai"
      ],
      [
        "t",
        "te"
      ],
      [
        "Ġde",
        "v"
      ],
      [
        "l",
        "Ã©"
      ],
      [
        "Ġa",
        "l"
      ],
      [
        "b",
        "le"
      ],
      [
        "Ġr",
        "Ã©"
      ],
      [
        "Ġ",
        "Ã©"
      ],
      [
        "Ġav",
        "ec"
      ],
      [
        "l",
        "i"
      ],
      [
        "l",
        "a"
      ],
      [
        "s",
        "i"
      ],
      [
        "Ġm",
        "ar"
      ],
      [
        "Ġ",
        "es"
      ],
      [
        "er",
        "s"
      ],
      [
        "oi",
        "n"
      ],
      [
        "e",
        "au"
      ],
      [
        "r",
        "ai"
      ],
      [
        "Ġsu",
        "r"
      ],
      [
        "u",
        "r"
      ],
      [
        "Ġp",
        "eu"
      ],
      [
        "il",
        "le"
      ],
      [
        "Ġ",
        "y"
      ],
      [
        "or",
        "t"
      ],
      [
        "a",
        "c"
      ],
      [
        "Ġ",
        "in"
      ],
      [
        "m",
        "es"
      ],
      [
        "Ã",
        "ł"
      ],
      [
        "f",
        "f"
      ],
      [
        "i",
        "v"
      ],
      [
        "mp",
        "s"
      ],
      [
        "Ġe",
        "t"
      ],
      [
        "ĠÃª",
        "tes"
      ],
      [
        "Ġv",
        "ou"
      ],
      [
        "p",
        "r"
      ],
      [
        "Ġs",
        "ont"
      ],
      [
        "ch",
        "e"
      ],
      [
        "onn",
        "e"
      ],
      [
        "Ġc",
        "on"
      ],
      [
        "t",
        "Ã©"
      ],
      [
        "Ġs",
        "on"
      ],
      [
        "end",
        "re"
      ],
      [
        "Ġce",
        "tte"
      ],
      [
        "i",
        "er"
      ],
      [
        "Ġa",
        "r"
      ],
      [
        "t",
        "er"
      ],
      [
        "j",
        "e"
      ],
      [
        "Ġd",
        "it"
      ],
      [
        "o",
        "se"
      ],
      [
        "Ġm",
        "a"
      ],
      [
        "ou",
        "p"
      ],
      [
        "i",
        "on"
      ],
      [
        "a",
        "ti"
      ],
      [
        "Ġtr",
        "Ã¨s"
      ],
      [
        "r",
        "ais"
      ],
      [
        "Ġm",
        "ais"
      ],
      [
        "Ġce",
        "la"
      ],
      [
        "Ġm",
        "oi"
      ],
      [
        "u",
        "x"
      ],
      [
        "Ġp",
        "eux"
      ],
      [
        "u",
        "is"
      ],
      [
        "Ġvo",
        "tre"
      ],
      [
        "ai",
        "l"
      ],
      [
        "ar",
        "d"
      ],
      [
        "Ġte",
        "mps"
      ],
      [
        "ĠÃª",
        "tre"
      ],
      [
        "Ã©",
        "s"
      ],
      [
        "Ġl",
        "ui"
      ],
      [
        "Ġde",
        "m"
      ],
      [
        "Ġd",
        "is"
      ],
      [
        "qu",
        "oi"
      ],
      [
        "Ġpour",
        "quoi"
      ],
      [
        "Ġpen",
        "s"
      ],
      [
        "Ã",
        "»"
      ],
      [
        "j",
        "our"
      ],
      [
        "Ġf",
        "r"
      ],
      [
        "ĠÃ©t",
        "ait"
      ],
      [
        "c",
        "o"
      ],
      [
        "Ġa",
        "m"
      ],
      [
        "Ġs",
        "ais"
      ],
      [
        "u",
        "t"
      ],
      [
        "Ġv",
        "rai"
      ],
      [
        "d",
        "i"
      ],
      [
        "ĠÃ©t",
        "Ã©"
      ],
      [
        "Ġp",
        "ouv"
      ],
      [
        "Ã",
        "´"
      ],
      [
        "Ã©",
        "r"
      ],
      [
        "Ġav",
        "ez"
      ],
      [
        "Ġtr",
        "av"
      ],
      [
        "oi",
        "t"
      ],
      [
        "Ġpen",
        "se"
      ],
      [
        "Ġs",
        "er"
      ],
      [
        "Ġs",
        "a"
      ],
      [
        "Ġj",
        "am"
      ],
      [
        "ri",
        "v"
      ],
      [
        "Ġg",
        "r"
      ],
      [
        "ag",
        "e"
      ],
      [
        "o",
        "l"
      ],
      [
        "Ġil",
        "s"
      ],
      [
        "g",
        "n"
      ],
      [
        "el",
        "les"
      ],
      [
        "Ġch",
        "ose"
      ],
      [
        "a",
        "p"
      ],
      [
        "en",
        "s"
      ],
      [
        "c",
        "u"
      ],
      [
        "Ã",
        "§"
      ],
      [
        "Ġi",
        "ci"
      ],
      [
        "Ġc",
        "r"
      ],
      [
        "Ġa",
        "pp"
      ],
      [
        "o",
        "p"
      ],
      [
        "Ã",
        "¹"
      ],
      [
        "Ã",
        "®"
      ],
      [
        "Ġjam",
        "ais"
      ],
      [
        "m",
        "er"
      ],
      [
        "Ġcom",
        "ment"
      ],
      [
        "o",
        "t"
      ],
      [
        "Ġb",
        "ien"
      ],
      [
        "Ġh",
        "eu"
      ],
      [
        "u",
        "e"
      ],
      [
        "Ġtrav",
        "ail"
      ],
      [
        "Ġp",
        "ers"
      ],
      [
        "a",
        "pp"
      ],
      [
        "Ġo",
        "Ã¹"
      ],
      [
        "Ġs",
        "av"
      ],
      [
        "Ġb",
        "eau"
      ],
      [
        "un",
        "e"
      ],
      [
        "Ġvrai",
        "ment"
      ],
      [
        "or",
        "te"
      ],
      [
        "Ġdi",
        "re"
      ],
      [
        "a",
        "ble"
      ],
      [
        "Ġt",
        "on"
      ],
      [
        "Ġe",
        "x"
      ],
      [
        "o",
        "y"
      ],
      [
        "Ġ",
        "ent"
      ],
      [
        "Ġs",
        "om"
      ],
      [
        "ais",
        "s"
      ],
      [
        "Ġquel",
        "que"
      ],
      [
        "Ġa",
        "n"
      ],
      [
        "t",
        "t"
      ],
      [
        "Ġj",
        "our"
      ],
      [
        "it",
        "Ã©"
      ],
      [
        "Ġt",
        "oi"
      ],
      [
        "i",
        "Ã¨re"
      ],
      [
        "Ġt",
        "ous"
      ],
      [
        "Ãª",
        "te"
      ],
      [
        "m",
        "oi"
      ],
      [
        "Ġs",
        "eu"
      ],
      [
        "re",
        "r"
      ],
      [
        "au",
        "t"
      ],
      [
        "c",
        "oup"
      ],
      [
        "u",
        "it"
      ],
      [
        "Ġbeau",
        "coup"
      ],
      [
        "Ġr",
        "est"
      ],
      [
        "es",
        "oin"
      ],
      [
        "Ġb",
        "esoin"
      ],
      [
        "Ġpr",
        "Ã©"
      ],
      [
        "es",
        "s"
      ],
      [
        "Ġpeu",
        "t"
      ],
      [
        "Ġm",
        "ain"
      ],
      [
        "Ġtr",
        "ouv"
      ],
      [
        "b",
        "re"
      ],
      [
        "Ġ",
        "on"
      ],
      [
        "n",
        "e"
      ],
      [
        "tu",
        "re"
      ],
      [
        "r",
        "Ã©"
      ],
      [
        "Ġv",
        "i"
      ],
      [
        "t",
        "en"
      ],
      [
        "Ġsom",
        "mes"
      ],
      [
        "g",
        "ent"
      ],
      [
        "Ġpar",
        "ti"
      ],
      [
        "Ġj",
        "us"
      ],
      [
        "a",
        "b"
      ],
      [
        "i",
        "ez"
      ],
      [
        "Ġv",
        "oi"
      ],
      [
        "Ġm",
        "ang"
      ],
      [
        "Ġvou",
        "l"
      ],
      [
        "Ġpers",
        "onne"
      ],
      [
        "Ġm",
        "es"
      ],
      [
        "Ġav",
        "ons"
      ],
      [
        "Ãª",
        "tre"
      ],
      [
        "or",
        "s"
      ],
      [
        "le",
        "z"
      ],
      [
        "Ġf",
        "er"
      ],
      [
        "Ġ",
        "ont"
      ],
      [
        "Ġm",
        "al"
      ],
      [
        "Ġr",
        "ien"
      ],
      [
        "l",
        "Ã¨"
      ],
      [
        "Ġf",
        "ais"
      ],
      [
        "Ġcom",
        "me"
      ],
      [
        "Ġse",
        "m"
      ],
      [
        "Ġl",
        "Ãł"
      ],
      [
        "Ġal",
        "ler"
      ],
      [
        "le",
        "ment"
      ],
      [
        "Ġv",
        "a"
      ],
      [
        "Ġquel",
        "qu"
      ],
      [
        "Ġp",
        "e"
      ],
      [
        "Ġa",
        "tt"
      ],
      [
        "Ġtr",
        "ain"
      ],
      [
        "Ġpar",
        "ler"
      ],
      [
        "Ãª",
        "me"
      ],
      [
        "Ġv",
        "en"
      ],
      [
        "Ġpas",
        "s"
      ],
      [
        "Ġmais",
        "on"
      ],
      [
        "Ġheu",
        "re"
      ],
      [
        "Ġmar",
        "y"
      ],
      [
        "d",
        "er"
      ],
      [
        "g",
        "e"
      ],
      [
        "ati",
        "on"
      ],
      [
        "Ġas",
        "s"
      ],
      [
        "il",
        "e"
      ],
      [
        "a",
        "y"
      ],
      [
        "Ġp",
        "er"
      ],
      [
        "Ġtr",
        "op"
      ],
      [
        "Ġqu",
        "oi"
      ],
      [
        "an",
        "ce"
      ],
      [
        "a",
        "Ã®"
      ],
      [
        "Ã©",
        "es"
      ],
      [
        "Ġv",
        "oir"
      ],
      [
        "Ã©t",
        "ait"
      ],
      [
        "Ġtou",
        "jour"
      ],
      [
        "Ġtoujour",
        "s"
      ],
      [
        "Ġde",
        "ux"
      ],
      [
        "en",
        "c"
      ],
      [
        "Ġ",
        "elles"
      ],
      [
        "oi",
        "re"
      ],
      [
        "v",
        "e"
      ],
      [
        "Ġcom",
        "p"
      ],
      [
        "ai",
        "me"
      ],
      [
        "Ġn",
        "ouv"
      ],
      [
        "u",
        "re"
      ],
      [
        "Ġpro",
        "b"
      ],
      [
        "Ġt",
        "a"
      ],
      [
        "Ġb",
        "on"
      ],
      [
        "Ġqu",
        "and"
      ],
      [
        "il",
        "s"
      ],
      [
        "iv",
        "re"
      ],
      [
        "Ġc",
        "a"
      ],
      [
        "Ã",
        "¢"
      ],
      [
        "Ġc",
        "ont"
      ],
      [
        "r",
        "ait"
      ],
      [
        "Ġen",
        "f"
      ],
      [
        "co",
        "re"
      ],
      [
        "Ġp",
        "uis"
      ],
      [
        "us",
        "si"
      ],
      [
        "Ġmon",
        "de"
      ],
      [
        "Ġl",
        "i"
      ],
      [
        "Ġen",
        "core"
      ],
      [
        "Ġc",
        "onn"
      ],
      [
        "in",
        "e"
      ],
      [
        "Ġv",
        "eu"
      ],
      [
        "Ġar",
        "riv"
      ],
      [
        "or",
        "m"
      ],
      [
        "ĠÃ©",
        "c"
      ],
      [
        "e",
        "m"
      ],
      [
        "or",
        "d"
      ],
      [
        "Ġre",
        "g"
      ],
      [
        "Ġs",
        "oit"
      ],
      [
        "ant",
        "s"
      ],
      [
        "Ã´",
        "t"
      ],
      [
        "Ġdem",
        "and"
      ],
      [
        "end",
        "s"
      ],
      [
        "en",
        "ce"
      ],
      [
        "ain",
        "e"
      ],
      [
        "ch",
        "er"
      ],
      [
        "Ġf",
        "aut"
      ],
      [
        "ai",
        "r"
      ],
      [
        "Ġn",
        "o"
      ],
      [
        "Ġcom",
        "b"
      ],
      [
        "Ġ",
        "ou"
      ],
      [
        "er",
        "t"
      ],
      [
        "Ġd",
        "onn"
      ],
      [
        "ien",
        "s"
      ],
      [
        "Ġd",
        "ois"
      ],
      [
        "mer",
        "ais"
      ],
      [
        "an",
        "te"
      ],
      [
        "Ġvoi",
        "ture"
      ],
      [
        "d",
        "re"
      ],
      [
        "i",
        "ons"
      ],
      [
        "Ġs",
        "es"
      ],
      [
        "i",
        "c"
      ],
      [
        "Ġav",
        "oir"
      ],
      [
        "Ġl",
        "aiss"
      ],
      [
        "Ġd",
        "er"
      ],
      [
        "as",
        "s"
      ],
      [
        "Ġi",
        "mp"
      ],
      [
        "ĠrÃ©",
        "p"
      ],
      [
        "Ã©t",
        "ais"
      ],
      [
        "Ġp",
        "os"
      ],
      [
        "Ġcom",
        "m"
      ],
      [
        "es",
        "p"
      ],
      [
        "Ġc",
        "our"
      ],
      [
        "i",
        "gn"
      ],
      [
        "ĠdÃ©",
        "s"
      ],
      [
        "Ġf",
        "ois"
      ],
      [
        "Ġmain",
        "ten"
      ],
      [
        "Ã©",
        "ri"
      ],
      [
        "ai",
        "ent"
      ],
      [
        "ar",
        "gent"
[...]
